{
  "version": "1.0",
  "truncation": null,
  "padding": null,
  "added_tokens": [
    {
      "id": 0,
      "content": "<pad>",
      "single_word": false,
      "lstrip": false,
      "rstrip": false,
      "normalized": false,
      "special": true
    },
    {
      "id": 1,
      "content": "<unk>",
      "single_word": false,
      "lstrip": false,
      "rstrip": false,
      "normalized": false,
      "special": true
    },
    {
      "id": 2,
      "content": "<bos>",
      "single_word": false,
      "lstrip": false,
      "rstrip": false,
      "normalized": false,
      "special": true
    },
    {
      "id": 3,
      "content": "<eos>",
      "single_word": false,
      "lstrip": false,
      "rstrip": false,
      "normalized": false,
      "special": true
    },
    {
      "id": 4,
      "content": "<|system|>",
      "single_word": false,
      "lstrip": false,
      "rstrip": false,
      "normalized": false,
      "special": true
    },
    {
      "id": 5,
      "content": "<|user|>",
      "single_word": false,
      "lstrip": false,
      "rstrip": false,
      "normalized": false,
      "special": true
    },
    {
      "id": 6,
      "content": "<|assistant|>",
      "single_word": false,
      "lstrip": false,
      "rstrip": false,
      "normalized": false,
      "special": true
    },
    {
      "id": 7,
      "content": "<|sentilight|>",
      "single_word": false,
      "lstrip": false,
      "rstrip": false,
      "normalized": false,
      "special": true
    },
    {
      "id": 8,
      "content": "<|json|>",
      "single_word": false,
      "lstrip": false,
      "rstrip": false,
      "normalized": false,
      "special": true
    },
    {
      "id": 9,
      "content": "<|tasmota|>",
      "single_word": false,
      "lstrip": false,
      "rstrip": false,
      "normalized": false,
      "special": true
    }
  ],
  "normalizer": {
    "type": "Sequence",
    "normalizers": [
      {
        "type": "NFKC"
      }
    ]
  },
  "pre_tokenizer": {
    "type": "ByteLevel",
    "add_prefix_space": false,
    "trim_offsets": true,
    "use_regex": true
  },
  "post_processor": {
    "type": "TemplateProcessing",
    "single": [
      {
        "Sequence": {
          "id": "A",
          "type_id": 0
        }
      }
    ],
    "pair": [
      {
        "Sequence": {
          "id": "A",
          "type_id": 0
        }
      },
      {
        "Sequence": {
          "id": "B",
          "type_id": 1
        }
      }
    ],
    "special_tokens": {}
  },
  "decoder": {
    "type": "ByteLevel",
    "add_prefix_space": true,
    "trim_offsets": true,
    "use_regex": true
  },
  "model": {
    "type": "BPE",
    "dropout": null,
    "unk_token": "<unk>",
    "continuing_subword_prefix": null,
    "end_of_word_suffix": null,
    "fuse_unk": false,
    "byte_fallback": false,
    "ignore_merges": false,
    "vocab": {
      "<pad>": 0,
      "<unk>": 1,
      "<bos>": 2,
      "<eos>": 3,
      "<|system|>": 4,
      "<|user|>": 5,
      "<|assistant|>": 6,
      "<|sentilight|>": 7,
      "<|json|>": 8,
      "<|tasmota|>": 9,
      "!": 10,
      "\"": 11,
      "#": 12,
      "$": 13,
      "%": 14,
      "&": 15,
      "'": 16,
      "(": 17,
      ")": 18,
      "*": 19,
      "+": 20,
      ",": 21,
      "-": 22,
      ".": 23,
      "/": 24,
      "0": 25,
      "1": 26,
      "2": 27,
      "3": 28,
      "4": 29,
      "5": 30,
      "6": 31,
      "7": 32,
      "8": 33,
      "9": 34,
      ":": 35,
      ";": 36,
      "<": 37,
      "=": 38,
      ">": 39,
      "?": 40,
      "@": 41,
      "A": 42,
      "B": 43,
      "C": 44,
      "D": 45,
      "E": 46,
      "F": 47,
      "G": 48,
      "H": 49,
      "I": 50,
      "J": 51,
      "K": 52,
      "L": 53,
      "M": 54,
      "N": 55,
      "O": 56,
      "P": 57,
      "Q": 58,
      "R": 59,
      "S": 60,
      "T": 61,
      "U": 62,
      "V": 63,
      "W": 64,
      "X": 65,
      "Y": 66,
      "Z": 67,
      "[": 68,
      "\\": 69,
      "]": 70,
      "^": 71,
      "_": 72,
      "`": 73,
      "a": 74,
      "b": 75,
      "c": 76,
      "d": 77,
      "e": 78,
      "f": 79,
      "g": 80,
      "h": 81,
      "i": 82,
      "j": 83,
      "k": 84,
      "l": 85,
      "m": 86,
      "n": 87,
      "o": 88,
      "p": 89,
      "q": 90,
      "r": 91,
      "s": 92,
      "t": 93,
      "u": 94,
      "v": 95,
      "w": 96,
      "x": 97,
      "y": 98,
      "z": 99,
      "{": 100,
      "|": 101,
      "}": 102,
      "~": 103,
      "¡": 104,
      "¢": 105,
      "£": 106,
      "¤": 107,
      "¥": 108,
      "¦": 109,
      "§": 110,
      "¨": 111,
      "©": 112,
      "ª": 113,
      "«": 114,
      "¬": 115,
      "®": 116,
      "¯": 117,
      "°": 118,
      "±": 119,
      "²": 120,
      "³": 121,
      "´": 122,
      "µ": 123,
      "¶": 124,
      "·": 125,
      "¸": 126,
      "¹": 127,
      "º": 128,
      "»": 129,
      "¼": 130,
      "½": 131,
      "¾": 132,
      "¿": 133,
      "À": 134,
      "Á": 135,
      "Â": 136,
      "Ã": 137,
      "Ä": 138,
      "Å": 139,
      "Æ": 140,
      "Ç": 141,
      "È": 142,
      "É": 143,
      "Ê": 144,
      "Ë": 145,
      "Ì": 146,
      "Í": 147,
      "Î": 148,
      "Ï": 149,
      "Ð": 150,
      "Ñ": 151,
      "Ò": 152,
      "Ó": 153,
      "Ô": 154,
      "Õ": 155,
      "Ö": 156,
      "×": 157,
      "Ø": 158,
      "Ù": 159,
      "Ú": 160,
      "Û": 161,
      "Ü": 162,
      "Ý": 163,
      "Þ": 164,
      "ß": 165,
      "à": 166,
      "á": 167,
      "â": 168,
      "ã": 169,
      "ä": 170,
      "å": 171,
      "æ": 172,
      "ç": 173,
      "è": 174,
      "é": 175,
      "ê": 176,
      "ë": 177,
      "ì": 178,
      "í": 179,
      "î": 180,
      "ï": 181,
      "ð": 182,
      "ñ": 183,
      "ò": 184,
      "ó": 185,
      "ô": 186,
      "õ": 187,
      "ö": 188,
      "÷": 189,
      "ø": 190,
      "ù": 191,
      "ú": 192,
      "û": 193,
      "ü": 194,
      "ý": 195,
      "þ": 196,
      "ÿ": 197,
      "Ā": 198,
      "ā": 199,
      "Ă": 200,
      "ă": 201,
      "Ą": 202,
      "ą": 203,
      "Ć": 204,
      "ć": 205,
      "Ĉ": 206,
      "ĉ": 207,
      "Ċ": 208,
      "ċ": 209,
      "Č": 210,
      "č": 211,
      "Ď": 212,
      "ď": 213,
      "Đ": 214,
      "đ": 215,
      "Ē": 216,
      "ē": 217,
      "Ĕ": 218,
      "ĕ": 219,
      "Ė": 220,
      "ė": 221,
      "Ę": 222,
      "ę": 223,
      "Ě": 224,
      "ě": 225,
      "Ĝ": 226,
      "ĝ": 227,
      "Ğ": 228,
      "ğ": 229,
      "Ġ": 230,
      "ġ": 231,
      "Ģ": 232,
      "ģ": 233,
      "Ĥ": 234,
      "ĥ": 235,
      "Ħ": 236,
      "ħ": 237,
      "Ĩ": 238,
      "ĩ": 239,
      "Ī": 240,
      "ī": 241,
      "Ĭ": 242,
      "ĭ": 243,
      "Į": 244,
      "į": 245,
      "İ": 246,
      "ı": 247,
      "Ĳ": 248,
      "ĳ": 249,
      "Ĵ": 250,
      "ĵ": 251,
      "Ķ": 252,
      "ķ": 253,
      "ĸ": 254,
      "Ĺ": 255,
      "ĺ": 256,
      "Ļ": 257,
      "ļ": 258,
      "Ľ": 259,
      "ľ": 260,
      "Ŀ": 261,
      "ŀ": 262,
      "Ł": 263,
      "ł": 264,
      "Ń": 265,
      "Ġì": 266,
      "ìĿ": 267,
      "Ġë": 268,
      "íķ": 269,
      "Ġê": 270,
      "ìĹ": 271,
      "ëĭ": 272,
      "ê³": 273,
      "Ġí": 274,
      "ëĬ": 275,
      "ìł": 276,
      "ëĬĶ": 277,
      "ê°": 278,
      "ìĹĲ": 279,
      "ìĿ´": 280,
      "ìĦ": 281,
      "ìĿĦ": 282,
      "íķĺ": 283,
      "ìĿĺ": 284,
      "ìļ": 285,
      "Ġìŀ": 286,
      "ëĭ¤": 287,
      "ë¡": 288,
      "ìŀ": 289,
      "´ë": 290,
      "íķľ": 291,
      "ê°Ģ": 292,
      "§Ģ": 293,
      "ìľ": 294,
      "ĠìĿ": 295,
      "Ĥ¬": 296,
      "ë¡ľ": 297,
      "ìĭ": 298,
      "¸°": 299,
      "ĮĢ": 300,
      "Ġìł": 301,
      "ê³ł": 302,
      "ë¥": 303,
      "íķ´": 304,
      "ê²": 305,
      "ëı": 306,
      "ìĿĢ": 307,
      "ëĤ": 308,
      "ĠìŀĪ": 309,
      "Ġê°": 310,
      "Ġë°": 311,
      "Ġìĸ": 312,
      "ìķ": 313,
      "êµ": 314,
      "Īĺ": 315,
      "ì§Ģ": 316,
      "ë¥¼": 317,
      "ìĽ": 318,
      "ìļĶ": 319,
      "ìĦľ": 320,
      "ìĿ¸": 321,
      "ê¸°": 322,
      "ëıĦ": 323,
      "ĠëĮĢ": 324,
      "ìľ¼": 325,
      "ë¦": 326,
      "ìĸ": 327,
      "Ġê²": 328,
      "Īëĭ¤": 329,
      "Ġìĸ´ë": 330,
      "Ġìĭ": 331,
      "ëĲ": 332,
      "ëĤĺ": 333,
      "ìĤ¬": 334,
      "¶Ģ": 335,
      "ê³¼": 336,
      "ìĽĲ": 337,
      "Ġê³": 338,
      "ìĭľ": 339,
      "ĠìĦ": 340,
      "ìĬ": 341,
      "ìłķ": 342,
      "Ġìĸ´ëĸ": 343,
      "ĠìĪĺ": 344,
      "Ġìľ": 345,
      "íĻ": 346,
      "ëł": 347,
      "´Ģ": 348,
      "ëĵ": 349,
      "ë¬": 350,
      "ìĥ": 351,
      "Ġë¬": 352,
      "ìľ¼ë¡ľ": 353,
      "íļ": 354,
      "£¼": 355,
      "ë³": 356,
      "ĠìĤ¬": 357,
      "ëĭĪëĭ¤": 358,
      "ĠìĹ": 359,
      "ë°": 360,
      "ì²": 361,
      "íĸ": 362,
      "ë¦¬": 363,
      "Ġìķ": 364,
      "Ġêµ": 365,
      "¡°": 366,
      "ìĹĲìĦľ": 367,
      "ìŀĲ": 368,
      "ìĺ": 369,
      "ê²Į": 370,
      "Ĥ°": 371,
      "ìĹħ": 372,
      "Ġì§Ģ": 373,
      "ë©": 374,
      "ĠìĿ´": 375,
      "ìŀ¥": 376,
      "Ġìĺ": 377,
      "ìļ©": 378,
      "ìłģ": 379,
      "ì§": 380,
      "ë¶Ģ": 381,
      "ìĻ": 382,
      "ìłľ": 383,
      "Ġë³": 384,
      "ĨĮ": 385,
      "Ġë§": 386,
      "ĠëĤ": 387,
      "ë§": 388,
      "ĠìľĦ": 389,
      "Ġëĭ": 390,
      "Ġëĵ": 391,
      "ëĲĺ": 392,
      "ìĤ°": 393,
      "íļĮ": 394,
      "ìĦ±": 395,
      "Ŀ¼": 396,
      "Ġê¸°": 397,
      "ìĹ¬": 398,
      "Ġìĸ´ëĸ¤": 399,
      "ìłĦ": 400,
      "íķĺê³ł": 401,
      "ìĸ´": 402,
      "Ġíķ": 403,
      "íķĺëĬĶ": 404,
      "ëĵ¤": 405,
      "ĠíĻ": 406,
      "ëĿ¼": 407,
      "ëĮĢ": 408,
      "ëħ": 409,
      "ì¹": 410,
      "Ġìłľ": 411,
      "Ġìĥ": 412,
      "íĻĶ": 413,
      "ëª": 414,
      "Ġ1": 415,
      "íĺ": 416,
      "¤ĳ": 417,
      "ëĤĺìļĶ": 418,
      "Ġìĭľ": 419,
      "ê¸": 420,
      "ìĥģ": 421,
      "Ġëı": 422,
      "¹Ħ": 423,
      "êµ¬": 424,
      "ĠìłĦ": 425,
      "ìĻĢ": 426,
      "Ġëĵ±": 427,
      "Ġë¬´": 428,
      "ëŀ": 429,
      "Ġìļ": 430,
      "Ġê·": 431,
      "Ġê´Ģ": 432,
      "íķł": 433,
      "Ĩµ": 434,
      "ìĬµ": 435,
      "Ġëª": 436,
      "ëħĦ": 437,
      "Ġíĺ": 438,
      "Ġê°Ģ": 439,
      "ë²": 440,
      "ìĪĺ": 441,
      "ĠìŀĪëĬĶ": 442,
      "Ġë¬´ìĹ": 443,
      "Ġë¬´ìĹĩ": 444,
      "ê´Ģ": 445,
      "êµŃ": 446,
      "ìĬ¤": 447,
      "ì£¼": 448,
      "Ġì£¼": 449,
      "ìĬµëĭĪëĭ¤": 450,
      "Ġê²ĥ": 451,
      "Ġì§": 452,
      "íĸī": 453,
      "Ġê²½": 454,
      "Ġì¤ĳ": 455,
      "ë¯": 456,
      "ìĿ¼": 457,
      "ë©°": 458,
      "ê³µ": 459,
      "ìĿ¸ê°Ģ": 460,
      "ê²½": 461,
      "ìĨĮ": 462,
      "ì¹ĺ": 463,
      "íĥ": 464,
      "Ġì¡°": 465,
      "ì¶": 466,
      "Ĩį": 467,
      "Ġê°ľ": 468,
      "ì¡°": 469,
      "ê·": 470,
      "Ġìłķ": 471,
      "Ġ2": 472,
      "Ġì¶": 473,
      "ìķĪ": 474,
      "íķĺìĹ¬": 475,
      "ĠëĮĢíķľ": 476,
      "ê±": 477,
      "ê³Ħ": 478,
      "ëŁ": 479,
      "ëıĻ": 480,
      "íĦ": 481,
      "¶Ħ": 482,
      "ìĹŃ": 483,
      "Ġê³µ": 484,
      "Ġì°": 485,
      "ë¹Ħ": 486,
      "ĠìŀĲ": 487,
      "ëªħ": 488,
      "ĠìĿ´ë": 489,
      "ìľł": 490,
      "êµĲ": 491,
      "Ġëĭ¤": 492,
      "ëį": 493,
      "Ġì²": 494,
      "ìĹĪ": 495,
      "ĠìĿ¸": 496,
      "íĦ°": 497,
      "ĠìĿĺ": 498,
      "ì°": 499,
      "ë¬¸": 500,
      "Ġë³´": 501,
      "ëĲľ": 502,
      "Â·": 503,
      "ĠìĺĪ": 504,
      "»ê²Į": 505,
      "Ġë°©": 506,
      "ì§Ħ": 507,
      "Ġìĸ´ëĸ»ê²Į": 508,
      "ìľĦ": 509,
      "ë©´": 510,
      "Ġë¶Ģ": 511,
      "íĬ": 512,
      "ìĦ¸": 513,
      "Ġê·¸": 514,
      "Ġë°ľ": 515,
      "Ġë¬´ìĹĩìĿ¸ê°Ģ": 516,
      "ĠëĲ": 517,
      "ëł¥": 518,
      "ìķĦ": 519,
      "Ġë°ı": 520,
      "ìķ¼": 521,
      "íķĻ": 522,
      "Ġê±": 523,
      "Ġìĥģ": 524,
      "ĠíĨµ": 525,
      "ë³´": 526,
      "ë£": 527,
      "ĠëıĦ": 528,
      "ìĥĿ": 529,
      "Ġíķľ": 530,
      "ĠìĦ¤": 531,
      "ĠìľĦíķ´": 532,
      "ĠìŀĪìĬµëĭĪëĭ¤": 533,
      "ĠëĤ´": 534,
      "ìĭĿ": 535,
      "ĠìĨĮ": 536,
      "íķ©": 537,
      "ĠìĿ¼": 538,
      "Ġíı": 539,
      "ìŀ¬": 540,
      "ìľ¡": 541,
      "ê°ľ": 542,
      "Ġíĸ": 543,
      "ë¬´": 544,
      "ëĤ¨": 545,
      "ì²´": 546,
      "ëĭ¨": 547,
      "ìĦł": 548,
      "ìļ°": 549,
      "ĠëĮĢíķ´": 550,
      "ìĭł": 551,
      "ë°©": 552,
      "Ġíķĺ": 553,
      "Ġìľł": 554,
      "ìĸĳ": 555,
      "Ġê³Ħ": 556,
      "ê°Ħ": 557,
      "Ġêµ¬": 558,
      "ë¬¼": 559,
      "Ġë¬¸": 560,
      "ĠìĽ": 561,
      "ë§Į": 562,
      "ìĺģ": 563,
      "ê¹": 564,
      "Ġíķ´": 565,
      "ë²ķ": 566,
      "ë¯¼": 567,
      "ê¸Ī": 568,
      "ĠêµĲ": 569,
      "ĠêµŃ": 570,
      "ìĪ": 571,
      "ê¸ī": 572,
      "ìĽĶ": 573,
      "Ġë²": 574,
      "ĠìĻ": 575,
      "ìĦ¤": 576,
      "ìŀħ": 577,
      "íĬ¸": 578,
      "ĠìĹ°": 579,
      "ĴĪ": 580,
      "¢ħ": 581,
      "Ġì¶Ķ": 582,
      "íı": 583,
      "ì²Ń": 584,
      "ìĺĢ": 585,
      "ëł¨": 586,
      "Ġë¯": 587,
      "±ħ": 588,
      "ĠìĥĿ": 589,
      "Ġê³ł": 590,
      "ê¹Į": 591,
      "ĠìķĦ": 592,
      "ĠëĶ": 593,
      "ìłģìĿ¸": 594,
      "íļį": 595,
      "Ġëħ": 596,
      "ĠìĦł": 597,
      "Ġìĭł": 598,
      "ĽĦ": 599,
      "ë¡Ŀ": 600,
      "ĠìĤ¬ìĹħ": 601,
      "ĳľ": 602,
      "ĠìĽĲ": 603,
      "ë£Į": 604,
      "ëŁ¬": 605,
      "ĠëĲĺ": 606,
      "íĨµ": 607,
      "ëį°": 608,
      "µľ": 609,
      "ìĭ¤": 610,
      "íĴĪ": 611,
      "ĠíĶ": 612,
      "ëł¤": 613,
      "Ġì§ĢìĽĲ": 614,
      "ë¶Ħ": 615,
      "ĠíĻľ": 616,
      "ĠëĤĺ": 617,
      "Ġíļ": 618,
      "ĠíĨµíķ´": 619,
      "ëĭĪ": 620,
      "Ġëį": 621,
      "ĠìŀĪëĭ¤": 622,
      "ì¡": 623,
      "íĺ¸": 624,
      "´ĳ": 625,
      "ĠìŀĪëĤĺìļĶ": 626,
      "Ġ3": 627,
      "ìĹ°": 628,
      "ê±°": 629,
      "íķĺê¸°": 630,
      "ë°ľ": 631,
      "ĠíĮ": 632,
      "Ġ'": 633,
      "ĠëĤ´ìļ©": 634,
      "ìĪł": 635,
      "Ġìĭ¤": 636,
      "Ĭ¹": 637,
      "¦Ŀ": 638,
      "ĠíĻķ": 639,
      "ëĭ¹": 640,
      "ìłģìľ¼ë¡ľ": 641,
      "ĠìŀĪëĬĶê°Ģ": 642,
      "ê·¸": 643,
      "ĠìķĪ": 644,
      "ì±ħ": 645,
      "íĹ": 646,
      "ìĹĲëĬĶ": 647,
      "íĮ": 648,
      "Ġë¹Ħ": 649,
      "ãĢ": 650,
      "ì°¨": 651,
      "ì¶ľ": 652,
      "íķŃ": 653,
      "Ġëª¨": 654,
      "ìĿ´ëĭ¤": 655,
      "Ġë¬´ìĹĩìĿ¸ê°ĢìļĶ": 656,
      "ĠëĶ°": 657,
      "Ġì§Ħ": 658,
      "¥¼": 659,
      "00": 660,
      "Ġë¶Ħ": 661,
      "ĠíĺĦ": 662,
      "ì²ľ": 663,
      "ĠìĿ´ìľł": 664,
      "íŀ": 665,
      "Ġë§Ī": 666,
      "Ġìŀ¥": 667,
      "ëĵľ": 668,
      "ëĵ¤ìĿ´": 669,
      "ĠëıĻ": 670,
      "ĠìĹ¬": 671,
      "Ġê°ķ": 672,
      "ê±´": 673,
      "Ġê²°": 674,
      "ĠìĤ¬ìļ©": 675,
      "ìľ¼ë©°": 676,
      "ķĮ": 677,
      "ìĨį": 678,
      "ĠìĦľ": 679,
      "ìĿĮ": 680,
      "ĺĲ": 681,
      "íĸĪ": 682,
      "ê²°": 683,
      "ëĲĺìĹĪ": 684,
      "Ġìĺģ": 685,
      "íŀĪ": 686,
      "ë§Ī": 687,
      "Ġê¸": 688,
      "Ġìļ´": 689,
      "ĠìĦ¸": 690,
      "Ġê³Ħíļį": 691,
      "¶Į": 692,
      "ĠìĦ¤ëªħ": 693,
      "¶Ī": 694,
      "Ġìļ°": 695,
      "Ĩł": 696,
      "Ġì´": 697,
      "ĠíĬ¹": 698,
      "Ġ\"": 699,
      "ê°ģ": 700,
      "ĠìĦ±": 701,
      "ìĹĲê²Į": 702,
      "íĶ": 703,
      "Ġë¯¸": 704,
      "ë³Ħ": 705,
      "íķĺìĺĢ": 706,
      "ì¤ĳ": 707,
      "ë°ĺ": 708,
      "ëĬĶê°Ģ": 709,
      "ĠëķĮ": 710,
      "Ġíĸī": 711,
      "ìĭ¬": 712,
      "ë¦½": 713,
      "Ġëħ¸": 714,
      "Ġìŀ¬": 715,
      "ì¤": 716,
      "íĳľ": 717,
      "ëĤ¨ëıĦ": 718,
      "Ġì¹": 719,
      "ìķ½": 720,
      "ìľĦìĽĲ": 721,
      "íķ©ëĭĪëĭ¤": 722,
      "Ġìĸ¸": 723,
      "ê´ĳ": 724,
      "íĸĪëĭ¤": 725,
      "Ġì§ĢìĹŃ": 726,
      "ë¡Ģ": 727,
      "Ġê´Ģëł¨": 728,
      "ìłĲ": 729,
      "ìĸ´ë": 730,
      "Ġìłģ": 731,
      "íĻĺ": 732,
      "..": 733,
      "ĠìľĦíķľ": 734,
      "Ġì°¸": 735,
      "İ¸": 736,
      "Ġê³¼": 737,
      "âĢ": 738,
      "ĠíķĦ": 739,
      "Ġë¬¸ìłľ": 740,
      "ëĬ¥": 741,
      "Ġê°Ĳ": 742,
      "íĹĺ": 743,
      "ĠìĺĪìĤ°": 744,
      "ĠìĹŃ": 745,
      "Ġê±´": 746,
      "ëŀĺ": 747,
      "íĸ¥": 748,
      "íķ¨": 749,
      "ë¯¸": 750,
      "íķľëĭ¤": 751,
      "Ġíĺĳ": 752,
      "ì´": 753,
      "ë¥¸": 754,
      "ë¶ĢíĦ°": 755,
      "ìļ´": 756,
      "ì¢ħ": 757,
      "ê°Ĳ": 758,
      "ìŀĳ": 759,
      "·¨": 760,
      "ëĲĺìĸ´": 761,
      "ĠìĤ°": 762,
      "ĠìķĬ": 763,
      "ĠìļĶ": 764,
      "©ëĭĪëĭ¤": 765,
      "ĳĲ": 766,
      "Ġê²½ìļ°": 767,
      "Ġë°Ľ": 768,
      "ĠìĿ´ìľłëĬĶ": 769,
      "ìŀĦ": 770,
      "Ġë³Ģ": 771,
      "íĻ©": 772,
      "Ġíı¬": 773,
      "ģ¬": 774,
      "Ġ5": 775,
      "Ġë§Ĳ": 776,
      "Ġìµľ": 777,
      "Ġíĥ": 778,
      "Ġìļ´ìĺģ": 779,
      "ĠêµĲìľ¡": 780,
      "ìļĶíķľ": 781,
      "Ġ4": 782,
      "ìĦĿ": 783,
      "Ġë§Į": 784,
      "ĠíķĻ": 785,
      "Ġìĺ¤": 786,
      "ë³¸": 787,
      "ëª¨": 788,
      "ê°ķ": 789,
      "Ġë°Ķ": 790,
      "ì¶ķ": 791,
      "ë¥ĺ": 792,
      "ĠíķĺëĬĶ": 793,
      "ì§Ī": 794,
      "ìĹĪëĭ¤": 795,
      "ëĦ": 796,
      "ĠëĨį": 797,
      "íĺķ": 798,
      "Ġìŀĳ": 799,
      "Ġëª©": 800,
      "ì§ģ": 801,
      "íķĺê²Į": 802,
      "ìĦ¸ìļĶ": 803,
      "ìĺĪ": 804,
      "Ġê²ĥìĿ´": 805,
      "Ġ(": 806,
      "Ġë¬´ìĹĩìĿ´": 807,
      "íĽĦ": 808,
      "Ġì¶Ķì§Ħ": 809,
      "êµ°": 810,
      "ĠíļĮ": 811,
      "Ġê±°": 812,
      "ê¹Įì§Ģ": 813,
      "ĠìĬ": 814,
      "ê¸°ëıĦ": 815,
      "ê¶Į": 816,
      "Ġ20": 817,
      "ëŀĮ": 818,
      "ìĺ¤": 819,
      "ëĤ´": 820,
      "Ġê´Ģë¦¬": 821,
      "íħ": 822,
      "ĠìĹĨ": 823,
      "ë³µ": 824,
      "íı¬": 825,
      "ëıĦë¡Ŀ": 826,
      "ëĿ¼ê³ł": 827,
      "íĥľ": 828,
      "Ġì¤": 829,
      "ĠìĦ¤ëªħíķ´": 830,
      "íĥĿ": 831,
      "Ġë°ľìĥĿ": 832,
      "Ġë¶Ī": 833,
      "íĥĢ": 834,
      "Ġë²ķ": 835,
      "Ġëĭ¤ìĸĳ": 836,
      "Ġì°¨": 837,
      "Ġëªħ": 838,
      "ê»": 839,
      "Ġëĭ¨": 840,
      "Ġíıī": 841,
      "´ë¥¼": 842,
      "Ġì¢ħ": 843,
      "íĤ": 844,
      "Ī¬": 845,
      "íĨł": 846,
      "ìĻ¸": 847,
      "¶ģ": 848,
      "ìŀħëĭĪëĭ¤": 849,
      "ëŁī": 850,
      "19": 851,
      "Ġê°Ħ": 852,
      "ëĵ¤ìĿĺ": 853,
      "êµĲìľ¡": 854,
      "ĠëĶ°ëĿ¼": 855,
      "ĠíĽĦ": 856,
      "ê»ĺ": 857,
      "Ġ-": 858,
      "ĠíĶĦ": 859,
      "Ġì¦Ŀ": 860,
      "ëĲĺëĬĶ": 861,
      "Ġê°Ļ": 862,
      "ìļ¸": 863,
      "ĠíĻĺ": 864,
      "Ġë°ĺ": 865,
      "ĠìĹħ": 866,
      "ĠëĺĲ": 867,
      "ì¡±": 868,
      "íķ´ìķ¼": 869,
      "ëł¹": 870,
      "Ġíķ¨": 871,
      "ì²ĺ": 872,
      "ìĹĲìĦľëĬĶ": 873,
      "ëĤľ": 874,
      "ìĤ¬ìĹħ": 875,
      "íĻľ": 876,
      "Ġê·ľ": 877,
      "ì¤Ģ": 878,
      "ê²ł": 879,
      "Ġì§Ħíĸī": 880,
      "ĶĶ": 881,
      "ĠìķĮ": 882,
      "Ġìłľê³µ": 883,
      "ê²¬": 884,
      "Ġì²Ń": 885,
      "ĠìĬ¤": 886,
      "Ġë°°": 887,
      "ĠìľĦìĽĲ": 888,
      "Ġì·¨": 889,
      "ëĲĺê³ł": 890,
      "ëĨį": 891,
      "íĿ": 892,
      "Ġëį°": 893,
      "ì¸": 894,
      "Ġìĸ¸ê¸ī": 895,
      "Ġë§İ": 896,
      "ì§Ģê³ł": 897,
      "Ġì§ģ": 898,
      "íĺĦ": 899,
      "ìľĦìĽĲíļĮ": 900,
      "¨ìĸ´": 901,
      "ì¦Ŀ": 902,
      "ë§¤": 903,
      "½Ķ": 904,
      "íķĺìĺĢëĭ¤": 905,
      "Ġ6": 906,
      "Ġëĭ¤ìĸĳíķľ": 907,
      "ĠëįĶ": 908,
      "ĠëĨ": 909,
      "Ġíķł": 910,
      "ìħ": 911,
      "Ġëĵ±ìĿĦ": 912,
      "ĠìĤ": 913,
      "Ġì²´": 914,
      "íģ¬": 915,
      "ê²©": 916,
      "ìĽĢ": 917,
      "ĠìĿ´ë£": 918,
      "ìĿĳ": 919,
      "ëĭ´": 920,
      "Ġì¢": 921,
      "ìĸµ": 922,
      "ìĿ´ëĤĺ": 923,
      "Ġë©": 924,
      "ìķ¡": 925,
      "20": 926,
      "ëĵ¤ìĿĢ": 927,
      "Ġë§¤": 928,
      "ìĨ": 929,
      "Ġâ": 930,
      "ëĬĶëį°": 931,
      "ìµľ": 932,
      "Ġë¬¼": 933,
      "Ġë°©ë²ķ": 934,
      "ìŀ¥ìĿĢ": 935,
      "ëª©": 936,
      "ĠíĶĦë¡ľ": 937,
      "Ġìŀħ": 938,
      "Ġìĭ¬": 939,
      "ĠíĻľëıĻ": 940,
      "Ġì²ĺ": 941,
      "ëł¥ìĿĦ": 942,
      "ĠíĶ¼": 943,
      "Ġê°ģ": 944,
      "ĠìķĪìłĦ": 945,
      "ëłĪ": 946,
      "¼íĦ°": 947,
      "Ġìĸĳ": 948,
      "íĤ¤": 949,
      "Ġì§ĳ": 950,
      "±Ħ": 951,
      "ìĦ±ìĿĦ": 952,
      "Ġê°ľë°ľ": 953,
      "ë¥´": 954,
      "Ġ19": 955,
      "Ġíı¬íķ¨": 956,
      "ì§ĳ": 957,
      "ìĤ¬ë¥¼": 958,
      "ĠíĮĲ": 959,
      "ìłĪ": 960,
      "ĠìŀĦ": 961,
      "ìĹĪëĤĺìļĶ": 962,
      "ĠìĹ°êµ¬": 963,
      "´ë¦": 964,
      "ĠëĦ": 965,
      "Ġê²ĥìľ¼ë¡ľ": 966,
      "Ġíļ¨": 967,
      "Ġëĵ¤": 968,
      "Ġê°ľìĦł": 969,
      "Ġíķ©ëĭĪëĭ¤": 970,
      "íķĻêµĲ": 971,
      "ë¦¼": 972,
      "ìĿĺíļĮ": 973,
      "Ġëĭ¹": 974,
      "íİ¸": 975,
      "íĬ¹": 976,
      "ĠìłĲ": 977,
      "Ġ7": 978,
      "´ëı": 979,
      "ĠìĥģíĻ©": 980,
      "ĪĦ": 981,
      "ĠìŀĪìľ¼ë©°": 982,
      "ĠìłĢ": 983,
      "ë²Ī": 984,
      "íĻĺê²½": 985,
      "ë¡ł": 986,
      "ĠíĮĮ": 987,
      "ĠìĹŃíķł": 988,
      "ĠìĤ¬íļĮ": 989,
      "ĠìĤ¬ëŀĮ": 990,
      "ĠëĮĢìĥģ": 991,
      "ëĵ±": 992,
      "Ġíķ¨ê»ĺ": 993,
      "Ġê¸Ī": 994,
      "Ġê¸°ìĪł": 995,
      "íķĺì§Ģ": 996,
      "íķĺë©´": 997,
      "ìľ¨": 998,
      "íĶĦ": 999,
      "Ġíķľëĭ¤": 1000,
      "ĠìĻ¸": 1001,
      "ĠìĿ´ë£¨ìĸ´": 1002,
      "Ġì¶ľ": 1003,
      "ĠìĪ": 1004,
      "ĠíķĦìļĶíķľ": 1005,
      "ĠíĻľìļ©": 1006,
      "ĠëĬ": 1007,
      "ĠëĨĴ": 1008,
      "Ġë¬¸íĻĶ": 1009,
      "Ġíĳľ": 1010,
      "ĠíĻĶ": 1011,
      "Ġ10": 1012,
      "Ġì¡°ë¡Ģ": 1013,
      "ê·¼": 1014,
      "ëĲĺìĹĪëĤĺìļĶ": 1015,
      "ëĳĲ": 1016,
      "ĠìĻľ": 1017,
      "ìķĺ": 1018,
      "Ġì°¸ìĹ¬": 1019,
      "Ġë¯¼": 1020,
      "ĠíĪ¬": 1021,
      "ĠëĤ¨": 1022,
      "Ġì£¼ìļĶ": 1023,
      "Ġê²Ģ": 1024,
      "ëŀĢ": 1025,
      "ëįĺ": 1026,
      "Ġ8": 1027,
      "ĠíĻĺê²½": 1028,
      "Ġê²°ê³¼": 1029,
      "ĠìĭĿ": 1030,
      "ê¸°ë¥¼": 1031,
      "ëĭ¬": 1032,
      "ìłķìĿĦ": 1033,
      "ëĲł": 1034,
      "íĭ": 1035,
      "íĺĳ": 1036,
      "Ġë°ľìłĦ": 1037,
      "Ġíĸ¥": 1038,
      "ëĺĲ": 1039,
      "Ġíİ¸": 1040,
      "Ġê¸°ìĹħ": 1041,
      "Ġì°½": 1042,
      "Ġì´Ŀ": 1043,
      "ëĵ¤ìĿĦ": 1044,
      "Ġê´Ģíķľ": 1045,
      "íĮĮ": 1046,
      "ê±°ëĤĺ": 1047,
      "Ġìĸ´ëĸł": 1048,
      "Ġêµ¬ìĦ±": 1049,
      "ë³ĳ": 1050,
      "Ġê°ľìµľ": 1051,
      "Ġê°ķíĻĶ": 1052,
      "ë³Ģ": 1053,
      "Ġê¹": 1054,
      "Ġë³¸": 1055,
      "ìķħ": 1056,
      "Ġì´Ī": 1057,
      "íıī": 1058,
      "ĠìŀĪìĿĦ": 1059,
      "Ġì§Ī": 1060,
      "ĠìĥĿê°ģ": 1061,
      "Ġìĭľíĸī": 1062,
      "Ġ9": 1063,
      "Ġìĭ¤ìĭľ": 1064,
      "ì¼": 1065,
      "ĠëĤ´ìļ©ìĿĢ": 1066,
      "ĠíķľêµŃ": 1067,
      "Ġë³µ": 1068,
      "Ķëĭ¤": 1069,
      "ëĭĺ": 1070,
      "Ġëĭ¤ë¥¸": 1071,
      "Ġíĺķ": 1072,
      "Ġìĺ¬": 1073,
      "íķĺë©°": 1074,
      "ĠìĦ¤ëªħíķ´ì£¼": 1075,
      "ê¸°ê´Ģ": 1076,
      "ë¹ĦìĬ¤": 1077,
      "Ġìĸ´ëĸłíķľ": 1078,
      "Ġê°ĢëĬ¥": 1079,
      "ìłĢ": 1080,
      "Ġìļ°ë¦¬": 1081,
      "ìŀ¥ìĿ´": 1082,
      "ĠíĿ": 1083,
      "Ġì¢ĭ": 1084,
      "ìĨ¡": 1085,
      "ê¸°ìĹħ": 1086,
      "ĠãĢ": 1087,
      "ëĶĶ": 1088,
      "ê·¹": 1089,
      "Ġê·¼": 1090,
      "ë£¨": 1091,
      "ĠìłĦë¬¸": 1092,
      "ê²½ê¸°ëıĦ": 1093,
      "Ġíıīê°Ģ": 1094,
      "Ġì¡°ì¹ĺ": 1095,
      "ìĦ¼íĦ°": 1096,
      "ĠìłĪ": 1097,
      "ë§Ŀ": 1098,
      "ĠìĿĮ": 1099,
      "ĠìĥĪ": 1100,
      "ê²Ģ": 1101,
      "Ġìłķì±ħ": 1102,
      "ìĤ°ìĹħ": 1103,
      "ìĭľìĦ¤": 1104,
      "ĠëĺĲëĬĶ": 1105,
      "ê·ľ": 1106,
      "ĠìĦ¤ì¹ĺ": 1107,
      "Ģë¡ľ": 1108,
      "Ġë¶Ħìķ¼": 1109,
      "Ġìĸ´": 1110,
      "Ġìĺģíĸ¥": 1111,
      "ëĿ¼ëĤ¨ëıĦ": 1112,
      "ë¥ł": 1113,
      "¸Į": 1114,
      "Ġíķĺê³ł": 1115,
      "ëıĦìĭľ": 1116,
      "Ġ:": 1117,
      "ł¤": 1118,
      "ëŀ¨": 1119,
      "íĮĲ": 1120,
      "ĠëĳĲ": 1121,
      "Ġë°Ŀ": 1122,
      "Ġë¶Ģë¶Ħ": 1123,
      "ĠâĢ": 1124,
      "Ġê²½ìłľ": 1125,
      "ìĹĲëıĦ": 1126,
      "Ġ201": 1127,
      "ĠëĮĢìĿĳ": 1128,
      "ĠíĻķìĿ¸": 1129,
      "ĠìĭľìĦ¤": 1130,
      "ĠìĿĺê²¬": 1131,
      "),": 1132,
      "ĠìŀĪëĬĶì§Ģ": 1133,
      "ìĿ´ëĬĶ": 1134,
      "Ġìķ½": 1135,
      "ĠìĿ´ìĹĲ": 1136,
      "Ġë³ĢíĻĶ": 1137,
      "ê·¸ëŀ¨": 1138,
      "ì§ĢìĹŃ": 1139,
      "Ġëĵ±ìĿĺ": 1140,
      "ĠìĤ°ìĹħ": 1141,
      "ì¡Į": 1142,
      "ë¶ĢìĤ°": 1143,
      "Ġëĭ¬": 1144,
      "Ġíģ": 1145,
      "ĠìŀĪëıĦë¡Ŀ": 1146,
      "Ġê°ĻìĿĢ": 1147,
      "Ġë§ŀ": 1148,
      "ĠíĨł": 1149,
      "Ġë°©ìķĪ": 1150,
      "ì°°": 1151,
      "ê´Ģë¦¬": 1152,
      "Ġê´Ģê³Ħ": 1153,
      "ëĭ¤ê³ł": 1154,
      "ì³": 1155,
      "ì§Ģë¥¼": 1156,
      "ĠíķĦìļĶ": 1157,
      "ĠìĿ´ìļ©": 1158,
      "ĠíĹ": 1159,
      "ĠëĪĦ": 1160,
      "´ë©": 1161,
      "ëĵ¤ìĹĲê²Į": 1162,
      "Ġì¤ĳìļĶ": 1163,
      "Ġëĵ¤ìĸ´": 1164,
      "ëĦĪ": 1165,
      "Ġì¤Ħ": 1166,
      "ìĿ¸ê°ĢìļĶ": 1167,
      "ì´Ī": 1168,
      "ĠìĿ´ë¥¼": 1169,
      "Ġíķ´ê²°": 1170,
      "Ġê´ĳ": 1171,
      "Ġê³łëł¤": 1172,
      "ĠìĨ": 1173,
      "ĠíļĮìĿĺ": 1174,
      "ëħ¸": 1175,
      "Ġê°Ģì§Ģê³ł": 1176,
      "ë¬¸íĻĶ": 1177,
      "ëĺĲíķľ": 1178,
      "ë°°": 1179,
      "íİ": 1180,
      "ëĵł": 1181,
      "íĸĪëĤĺìļĶ": 1182,
      "ìĿ´ë©°": 1183,
      "ì¦": 1184,
      "ìĦľëĬĶ": 1185,
      "ĠëĮĢêµ¬": 1186,
      "ĠíĻį": 1187,
      "ĠìĺĪìłķ": 1188,
      "´ë³": 1189,
      "Ġë¹": 1190,
      "ĠêµŃê°Ģ": 1191,
      "ìĶ": 1192,
      "ĠíĶĦë¡ľê·¸ëŀ¨": 1193,
      "íļĮìĿĺ": 1194,
      "ë°ķ": 1195,
      "ë¶ģ": 1196,
      "Ġëħ¼": 1197,
      "ëŀµ": 1198,
      "ìĥī": 1199,
      "ĠëıĦìĽĢ": 1200,
      "ìĿ´ê³ł": 1201,
      "ĠìĤ¬íķŃ": 1202,
      "ĠìĹĲ": 1203,
      "ìĬ¤íħ": 1204,
      "ë¦¬ê³ł": 1205,
      "ĠíĺĦìŀ¬": 1206,
      "íĿ¥": 1207,
      "ëħĦëıĦ": 1208,
      "ê°Ŀ": 1209,
      "Ġë§Įëĵ¤": 1210,
      "ĠìĦłìłķ": 1211,
      "íĭ°": 1212,
      "ĠìĦľë¹ĦìĬ¤": 1213,
      "ìĿ´ëŁ¬": 1214,
      "ëıħ": 1215,
      "ìĹ¼": 1216,
      "ĠìĻĦ": 1217,
      "Ġìķŀ": 1218,
      "Ġì±Ħ": 1219,
      "ì¶Ķ": 1220,
      "ĠìŀĪìĸ´": 1221,
      "Ġì¹ĺ": 1222,
      "Ġëħ¸ëł¥": 1223,
      "ëĲĺìĹĪëĭ¤": 1224,
      "Ġì¤Ģ": 1225,
      "Ġì¶©": 1226,
      "ìŀĲìĿĺ": 1227,
      "ëĮĢêµ¬": 1228,
      "´ī": 1229,
      "ê¸°ìĪł": 1230,
      "Łģ": 1231,
      "Ġìłĳ": 1232,
      "ĠìĿ´ìĥģ": 1233,
      "Ġê°ľìłķ": 1234,
      "ìķł": 1235,
      "ëĿ¼ëĬĶ": 1236,
      "ĠíĬ¹ë³Ħ": 1237,
      "Ġêµ°": 1238,
      "ìĽĲìĿĺ": 1239,
      "ìĤ¬ê°Ģ": 1240,
      "Ġë§İìĿĢ": 1241,
      "Ġë°Ŀíĺ": 1242,
      "Ġê²ĥìĿĦ": 1243,
      "ìĸ¸": 1244,
      "Ġíĸīìłķ": 1245,
      "Ġì¶Ķê°Ģ": 1246,
      "ĠíķŃ": 1247,
      "ìłĳ": 1248,
      "ë¶Ī": 1249,
      "ì§Ģë§Į": 1250,
      "ĠìĹŃíķłìĿĦ": 1251,
      "ì¹Ļ": 1252,
      "ìĹ°êµ¬": 1253,
      "ìł¸": 1254,
      "íĶ¼": 1255,
      "ãĢį": 1256,
      "Ġëĭ¤ìĿĮ": 1257,
      "ìŁģ": 1258,
      "Ġë§Īëł¨": 1259,
      "ìĤ¬ìĿĺ": 1260,
      "ĠìĿ¼ë¶Ģ": 1261,
      "ĠìķĦëĭĪ": 1262,
      "ìĽĮ": 1263,
      "Ġê²°ìłķ": 1264,
      "ĠìĥĿìĤ°": 1265,
      "´ëıĻ": 1266,
      "ĠëĮĢì±ħ": 1267,
      "ìĤ¬ëĬĶ": 1268,
      "ëĲľëĭ¤": 1269,
      "ì½Ķ": 1270,
      "Ġê´Ģê´ĳ": 1271,
      "ĠëĲľ": 1272,
      "ĠíĻķëĮĢ": 1273,
      "ë°Ķ": 1274,
      "ìĬ¤íħľ": 1275,
      "Ġì½Ķ": 1276,
      "Ġìļ©": 1277,
      "Ġê²ĥìĿĢ": 1278,
      "Ġì¤ĳìļĶíķľ": 1279,
      "Ġë°©ìĭĿ": 1280,
      "Ġíĺ¸": 1281,
      "ìĿ´íĦ°": 1282,
      "ìŀ¥ìĿĦ": 1283,
      "ìŀĲê°Ģ": 1284,
      "ĠëĤ´ìļ©ìĿĦ": 1285,
      "ìĽĲìĿ´": 1286,
      "Ġìĺ¨": 1287,
      "ëŀĳ": 1288,
      "ëĬĶì§Ģ": 1289,
      "Ġíĺĳëł¥": 1290,
      "Ġê³¼ìłķ": 1291,
      "Ġì¶ķ": 1292,
      "Ġê¶Į": 1293,
      "ê°ĢìļĶ": 1294,
      "Ġëĭ´": 1295,
      "ĠëĤ´ìļ©ìĿ´": 1296,
      "ë²Ħ": 1297,
      "Ġëıħ": 1298,
      "Ġìľłì§Ģ": 1299,
      "ĠëĤ´ë": 1300,
      "Ġíķ´ëĭ¹": 1301,
      "Ġê¸°ì¤Ģ": 1302,
      "Ġ200": 1303,
      "´ë©´": 1304,
      "Ġìłķë¶Ģ": 1305,
      "Ġì§Ģë°©": 1306,
      "Ġì»": 1307,
      "ìłĦëĤ¨ëıĦ": 1308,
      "ĠíķĺìĺĢ": 1309,
      "Ġë¬´ìĹĩìĿ´ë©°": 1310,
      "êµŃìĿĺ": 1311,
      "ìĤ": 1312,
      "ì¡´": 1313,
      "ëĵĿ": 1314,
      "ìĿ´ë¥¼": 1315,
      "Ġíļ¨ê³¼": 1316,
      "Ġê°Ģìŀ¥": 1317,
      "ìĬ¹": 1318,
      "Ġì²ĺë¦¬": 1319,
      "Ġâĸ": 1320,
      "ìĭľíĤ¤": 1321,
      "Ġ12": 1322,
      "ìĿ´ëŁ¬íķľ": 1323,
      "Ġì§ĢìĨį": 1324,
      "ë¯Ģë¡ľ": 1325,
      "ĠìĹ¬ëŁ¬": 1326,
      "ìķĪìłĦ": 1327,
      "Ġì§ĢëĤľ": 1328,
      "ê´ĳìĹŃ": 1329,
      "ìĿ´ë²Ī": 1330,
      "ì³Ĳ": 1331,
      "Ġìľ¡": 1332,
      "Ġëĵľ": 1333,
      "ë©´ìĦľ": 1334,
      "Ġì¡°ìĦ±": 1335,
      "ë¡ľìļ´": 1336,
      "Ġê°ĸ": 1337,
      "ìĦ±íĻĶ": 1338,
      "Ġ)": 1339,
      "Ġë³´íĺ¸": 1340,
      "ì°½": 1341,
      "ë³´ë¥¼": 1342,
      "ê²łìĬµëĭĪëĭ¤": 1343,
      "Ġì±ħ": 1344,
      "Ġìĺģíĸ¥ìĿĦ": 1345,
      "Ġê²½ê¸°ëıĦ": 1346,
      "Ġìĸ´ëł¤": 1347,
      "Ġëª»": 1348,
      "Ġë¨": 1349,
      "ë¦Ħ": 1350,
      "ĠêµŃìłľ": 1351,
      "Ġì¹ľ": 1352,
      "ë°Ľ": 1353,
      "Ġìĸ¼": 1354,
      "ĠëĮĢíĳľ": 1355,
      "Ġìłķë³´": 1356,
      "Ġê¸°ê´Ģ": 1357,
      "Ġìĸ¸ê¸īëĲľ": 1358,
      "Ĵį": 1359,
      "ìĭľìĿĺ": 1360,
      "Ġ11": 1361,
      "ê¸°ìĹĲ": 1362,
      "ìĺ¨": 1363,
      "ĠìĺĪë°©": 1364,
      "ì´Į": 1365,
      "ëĮĢìłĦ": 1366,
      "ìĿµ": 1367,
      "Ġíķ©": 1368,
      "ĠìĹħë¬´": 1369,
      "ĠìŀĪìĹĪ": 1370,
      "ëĭĪê¹Į": 1371,
      "Ġë³´ê³ł": 1372,
      "ĠìĦłíĥĿ": 1373,
      "ì²ł": 1374,
      "Ġë°ĿíĺĶëĭ¤": 1375,
      "ëıĦë¡ľ": 1376,
      "Ġêµ¬ì¶ķ": 1377,
      "Ġì°¾": 1378,
      "ì§ķ": 1379,
      "Ġê°ľìĿ¸": 1380,
      "ê¹ĮìļĶ": 1381,
      "ì§ĢëĬĶ": 1382,
      "ĠìĨį": 1383,
      "ë¬´ìĽĲ": 1384,
      "íļĮë¥¼": 1385,
      "Ġëĵ±ìĿ´": 1386,
      "Ġì¡": 1387,
      "Ġê·ľìłķ": 1388,
      "ĠìĿ´ë²": 1389,
      "Ġìĭľê°Ħ": 1390,
      "ĠìĿ¼ë°ĺ": 1391,
      "ĠíķĻêµĲ": 1392,
      "Ġë³Ģê²½": 1393,
      "Ł¬": 1394,
      "ĽĪ": 1395,
      "Ġíģ¬": 1396,
      "ĠëķĮë¬¸": 1397,
      "Ġìłģê·¹": 1398,
      "íİĺ": 1399,
      "ĠìĦ¸ê³Ħ": 1400,
      "Ġìĭľë¯¼": 1401,
      "ĠìĭľìĬ¤íħľ": 1402,
      "ĠëıĦìĭľ": 1403,
      "ì§ĢìĽĲ": 1404,
      "ĠëĶ°ë¥¸": 1405,
      "ĠìĦ¤ëªħíķ´ì£¼ìĦ¸ìļĶ": 1406,
      "ì¶©": 1407,
      "´ëĤ": 1408,
      "Ġì¦": 1409,
      "ë°±": 1410,
      "ìħĺ": 1411,
      "ë¦¬ë¥¼": 1412,
      "ë¦°": 1413,
      "ê´ĳìĹŃìĭľ": 1414,
      "íĪ¬": 1415,
      "ĠìĪľ": 1416,
      "ĠíĪ¬ìŀĲ": 1417,
      "Ġìĭľìŀĳ": 1418,
      "´ë¦¬": 1419,
      "ĠíĸĪ": 1420,
      "ĠíĻľìĦ±íĻĶ": 1421,
      "ì¸µ": 1422,
      "ì·¨": 1423,
      "Ġì¡°ë¡ĢìķĪ": 1424,
      "ĠìĪĺíĸī": 1425,
      "ĠìłĦëĤ¨": 1426,
      "ĠìĿ¸íķ´": 1427,
      "ìĥģìĿĦ": 1428,
      "ìĭŃ": 1429,
      "Ġì¦Ŀê°Ģ": 1430,
      "ģìĭł": 1431,
      "Ġíģ°": 1432,
      "ìĤ°ë¬¼": 1433,
      "âĢĻ": 1434,
      "Ġíĥľ": 1435,
      "Ġíİ": 1436,
      "ĠíķĺëĤĺ": 1437,
      "ì¹¨": 1438,
      "į¨": 1439,
      "ĠëĶĶ": 1440,
      "ê¸¸": 1441,
      "íĻķ": 1442,
      "ê³Ħíļį": 1443,
      "Ġëª©íĳľ": 1444,
      "Ġê±´ê°ķ": 1445,
      "ê²łëĭ¤": 1446,
      "Ġëªĩ": 1447,
      "ìŀĲëĬĶ": 1448,
      "ĠëĲł": 1449,
      "ê°ľë°ľ": 1450,
      "ëħĲ": 1451,
      "Ġê¸°ê°Ħ": 1452,
      "Ġë°©ë¬¸": 1453,
      "ª½": 1454,
      "ìķĻ": 1455,
      "ë¸Į": 1456,
      "ë²Ķ": 1457,
      "íĸīìłķ": 1458,
      "ëĮĢë¡ľ": 1459,
      "Ġë³ĳ": 1460,
      "ĠìĬ¹": 1461,
      "íķĺê±°ëĤĺ": 1462,
      "Ġê°Ģì§Ģ": 1463,
      "ĠìķĮëł¤": 1464,
      "íķĺëĭ¤": 1465,
      "ĠìĿ´íĽĦ": 1466,
      "ìĸ´ëĸ": 1467,
      "ĠìłľíĴĪ": 1468,
      "ì»": 1469,
      "ìĪľ": 1470,
      "ëįĶ": 1471,
      "ìĸ´ëĤ": 1472,
      "Ġê±´ìĦ¤": 1473,
      "Ġê¸°ëĮĢ": 1474,
      "Ġìĭłì²Ń": 1475,
      "Ġë¶ĦìĦĿ": 1476,
      "ĠëĤĺíĥĢ": 1477,
      "ĠíĺĦìŀ¥": 1478,
      "ĠëĲĺëĤĺìļĶ": 1479,
      "´ëĵ": 1480,
      "ĠêµŃë¯¼": 1481,
      "ìĭĿìĿĦ": 1482,
      "íķĺìĭľ": 1483,
      "ëĵ¤ê³¼": 1484,
      "Ġìĸ´ëĶĶ": 1485,
      "Ġê¹Ģ": 1486,
      "ĠëĤł": 1487,
      "íĥģ": 1488,
      "ì§¸": 1489,
      "ĠìĿ´íķ´": 1490,
      "ë²Į": 1491,
      "ĠìłľìķĪ": 1492,
      "ì¦Ī": 1493,
      "Ġìŀĺ": 1494,
      "ĠìĿĺë¯¸": 1495,
      "Ġë©Ķ": 1496,
      "ĠìŀĲìĭł": 1497,
      "Ġë¡": 1498,
      "ĠìļĶêµ¬": 1499,
      "Ġìĸ¼ë§Ī": 1500,
      "ì¸ł": 1501,
      "ĠíĥĢ": 1502,
      "Ġì£¼ë¯¼": 1503,
      "Ġëª¨ëĳĲ": 1504,
      "Ġë²Ī": 1505,
      "¦¬": 1506,
      "Ġëĵ±ìĹĲ": 1507,
      "ë¨": 1508,
      "ëıĦë¥¼": 1509,
      "ëĦĪì§Ģ": 1510,
      "Ġì§Ģìłķ": 1511,
      "Ġë°ķ": 1512,
      "ëĿ¼ë©°": 1513,
      "ëĶ": 1514,
      "ĠìĨĲ": 1515,
      "Ġì²ł": 1516,
      "Ġìļ°ìĪĺ": 1517,
      "Ġê¸°ëĬ¥": 1518,
      "ìį¨": 1519,
      "Ġëħ¼ìĿĺ": 1520,
      "Ġë²ķë¥ł": 1521,
      "ìĺĪìĤ°": 1522,
      "ìĦ±ê³¼": 1523,
      "ĠâĢĺ": 1524,
      "ìŀĲì¹ĺ": 1525,
      "ĠìłĪì°¨": 1526,
      "ì±Ħ": 1527,
      "ìĤ¬íļĮ": 1528,
      "Ġë¬´ìĹĩìĿ´ìĹĪëĤĺìļĶ": 1529,
      "ĠëıĮ": 1530,
      "Ŀ½": 1531,
      "ìĤ¬ë¬´": 1532,
      "ìľ¼ëĤĺ": 1533,
      "ĠìĦ±ê³¼": 1534,
      "ĠíĴĪ": 1535,
      "ľ´": 1536,
      "ĠìŀĲë£Į": 1537,
      "ĠìĤ¬ìĹħìĿĦ": 1538,
      "Ġë°±": 1539,
      "ë³µì§Ģ": 1540,
      "Ġëª©ìłģ": 1541,
      "ê·¸ëŁ¬": 1542,
      "ĠíĻįë³´": 1543,
      "ìĹĲìĦľìĿĺ": 1544,
      "ĵ°": 1545,
      "ĠëĨįìĹħ": 1546,
      "ìĸ´ëĸ¤": 1547,
      "ëħĦìĹĲ": 1548,
      "ĠëĲĺìĸ´": 1549,
      "ĠíķĻìĥĿ": 1550,
      "ĠìŀĳíĴĪ": 1551,
      "Ġìĸ¸ìłľ": 1552,
      "ì¼Ģ": 1553,
      "ìłĦëĿ¼ëĤ¨ëıĦ": 1554,
      "Ġê³µëıĻ": 1555,
      "įëĭĪëĭ¤": 1556,
      "ëŀľ": 1557,
      "ê²ĥ": 1558,
      "ìĤ¬íķŃ": 1559,
      "Ġ15": 1560,
      "Ġì²ľ": 1561,
      "ìŀ¥ìĿĺ": 1562,
      "½ĺ": 1563,
      "Ġëį°ìĿ´íĦ°": 1564,
      "íķĺë©´ìĦľ": 1565,
      "Ġì¡°ìĤ¬": 1566,
      "ëĤł": 1567,
      "Ġëģ": 1568,
      "Ġë©´": 1569,
      "ĠìĿĺë£Į": 1570,
      "201": 1571,
      "ĠëķĮë¬¸ìĹĲ": 1572,
      "Ġ%": 1573,
      "Ġì¸": 1574,
      "ĠìłĦêµŃ": 1575,
      "ĠìĥĪë¡ľìļ´": 1576,
      "ìª½": 1577,
      "ãĢı": 1578,
      "íķ´ìĦľ": 1579,
      "Ġìłľìĭľ": 1580,
      "Ġê´Ģëł¨íķĺìĹ¬": 1581,
      "ĠíĻľëıĻìĿĦ": 1582,
      "´ëį": 1583,
      "Ġìĸ»": 1584,
      "ìĭľëĬĶ": 1585,
      "ìľµ": 1586,
      "Ġë§ĲíĸĪëĭ¤": 1587,
      "ĠìĿ´ë²Ī": 1588,
      "Ġì¤ĳìĭ¬": 1589,
      "ëŁ°": 1590,
      "ĠíĹĪ": 1591,
      "ê¸°ê°Ģ": 1592,
      "ĠìĥĿíĻľ": 1593,
      "Ġë¦¬": 1594,
      "ìĻķ": 1595,
      "ëĿ½": 1596,
      "ĠìĤ¼": 1597,
      "ĠíıĲ": 1598,
      "ë´ī": 1599,
      "Ġê³µê³µ": 1600,
      "ëĲ©ëĭĪëĭ¤": 1601,
      "ìĬ¤íĬ¸": 1602,
      "Ġê´Ģëł¨ëĲľ": 1603,
      "ĠìĤ¬ìĿ´": 1604,
      "ìłķì±ħ": 1605,
      "ĠêµĲíĨµ": 1606,
      "ìĽĲìĿĢ": 1607,
      "Ġë¶ģ": 1608,
      "ìŀĲë¥¼": 1609,
      "ìĦ±ìĿ´": 1610,
      "ĠëĮĢìĥģìľ¼ë¡ľ": 1611,
      "íĮħ": 1612,
      "ë¡ľëĤĺ": 1613,
      "ĠëĮĢë¹Ħ": 1614,
      "ĠìŀĪëĬĶëį°": 1615,
      "Ġëĭ¤ìĿĮê³¼": 1616,
      "Ġíĸ¥ìĥģ": 1617,
      "Ġìłģìļ©": 1618,
      "ëĿ¼ìĿ¸": 1619,
      "Ġë¬¸ìłľê°Ģ": 1620,
      "ì£¼ìĿĺ": 1621,
      "êµ´": 1622,
      "íķľêµŃ": 1623,
      "ë¹": 1624,
      "ì¹´": 1625,
      "ëĦ¤": 1626,
      "ë¦¬ëĬĶ": 1627,
      "ĠìĿ¼ë³¸": 1628,
      "íħĮ": 1629,
      "ëŁ¼": 1630,
      "ĠãĢĮ": 1631,
      "ĠìĨĮë°©": 1632,
      ".\"": 1633,
      "´ë¬": 1634,
      "ì¤Ħ": 1635,
      "Ġê´Ģìĭ¬": 1636,
      "Ġê²½íĹĺ": 1637,
      "Ġë¡ľ": 1638,
      "Ġíı¬íķ¨ëĲĺìĸ´": 1639,
      "ê°Ī": 1640,
      "ë³¸ë¶Ģ": 1641,
      "Ġì¡´": 1642,
      "ìķĺëĭ¤": 1643,
      "¦°": 1644,
      "ìĽĲìĿĦ": 1645,
      "Ġê°ķì¡°": 1646,
      "Ġê³µë¬´ìĽĲ": 1647,
      "ĠëĪĦêµ¬": 1648,
      "ê¸°ëĬĶ": 1649,
      "ìĿ¸ìĿĺ": 1650,
      "ĠëĴ": 1651,
      "íĿ¬": 1652,
      "ĠìŀĪëĬĶê°ĢìļĶ": 1653,
      "Ġìłľì£¼": 1654,
      "ĠêµŃëĤ´": 1655,
      "ì¹ľ": 1656,
      "Ġì§ĳíĸī": 1657,
      "ìĺĪë¥¼": 1658,
      "ëĭ¨ì²´": 1659,
      "Ġì¸¡": 1660,
      "´ëıĦ": 1661,
      "Ġ18": 1662,
      "ĠìłĦëĿ¼ëĤ¨ëıĦ": 1663,
      "Ġ30": 1664,
      "ìĿ´ëĿ¼ê³ł": 1665,
      "ìĤ¬ìĻĢ": 1666,
      "ĠìĤ´": 1667,
      "Ġ*": 1668,
      "ĠìłĦë¬¸ê°Ģ": 1669,
      "ìłķë¶Ģ": 1670,
      "ê´ĢìĿĢ": 1671,
      "ëĬĲ": 1672,
      "Ġê³ĦíļįìĿ´ëĭ¤": 1673,
      "ĠíĺĦíĻ©": 1674,
      "êµĲíĨµ": 1675,
      "Ġë²Ķ": 1676,
      "íĻĶë¥¼": 1677,
      "ëıĦìĿĺ": 1678,
      "ĠìĦľìļ¸": 1679,
      "ĠìķĦìĿ´": 1680,
      "ĠìľĦì¹ĺ": 1681,
      "Ġì¤ĳìļĶíķ©ëĭĪëĭ¤": 1682,
      "íĬ¹ë³Ħ": 1683,
      "ĠìĹ´": 1684,
      "ìłľë¥¼": 1685,
      "Ġì°¸ìĦĿ": 1686,
      "Ġëħ¸ëł¥ìĿĦ": 1687,
      "Ġíħ": 1688,
      "Ġìº": 1689,
      "ĠìĤ¬ê±´": 1690,
      "Ġë°©íĸ¥": 1691,
      "Ġíŀ": 1692,
      "10": 1693,
      "ĠìĪĺì¶ľ": 1694,
      "ĠìĪĺëıĦ": 1695,
      "ëĲĺëĬĶê°Ģ": 1696,
      "ì£": 1697,
      "ìłľë¡ľ": 1698,
      "íģ": 1699,
      "ë¥´ë©´": 1700,
      "Ġì£¼ë¡ľ": 1701,
      "ìŀĲë¦¬": 1702,
      "ĠìĨĮë¹Ħ": 1703,
      "ê³Ħë¥¼": 1704,
      "Ġíļ¨ìľ¨": 1705,
      "Ġíĺģìĭł": 1706,
      "Ġë§İìĿ´": 1707,
      "Ġê¸°ë°ĺ": 1708,
      "ìļ±": 1709,
      "Ġë¶Ģì¡±": 1710,
      "Ġìłķë³´ë¥¼": 1711,
      "ĠìĻķ": 1712,
      "Ġê²Į": 1713,
      "ëıĦëĬĶ": 1714,
      "ĠëĮĢíķ´ìĦľ": 1715,
      "Ġìĸ¸ê¸īíķľ": 1716,
      "ĠëĦ¤": 1717,
      "ĠìĦ¤ë¦½": 1718,
      "ìĨĮë¥¼": 1719,
      "ĠìļĶì²Ń": 1720,
      "Ġì¡°ì§ģ": 1721,
      "ìľ¼ë¡ľìį¨": 1722,
      "Ĳëĭ¤": 1723,
      "íļ¨": 1724,
      "ìĨĮëħĦ": 1725,
      "ĠíķĺìĹ¬": 1726,
      "ê³¼ìĿĺ": 1727,
      "ìłĲìĿĦ": 1728,
      "ĠëıĻìķĪ": 1729,
      "Ġìļ´ëıĻ": 1730,
      "ìĭľìŀ¥": 1731,
      "ĠëıĦìĽĢìĿ´": 1732,
      "ëģ": 1733,
      "Ġì¡°ìĦł": 1734,
      "ìŀĲìĿ¸": 1735,
      "ĠìĿ´ìķ¼": 1736,
      "ĠíĻķë³´": 1737,
      "ìĤ¬ìĹĲ": 1738,
      "ĠìŀĪê³ł": 1739,
      "íĻľëıĻ": 1740,
      "ĠÂ·": 1741,
      "ì´Ŀ": 1742,
      "ì°©": 1743,
      "...": 1744,
      "Ġê²ĥìĿ´ëĭ¤": 1745,
      "ĠìĺĪìĤ°ìĿ´": 1746,
      "ĠìĺĪìĪł": 1747,
      "ìĿĺë¥¼": 1748,
      "ê²¨": 1749,
      "íĸĪëĬĶê°Ģ": 1750,
      "ëĬĺ": 1751,
      "ìĿ¼ë¶ĢíĦ°": 1752,
      "íĬ¹íŀĪ": 1753,
      "ĠìĪĺë¦½": 1754,
      "Ġê·¸ë¦¬ê³ł": 1755,
      "ĠëĶ°ë¥´ë©´": 1756,
      "ìĭĿíĴĪ": 1757,
      "ëĨįìĹħ": 1758,
      "ĠìĹ¬ìĦ±": 1759,
      "ĠìĤ¬ë¡Ģ": 1760,
      "Ġë°ľíĳľ": 1761,
      "ë§Ĳ": 1762,
      "ë¬´ë¥¼": 1763,
      "000": 1764,
      "ê¸ĪìĿĦ": 1765,
      "ĠìŀĲìĹ°": 1766,
      "Ġì¤Ģë¹Ħ": 1767,
      "Ġì§ĢìĽĲìĿĦ": 1768,
      "Ġë°ĺìĺģ": 1769,
      "íĶĮ": 1770,
      "âĢ§": 1771,
      "Ġê°ĻìĿ´": 1772,
      "ĠëĲľëĭ¤": 1773,
      "ëį¸": 1774,
      "ëıĦê°Ģ": 1775,
      "ĠìŀĪìĹĪëĤĺìļĶ": 1776,
      "ĠìŀĲìĦ¸": 1777,
      "ĠíķĺëĬĶê°Ģ": 1778,
      "ĠíĶ¼íķ´": 1779,
      "Ġê³³": 1780,
      "ĠìłĦëŀµ": 1781,
      "ìĺ¬": 1782,
      "ĠíĶĮ": 1783,
      "Ġêµ¬ì¡°": 1784,
      "ĠìĤ¬íļĮìłģ": 1785,
      "Ġì§ģìłĳ": 1786,
      "Ġìķŀìľ¼ë¡ľ": 1787,
      "ì¸¡": 1788,
      "ë§ģ": 1789,
      "Ġìłľì¶ľ": 1790,
      "Ġì¡°ì¹ĺë¥¼": 1791,
      "Ġëª¨ëĵł": 1792,
      "Ġëĭ¤ìĭľ": 1793,
      "ĠëįĶìļ±": 1794,
      "¸Ķ": 1795,
      "ê³¡": 1796,
      "ì¹ĺë¥¼": 1797,
      "ì§ĢìĹĲ": 1798,
      "ĠìłĦëĤ¨ëıĦ": 1799,
      "Ġì§Ģìłģ": 1800,
      "ê³¼íķĻ": 1801,
      "ìĦ±ìĹĲ": 1802,
      "Ġì£": 1803,
      "ĠíķĺìĺĢëĭ¤": 1804,
      "Ġì¦Ĳ": 1805,
      "ĠíĬ¹ì§ķ": 1806,
      "Ġê¸°ë¡Ŀ": 1807,
      "íķĺëł¤": 1808,
      "ĠëĤĺë": 1809,
      "ĠìĿ´ëŁ¬": 1810,
      "ëĲĺì§Ģ": 1811,
      "21": 1812,
      "Ġê¸ī": 1813,
      "¯¸": 1814,
      "íķĺìĦ¸ìļĶ": 1815,
      "ìĹ´": 1816,
      "Ġìĵ°": 1817,
      "´ë°": 1818,
      "ĠìĿĺê²¬ìĿĦ": 1819,
      "ĽĪëł¨": 1820,
      "Ġì´ī": 1821,
      "ĠíĳľíĺĦ": 1822,
      "ìĭľê°Ģ": 1823,
      "Ġìłľìŀĳ": 1824,
      "ìĿ¸ìĿ´": 1825,
      "ê·ł": 1826,
      "ĠìŀĪìĿĦê¹ĮìļĶ": 1827,
      "ĠìŀĪìľ¼": 1828,
      "Ġíķ´ìĸĳ": 1829,
      "18": 1830,
      "ë¡ľìĦľ": 1831,
      "ĠìĿĺìĽĲ": 1832,
      "ĠìŀĳìĹħ": 1833,
      "ĠëĴ¤": 1834,
      "Ġ16": 1835,
      "ĠëıĦìĽĢìĿĦ": 1836,
      "ìĶĢ": 1837,
      "Ġìĥģíĥľ": 1838,
      "ĠìłĲê²Ģ": 1839,
      "ìķĶ": 1840,
      "ë§ī": 1841,
      "ìłķë³´": 1842,
      "Ġë¶ĢìĤ°": 1843,
      "ĠìľĦìĽĲíļĮ": 1844,
      "Ġìĺ¬íķ´": 1845,
      "ĠìķĬëĬĶ": 1846,
      "Ġë°ľìĥĿíķľ": 1847,
      "Ġë¯¸ëŀĺ": 1848,
      "ĠìĹĨëĬĶ": 1849,
      "Ġë¬¸ìłľìĹĲ": 1850,
      "Ġê°ĢëĬ¥íķľ": 1851,
      "Ġìķł": 1852,
      "ëĤĺëĿ¼": 1853,
      "Ġ14": 1854,
      "íĹĪ": 1855,
      "ĠìĿ´ëŁ¬íķľ": 1856,
      "´ë³´": 1857,
      "ëĥ": 1858,
      "Ġë°©ìĭĿìľ¼ë¡ľ": 1859,
      "ĠëĬ¥": 1860,
      "Ġê³µìľł": 1861,
      "ìķłìĿ¸": 1862,
      "íķĺê³łìŀĲ": 1863,
      "Ġìĸ´ëł¤ìĽĢ": 1864,
      "Ġìĭľìŀ¥": 1865,
      "ĠëĲĺëĬĶê°Ģ": 1866,
      "ê³µìĤ¬": 1867,
      "Ġê·ľëª¨": 1868,
      "¦°ìĿ´": 1869,
      "ê·¸ëŁ¬ëĤĺ": 1870,
      "´Ħ": 1871,
      "ĠëĮĢíķĻ": 1872,
      "ĠíĮ¨": 1873,
      "Ġê±°ì³Ĳ": 1874,
      "ĠìĺĪìłķìĿ´ëĭ¤": 1875,
      "Ġì§Ģê¸ī": 1876,
      "ìĭľìķĦ": 1877,
      "ĠA": 1878,
      "Ġë¬¸ìłľë¥¼": 1879,
      "Ġì¢ĭìĿĢ": 1880,
      "ĠìĿ¸íķľ": 1881,
      "Ġë¬´ìĹĩìĿĦ": 1882,
      "Ġìķ¼": 1883,
      "Ġë§ĲìĶĢ": 1884,
      "ĠìĿ´ìĸ´": 1885,
      "ĠëĮĢíķľë¯¼": 1886,
      "ĠìłĦëĭ¬": 1887,
      "ì§ĦíĿ¥": 1888,
      "ĠíĮĲëĭ¨": 1889,
      "Ġëª©ìłģìľ¼ë¡ľ": 1890,
      "ìĨĮê¸°ìĹħ": 1891,
      "Ġ13": 1892,
      "ë¬¼ìĿĦ": 1893,
      "íĤ¬": 1894,
      "ĠìŀĲëıĻ": 1895,
      "ì§Ģë°©": 1896,
      "´ë¬¼": 1897,
      "´ëį°": 1898,
      "ĠìłĦíĨµ": 1899,
      "Ġë°ĽìķĦ": 1900,
      "Ġì¢ħë¥ĺ": 1901,
      "ĠìĿ´ìłĦ": 1902,
      "Ġì¡°ìłķ": 1903,
      "ĠíĮĲë§¤": 1904,
      "Ġ17": 1905,
      "ìĿ¼ê¹Įì§Ģ": 1906,
      "ĠS": 1907,
      "ê¹Ģ": 1908,
      "Ġë¸Į": 1909,
      "ĠíĸĪëĭ¤": 1910,
      "ĠíĴį": 1911,
      "Ġì¤ĳìķĻ": 1912,
      "Ġâĸ²": 1913,
      "Ġê¸°ë³¸": 1914,
      "ìŀĲìĽĲ": 1915,
      "Ġê²ĢíĨł": 1916,
      "Ġíĺķíĥľ": 1917,
      "į¼": 1918,
      "Ġì¤ĳêµŃ": 1919,
      "Ġë³Ħ": 1920,
      "Ġê³µê¸ī": 1921,
      "Ġë³¼": 1922,
      "ìłĲìĿĢ": 1923,
      "ĠìĤ¬ìļ©íķĺìĹ¬": 1924,
      "Ġì½ĺ": 1925,
      "ìĿĮìĿĦ": 1926,
      "Ġê°ģê°ģ": 1927,
      "ĠìĺĪìĤ°ìķĪ": 1928,
      "ìĦľë¥¼": 1929,
      "ĠëĺĲíķľ": 1930,
      "Ġê±¸": 1931,
      "ĠìĿ¸ì²ľ": 1932,
      "Ġìľ¡ìĦ±": 1933,
      "łĪ": 1934,
      "22": 1935,
      "ë¡¯": 1936,
      "Ġê¸°ìĹ¬": 1937,
      "ëĭ¤ëĬĶ": 1938,
      "ĠíĸīìĤ¬": 1939,
      "Ġê²ĥìŀħëĭĪëĭ¤": 1940,
      "Ġì°¸ê°Ģ": 1941,
      "Ġë°©ë²ķìĿĦ": 1942,
      "ì¡°ìłľ": 1943,
      "ä¸": 1944,
      "ìĿ´íĬ¸": 1945,
      "ĠìĿĳ": 1946,
      "Ġë²Ħ": 1947,
      "ê¸°ë¡ľ": 1948,
      "ĠC": 1949,
      "ëŀľëĵľ": 1950,
      "ìĨĲ": 1951,
      "ëħĢ": 1952,
      "Ġê³ĦíļįìĿĦ": 1953,
      "¢°": 1954,
      "ĠìĤ¬ìĹħìĹĲ": 1955,
      "Ġì¢ħíķ©": 1956,
      "ê°ĲìĤ¬": 1957,
      "ë¹Ħë¥¼": 1958,
      "Ġì²´íĹĺ": 1959,
      "ìŀĪ": 1960,
      "ê´ĢìĿ´": 1961,
      "ĠìķĪìłķ": 1962,
      "Ġìĥģíĺ¸": 1963,
      "Ġê°Ģì¡±": 1964,
      "ìĹĲìĦľëıĦ": 1965,
      "íĥĦ": 1966,
      "ĠìĿĢ": 1967,
      "ĠíĬ": 1968,
      "ë§ĪíĬ¸": 1969,
      "ĠëĮĢìłĦ": 1970,
      "Ġì°¨ìĿ´": 1971,
      "ĠìĿĺìĤ¬": 1972,
      "15": 1973,
      "Ġê²½ìŁģ": 1974,
      "ĠI": 1975,
      "ĠìķĦëĭĪëĿ¼": 1976,
      "ĠëĨĴìĿĢ": 1977,
      "ê²½ìłľ": 1978,
      "íķĺëıĦë¡Ŀ": 1979,
      "ê°ĢëĬĶ": 1980,
      "ë¢°": 1981,
      "Ġë¹Ħìļ©": 1982,
      "ĠìĹĲëĦĪì§Ģ": 1983,
      "ì°¸": 1984,
      "ì¹Ń": 1985,
      "Ġì²ŃëħĦ": 1986,
      "íĮ¨": 1987,
      "ĠìĦ±ê³µ": 1988,
      "íĨµëł¹": 1989,
      "ê¸°ìĿĺ": 1990,
      "´ëĮĢ": 1991,
      "Ġë§Įëĵ¤ìĸ´": 1992,
      "ĠìĦ¤ìłķ": 1993,
      "ëĶ°": 1994,
      "ĠìĿ´ë¯¸": 1995,
      "Ġì±ħìŀĦ": 1996,
      "ìłĦëĤ¨": 1997,
      "ĠëĲĺìĹĪ": 1998,
      "Ġê³ĦíļįìĿ´": 1999,
      "ëĲĺëĤĺìļĶ": 2000,
      "Ġë°ĽìĿĦ": 2001,
      "ĠëĿ¼": 2002,
      "Ġê°ĲìĤ¬": 2003,
      "ìĿ¸ìĿĦ": 2004,
      "Ġê¸°ìļ¸": 2005,
      "12": 2006,
      "Ġë¯¼ê°Ħ": 2007,
      "ĠëıĦìŀħ": 2008,
      "ĠãĢİ": 2009,
      "ìħ¨": 2010,
      "ìľĦë¥¼": 2011,
      "Ġì§ĳì¤ĳ": 2012,
      "Ġê¸¸": 2013,
      "Ġì§Ģê¸Ī": 2014,
      "¿Ĳ": 2015,
      "ĠìĭľëĮĢ": 2016,
      "ìĭľìĹĲ": 2017,
      "ĠìĦĿ": 2018,
      "Ġê³¼ìłķìĹĲìĦľ": 2019,
      "ĠëĲ©ëĭĪëĭ¤": 2020,
      "Ġì¹ĺë£Į": 2021,
      "Ġë¹Ħë¡¯": 2022,
      "´ëĵľ": 2023,
      "Ġìľłì¹ĺ": 2024,
      "Ġì¢ĭìĬµëĭĪëĭ¤": 2025,
      "ĠìĦ¤ëªħíķ´ì£¼ìĭ¤": 2026,
      "Ġê·Ģ": 2027,
      "ëĲĺë©°": 2028,
      "ĠìĤ¬ìĹħìĿĺ": 2029,
      "Ġíķ´ìĻ¸": 2030,
      "ê³łë¥¼": 2031,
      "ĠìĤ¬ìĭ¤": 2032,
      "ìĬ¤ë¥¼": 2033,
      "ĠìłľëıĦ": 2034,
      "ìĪĺë¥¼": 2035,
      "ê¸ĪìĿ´": 2036,
      "ĠìłĦìĭľ": 2037,
      "ĠíĮĮìķħ": 2038,
      "ê°ľìłķ": 2039,
      "ëłĩ": 2040,
      "ĠìĦ¼íĦ°": 2041,
      "ì¡°ìĿĺ": 2042,
      "íķ´ë¥¼": 2043,
      "Ġ,": 2044,
      "ì¹ĺëĬĶ": 2045,
      "ìĿ¸ì²ľ": 2046,
      "Ġê°ĲìĨĮ": 2047,
      "200": 2048,
      "ëĲĺìĹĪëĬĶê°Ģ": 2049,
      "ĠíĿ¬": 2050,
      "ìĪĺìĤ°": 2051,
      "Ġê³ĦíļįìĿĢ": 2052,
      "Ġìĥģëĭ´": 2053,
      "16": 2054,
      "Ġì°¾ìķĦ": 2055,
      "Ġê²½ìļ°ìĹĲëĬĶ": 2056,
      "ĠìĺĪìĥģ": 2057,
      "Ġì§ĪìĿĺ": 2058,
      "Ġëĭ´ëĭ¹": 2059,
      "Ġì¹ľíĻĺê²½": 2060,
      "ĠìŀĳìĦ±": 2061,
      "ĠìĿ´ë£¨ìĸ´ì§Ģê³ł": 2062,
      "ĠëĬĲ": 2063,
      "Ġì½Ķë¡ľëĤĺ": 2064,
      "Ġì£¼ìĭľ": 2065,
      "íļĮê³Ħ": 2066,
      "ĠëĲĺìĹĪëĭ¤": 2067,
      "ìłľì£¼": 2068,
      "ĠìłģìłĪ": 2069,
      "ĠìķĬê³ł": 2070,
      "Ġê°ĦìĿĺ": 2071,
      "ĠëĮĢíļĮ": 2072,
      "Ġëĭµ": 2073,
      "ìķ½ìĿĦ": 2074,
      "Ġê·¹": 2075,
      "Ġë°ľê²¬": 2076,
      "ëĿ¼ìĦľ": 2077,
      "Ġëĸ": 2078,
      "íĴį": 2079,
      "Ġìłľê¸°": 2080,
      "Ġê°Ī": 2081,
      "ìłĿ": 2082,
      "ãĢĮ": 2083,
      "ĠíĨµíķ©": 2084,
      "Ġìłľíķľ": 2085,
      "Ġíĺľ": 2086,
      "ĠìĿĮìķħ": 2087,
      "Ġêµ¬ìĦ±ëĲĺìĸ´": 2088,
      "ëĳ": 2089,
      "ĠìĤ¬ìĹħìĿĢ": 2090,
      "ĠìĥĿíĥľ": 2091,
      "Ġë°ĽìĿĢ": 2092,
      "Ġì£¼ë³Ģ": 2093,
      "Ġê³ĦìĨį": 2094,
      "ëªħìĿĦ": 2095,
      "Ġê²½ê¸°": 2096,
      "ëĮĢíķľ": 2097,
      "Ġê³¼íķĻ": 2098,
      "ìĨĮë°©": 2099,
      "ĠëıĦë¡ľ": 2100,
      "ìłĿíĬ¸": 2101,
      "ìĭľê°Ħ": 2102,
      "Ġë´ī": 2103,
      "ìĻĢìĿĺ": 2104,
      "ĠìķĬìĿĢ": 2105,
      "ì£¼íĥĿ": 2106,
      "17": 2107,
      "Ġìĭ¬ìĤ¬": 2108,
      "Ġëª¨ëį¸": 2109,
      "Ġë°©ìķĪìĿĢ": 2110,
      "ĠìĽĲìĿĦ": 2111,
      "ĠìŀĲìĭłìĿĺ": 2112,
      "ĠìĹ°ê²°": 2113,
      "íķľíİ¸": 2114,
      "Ŀį": 2115,
      "Ġëĭ¹ë¶Ģ": 2116,
      "ĠìĹŃìĤ¬": 2117,
      "ĪĪ": 2118,
      "ĠìĦ±ìŀ¥": 2119,
      "ì¹ł": 2120,
      "Ġìĭľêµ°": 2121,
      "ìĥĪ": 2122,
      "ĠíĨµíķľ": 2123,
      "Ġê²½ìļ°ìĹĲ": 2124,
      "Ġì²´ê²°": 2125,
      "ëįķ": 2126,
      "Ġëĳ": 2127,
      "ĢìĿ´": 2128,
      "ĠìľĦìĽĲëĭĺ": 2129,
      "íķĺëĬĶëį°": 2130,
      "ë¦¬ìķĦ": 2131,
      "Ġìī": 2132,
      "Ġì¤ĳìĿ¸": 2133,
      "ìĥĿíĻľ": 2134,
      "ìļ´ëį°": 2135,
      "ìĦłìĿĦ": 2136,
      "ĠìĿ¸ìłķ": 2137,
      "ìĿĺë£Į": 2138,
      "Ġë¨¹": 2139,
      "ĠìĿ¼ìŀĲë¦¬": 2140,
      "¤Ħ": 2141,
      "ĠìļĶìĨĮ": 2142,
      "ì§ĢìĿĺ": 2143,
      "íķĺìĭľëĤĺìļĶ": 2144,
      "Ġë§¤ìļ°": 2145,
      "ĠëĮĢíķĺìĹ¬": 2146,
      "ĠìĿ´ìľłë¡ľ": 2147,
      "ĠëĬĺ": 2148,
      "ëıĮ": 2149,
      "ì¼ľ": 2150,
      "ë°Ģ": 2151,
      "ìĤ¼": 2152,
      "Ġì¹¨": 2153,
      "Ġë¶Ģëĭ´": 2154,
      "íķĺê²łëĭ¤": 2155,
      "ĠëıĦë¯¼": 2156,
      "Ġê±´ì¶ķ": 2157,
      "ĠìĿ´ë£¨ìĸ´ì§Ģ": 2158,
      "ĠìĪĺìłķ": 2159,
      "ìĸ´ëĤĺ": 2160,
      "ĠíħĮ": 2161,
      "ëĦĲ": 2162,
      "ĠìĿĺíļĮ": 2163,
      "Ġìŀ¡": 2164,
      "Ġìĺ¨ëĿ¼ìĿ¸": 2165,
      "´ë¦½": 2166,
      "ĠìĿ´ë¥": 2167,
      "ĩ´": 2168,
      "ĠìŀĲìĽĲ": 2169,
      "Ġë²ł": 2170,
      "ìĻľ": 2171,
      "Ġë°ľêµ´": 2172,
      "ë¡ľë¶ĢíĦ°": 2173,
      "ìĸ´ë¥¼": 2174,
      "ĠìĹħì²´": 2175,
      "ë¬¼ìĿĺ": 2176,
      "Ġê³µëª¨": 2177,
      "ìĤ´": 2178,
      "íħĲ": 2179,
      "ìļ´ëıĻ": 2180,
      "ĠìĶ": 2181,
      "ĠíĸīëıĻ": 2182,
      "Ġíŀĺ": 2183,
      "ĠëłĪ": 2184,
      "ëĶ°ëĿ¼ìĦľ": 2185,
      "ĠíĶĦë¡ľìłĿíĬ¸": 2186,
      "ëĲĲëĭ¤": 2187,
      "íĹĮ": 2188,
      "ìĿ´ìĹĲ": 2189,
      "ìĿ´ëĿ¼": 2190,
      "ë²ł": 2191,
      "Ġê³µê°Ħ": 2192,
      "¾¸": 2193,
      "ĠìľĦíķ´ìĦľëĬĶ": 2194,
      "ĵ¤": 2195,
      "ĠìĭĿíĴĪ": 2196,
      "ê°ĲìĿĦ": 2197,
      "Ġê²ĥìĿ¸ê°Ģ": 2198,
      "ìĻĦ": 2199,
      "ī´": 2200,
      "Ġë°©ë²ķìĿĢ": 2201,
      "ĠìĿ´ë£¨ìĸ´ì¡Į": 2202,
      "ì°¬": 2203,
      "Ġê°Ģìļ´ëį°": 2204,
      "ê´Ģê´ĳ": 2205,
      "ëłĪìĿ´": 2206,
      "ĠíĺľíĥĿ": 2207,
      "Ġì²ŃìĨĮëħĦ": 2208,
      "íķ¨ìľ¼ë¡ľìį¨": 2209,
      "íĦ¸": 2210,
      "ĠìłĦì²´": 2211,
      "ì¢": 2212,
      "ìĭľíĤ¬": 2213,
      "å®": 2214,
      "ê²½ê¸°": 2215,
      "ĠìĤ¬ìłĦ": 2216,
      "ëĲĺìĹĪìľ¼ë©°": 2217,
      "ëŁ½": 2218,
      "ë©Ķ": 2219,
      "Ġë³µì§Ģ": 2220,
      "Ġìµľê·¼": 2221,
      "11": 2222,
      "ì¡°ìĤ¬": 2223,
      "ĠêµĲë¥ĺ": 2224,
      "ĠëĲĺëĬĶ": 2225,
      "ĠíĺķìĦ±": 2226,
      "ĠíĬ¹íŀĪ": 2227,
      "ëŁīìĿĦ": 2228,
      "ë¶ĢëĬĶ": 2229,
      "ìĿ´ëĿ¼ëĬĶ": 2230,
      "ë¶Ģê°Ģ": 2231,
      "íķĺëĭ¤ê³ł": 2232,
      "ëĭ¨ìĿĺ": 2233,
      "ĠëĮĢíĨµëł¹": 2234,
      "íĨ": 2235,
      "Ġëĵ±ë¡Ŀ": 2236,
      "ĠíĥĦ": 2237,
      "ĠìĿĮìĭĿ": 2238,
      "Ġì´īì§Ħ": 2239,
      "ĠìĦľë¡ľ": 2240,
      "ĠíĺĳìĿĺ": 2241,
      "íıĲ": 2242,
      "Ġêµ¬ì²´": 2243,
      "Ġê²½ìĺģ": 2244,
      "ĠìĨĮíĨµ": 2245,
      "Ġì¡°ê±´": 2246,
      "ĨĴ": 2247,
      "Ġê°ĸê³ł": 2248,
      "ĠìĿ¼ìłķ": 2249,
      "ĠìľĦíķĺìĹ¬": 2250,
      "ĠìĦ¬": 2251,
      "ëħĦë¶ĢíĦ°": 2252,
      "Ġê±´ë¦½": 2253,
      "ìĻĶ": 2254,
      "´ë¶Ģ": 2255,
      "ĠëĤ®": 2256,
      "ĠâĹ": 2257,
      "ëĶĶìĸ´": 2258,
      "ĠëĦĪ": 2259,
      "Ġê°Ģê²©": 2260,
      "íıīê°Ģ": 2261,
      "Ġ100": 2262,
      "14": 2263,
      "ĠíıŃ": 2264,
      "ĠìĤ¬ìĹħìĿ´": 2265,
      "ĠìĿ´ëı": 2266,
      "ìĩ": 2267,
      "íķ´ìĸĳ": 2268,
      "Ġíľ´": 2269,
      "ĠíķĺëĬĶëį°": 2270,
      "Ġìĸ´ëĬĲ": 2271,
      "ĠíĬ¹ìłķ": 2272,
      "Ġë§ĪìĿĦ": 2273,
      "íıŃ": 2274,
      "ĠìĪĺìĥģ": 2275,
      "ìĹ¬ìĦ±": 2276,
      "ĠìĤ¬íķŃìĿĢ": 2277,
      "Ġì§ĢìĹŃìĿĺ": 2278,
      "ĠíļĮìĿĺë¡Ŀ": 2279,
      "ëĦ·": 2280,
      "´ëĲ": 2281,
      "er": 2282,
      "Ġíİ¸ìĦ±": 2283,
      "ìłĦìĿĦ": 2284,
      "ĠìĻ¸êµŃ": 2285,
      "íķĦ": 2286,
      "ê´ĢìĿĺ": 2287,
      "Ġëħ¹": 2288,
      "ľ»": 2289,
      "ĠíĻķìĤ°": 2290,
      "23": 2291,
      "ĠìĿ´ëıĻ": 2292,
      "êµ¬ìĿĺ": 2293,
      "Ġë§ŀì¶": 2294,
      "Ġì¤ĳìĹĲ": 2295,
      "on": 2296,
      "Ġë¬´ë": 2297,
      "Ġë²Į": 2298,
      "Ġì»¤": 2299,
      "ë¬¸ìĿĦ": 2300,
      "íĸĪìľ¼ë©°": 2301,
      "Ġìĭłê³ł": 2302,
      "ëĭµ": 2303,
      "¦Ħ": 2304,
      "ĠìĿ´ëĬĶ": 2305,
      "ê´ĢìĿĦ": 2306,
      "ì§Ģê°Ģ": 2307,
      "ìľ¼ë¡ľìĦľ": 2308,
      "ìļ´ìĺģ": 2309,
      "Ġì£¼ìĦ¸ìļĶ": 2310,
      "ĠíĬ¸": 2311,
      "ëĮĢíķĻ": 2312,
      "ĠìĿ´ë¤Ħ": 2313,
      "Ġêµ¬ë§¤": 2314,
      "íħĲì¸ł": 2315,
      "ĠìĤ°ë¦¼": 2316,
      "Ġì°©": 2317,
      "ĠìĿ´ë¦Ħ": 2318,
      "Ġ25": 2319,
      "ĠìĦľë¹ĦìĬ¤ë¥¼": 2320,
      "Ġê·¸ëŁ¬": 2321,
      "Ġê²°ê³¼ë¥¼": 2322,
      "30": 2323,
      "åħ": 2324,
      "Ġë¯¸êµŃ": 2325,
      "Ġê¸Īìľµ": 2326,
      "Ġíĸ¥íĽĦ": 2327,
      "ë³Ħë¡ľ": 2328,
      "ë¶Ģë¶Ħ": 2329,
      "Ġëĵ±ìľ¼ë¡ľ": 2330,
      "ĠìĿ¸ì¦Ŀ": 2331,
      "ĠëĤĺê°Ģ": 2332,
      "Ġë°ľìĥĿíķĺëĬĶ": 2333,
      "ëı¼": 2334,
      "ĠíķĺëĤĺìļĶ": 2335,
      "ĠìĺĪìĤ°ìĿĦ": 2336,
      "Ġëĭ¨ì²´": 2337,
      "Ġë¹ĦêµĲ": 2338,
      "ë¶ĢìĤ°ìĭľ": 2339,
      "ì´ī": 2340,
      "ì²ŃìĿ´": 2341,
      "ĠìĨĮê°ľ": 2342,
      "Ġíķµ": 2343,
      "ĠìĪĺì¤Ģ": 2344,
      "ê³³": 2345,
      "ìľĦìĽĲìŀ¥": 2346,
      "ê°ľìĨĮ": 2347,
      "ì²Ļ": 2348,
      "ĠëĶĶìŀĲìĿ¸": 2349,
      "ĠìľĦíĹĺ": 2350,
      "ĠìĿ¸ëł¥": 2351,
      "ìĭľíĤ¤ëĬĶ": 2352,
      "ìĦ±ìĿĢ": 2353,
      "Ġì¶©ë¶Ħ": 2354,
      "Ġì¤ĳìĨĮê¸°ìĹħ": 2355,
      "ìłľëĬĶ": 2356,
      "ĠìĬ¤íĥĢ": 2357,
      "ëĵ±íķĻêµĲ": 2358,
      "Ġëĭ¤ë£¨": 2359,
      "Ġì°½ì¶ľ": 2360,
      "ë¶ĢìĿĺ": 2361,
      "ĠìĹ¬íĸī": 2362,
      "ëł´": 2363,
      "ĠìµľìĨĮ": 2364,
      "ë¨¼": 2365,
      "íķĺëĤĺìļĶ": 2366,
      "Ġ50": 2367,
      "ìĹĶ": 2368,
      "ĠíĻ©": 2369,
      "ĠìĨĮìŀ¬": 2370,
      "ĠíĴĪì§Ī": 2371,
      "ì¤ĺ": 2372,
      "ĠìĿĺíķ´": 2373,
      "Ġê¸°íļį": 2374,
      "Ġìŀ¬ìłķ": 2375,
      "Ġìłľì¡°": 2376,
      "ìĿ´ìĸ´": 2377,
      "ëĮĢíķĻêµĲ": 2378,
      "ìĽĲìĹĲ": 2379,
      "ĠìłķíĻķ": 2380,
      "íĮĢ": 2381,
      "ìķĪìĿĦ": 2382,
      "ĠëĲĺê³ł": 2383,
      "ĠìĿ¼ë¶Ģê°ľìłķ": 2384,
      "ĠìĹ°ê³Ħ": 2385,
      "Ġë°Ķëŀ": 2386,
      "ë¦¬ìĹĲ": 2387,
      "ĠìĥĿê°ģíķĺìĭľëĤĺìļĶ": 2388,
      "ëŀ«": 2389,
      "Ġë¹ł": 2390,
      "ë£Įë¥¼": 2391,
      "ë¦¬ê°Ģ": 2392,
      "ì²´ë¥¼": 2393,
      "ĠíĤ": 2394,
      "ìĶ¨": 2395,
      "½ĥ": 2396,
      "ĠìĤ¬ë¬´": 2397,
      "ìĬµëĭĪê¹Į": 2398,
      "ê»ĺìĦľ": 2399,
      "ĠìĽĶ": 2400,
      "ìĿ´ì§Ģ": 2401,
      "ìĽĲìĹĲìĦľ": 2402,
      "ĠìŀĪëĭ¤ê³ł": 2403,
      "Ġëĭµë³Ģ": 2404,
      "Ġê²ª": 2405,
      "ĠT": 2406,
      "Ġì§ķ": 2407,
      "ëŀĮíļĮ": 2408,
      "ĠíĶĦë¡ľê·¸ëŀ¨ìĿĦ": 2409,
      "Ġìĸ´ë¦°ìĿ´": 2410,
      "ì£Ħ": 2411,
      "ìķŀ": 2412,
      "ĠìĿ´ëĤ": 2413,
      "ë¦´": 2414,
      "ì¢Į": 2415,
      "Ġê¸°ëħĲ": 2416,
      "ìĿ´ëŀĢ": 2417,
      "Ġê³Ħìķ½": 2418,
      "ĠëĮĢì±ħìĿĦ": 2419,
      "Ġìłķì¹ĺ": 2420,
      "Ġìłĳê·¼": 2421,
      "íĥķ": 2422,
      "Ġê³µìĹ°": 2423,
      "ë¨¸": 2424,
      "äº": 2425,
      "ìĿ´ê¸°": 2426,
      "Ġë°ĶëŀįëĭĪëĭ¤": 2427,
      "ĠìĨ¡": 2428,
      "ĠìĹĨìĿ´": 2429,
      "Ġìļ¸": 2430,
      "ĠíĺĦëĮĢ": 2431,
      "Ġë³´ëĤ": 2432,
      "in": 2433,
      "ĠìĤ¬ê³ł": 2434,
      "ìŀĲìĻĢ": 2435,
      "ë¹Ħê°Ģ": 2436,
      "Ġíķ´ìķ¼": 2437,
      "ëĭ¨ìĿ´": 2438,
      "Ġì¶Ķì²ľ": 2439,
      "ĠíĨłë¡ł": 2440,
      "ëªħìĿ´": 2441,
      "ìŀĲìĹĲê²Į": 2442,
      "Ġê¸´": 2443,
      "ĠF": 2444,
      "ĠíķĻìĬµ": 2445,
      "ĠëıĦëĤ´": 2446,
      "ìľĦìĽĲíļĮìĹĲìĦľ": 2447,
      "ĠìĻĦë£Į": 2448,
      "Ġê³łê°Ŀ": 2449,
      "ìĭŃëĭĪê¹Į": 2450,
      "Ġë¶": 2451,
      "ì²´ìľ¡": 2452,
      "ĠìĿ¸ìĭĿ": 2453,
      "ìĪĻ": 2454,
      "ĠìĿ¸íĦ°": 2455,
      "Ġâĸ³": 2456,
      "ĠíĮĢ": 2457,
      "Ġë°©ì§Ģ": 2458,
      "Ġì§ĢìĨįìłģìľ¼ë¡ľ": 2459,
      "Ġ24": 2460,
      "ë¶Ģë¥¼": 2461,
      "Ġíİ¼": 2462,
      "ìĥģìĿĺ": 2463,
      "Ġì¶Ķì§Ħíķĺê³ł": 2464,
      "Ġ199": 2465,
      "Ġë°ľìĥĿíķł": 2466,
      "Ġë¬´ìĹĩìĿ´ìĹĪ": 2467,
      "ĠíĥĲ": 2468,
      "ĠíĽĪëł¨": 2469,
      "Ġë°©ìķĪìĿĦ": 2470,
      "Ġì§ģìĽĲ": 2471,
      "ëĵ¤ìĹĲ": 2472,
      "Ġê²©": 2473,
      "ëĮĢíļĮ": 2474,
      "13": 2475,
      "ĠìĦ±ê³¼ë¥¼": 2476,
      "ĠìłķëıĦ": 2477,
      "ĠìŀĪìĹĪëĭ¤": 2478,
      "Ġíĺ¼": 2479,
      "ìĪĺê°Ģ": 2480,
      "Ġê°Ģì¹ĺ": 2481,
      "êµ¬ë¥¼": 2482,
      "Ġìĭ¶": 2483,
      "Ġê³łìļ©": 2484,
      "Ġë³´ê±´": 2485,
      "ĠìľĦë°ĺ": 2486,
      "ê¸°ìĻĢ": 2487,
      "ĠìķĮê³ł": 2488,
      "ê³¼ìłķ": 2489,
      "ëªħìĿĺ": 2490,
      "ĠìĤ¬ìļ©íķł": 2491,
      "Ġì£½": 2492,
      "Ġê²ĢìĤ¬": 2493,
      "Ġì¦Ŀìķ¡": 2494,
      "ĠìĿ´íķĺ": 2495,
      "ĠëĮĢíķľë¯¼êµŃ": 2496,
      "ĠìĦ¤ëªħíķ´ì¤Ħ": 2497,
      "Ġíķľëĭ¤ê³ł": 2498,
      "íľ´": 2499,
      "ëĲĺìĹĪê³ł": 2500,
      "íĺģ": 2501,
      "Ł°": 2502,
      "ìĿ¼ìłķ": 2503,
      "êµŃìłľ": 2504,
      "ĠìŀĲìľł": 2505,
      "Ġê³¼ìłķìĿĦ": 2506,
      "ĠëģĿ": 2507,
      "ĠìĶ¨": 2508,
      "ĠìŀĪê²Į": 2509,
      "ìķĪìĹĲ": 2510,
      "ĠìĬ¤ë§ĪíĬ¸": 2511,
      "ê±´ìĦ¤": 2512,
      "ê·Ģ": 2513,
      "íķĺìĺĢìľ¼ë©°": 2514,
      "ìŀ¡": 2515,
      "ĠìłģìłĪíķľ": 2516,
      "ìĿ¸ìĿĢ": 2517,
      "Ġíķĺë©°": 2518,
      "Ġê±´ë¬¼": 2519,
      "ëĭĮ": 2520,
      "ĠìĺģíĻĶ": 2521,
      "Ġê·ł": 2522,
      "Ġì¤ĳìĭ¬ìľ¼ë¡ľ": 2523,
      "Ġë§Ľ": 2524,
      "ĠìĹ¬ëŁ¬ë¶Ħ": 2525,
      "íķĻìĥĿ": 2526,
      "ìŀĲëĵ¤ìĿ´": 2527,
      "Ġê¸°ê¸Ī": 2528,
      "ì£¼ìĦ¸ìļĶ": 2529,
      "ĠìľłíĨµ": 2530,
      "ëĮĢìĿĺ": 2531,
      "ìŀ¥ìĹĲ": 2532,
      "ĠìŀĲì¹ĺ": 2533,
      "Ġì§ĢëıĦ": 2534,
      "Ġìľ¤": 2535,
      "ìĽĮíģ¬": 2536,
      "Ġì²«": 2537,
      "ĠìĭľíĹĺ": 2538,
      "Ġë°ĽëĬĶ": 2539,
      "ĠìŀĲëıĻì°¨": 2540,
      "Ġë°Ģ": 2541,
      "ëĮĢì±ħ": 2542,
      "Ġìļ°ëł¤": 2543,
      "ì§Ģë¡ľ": 2544,
      "ĠìĤ¬ì§Ħ": 2545,
      "Ġê¸Īìķ¡": 2546,
      "ĠP": 2547,
      "ĠíĮĲê²°": 2548,
      "Ġì¢Į": 2549,
      "ìľ¼ë©´": 2550,
      "ì¡Įëĭ¤": 2551,
      "Ġíģ¬ê²Į": 2552,
      "íĺĳëł¥": 2553,
      "ìĿ¼ìĹĲ": 2554,
      "ê¸Ģ": 2555,
      "íķĺì§Ģë§Į": 2556,
      "ë³´ëĭ¤": 2557,
      "ìĤ¬ê³ł": 2558,
      "ìĪĺìĿĺ": 2559,
      "ì½": 2560,
      "ĠíĤ¤": 2561,
      "Ġìĺ¤ëĬĶ": 2562,
      "Ġì²´ê³Ħ": 2563,
      "íį¼": 2564,
      "Ġìķħ": 2565,
      "Ġê·¸ëŁ°": 2566,
      "ĠëĪĪ": 2567,
      "Ġê¶ģ": 2568,
      "êµ¬ìĹŃ": 2569,
      "ĠìĥĿëŀµ": 2570,
      "Ġì°½ìĹħ": 2571,
      "ĠëıĻë¬¼": 2572,
      "Ġìŀ¥ê´Ģ": 2573,
      "êµŃê°Ģ": 2574,
      "Ġíİĺ": 2575,
      "íķĺëĬĶê°Ģ": 2576,
      "ë¡ľëĬĶ": 2577,
      "ìłĦë¬¸": 2578,
      "ìŀ¥ê³¼": 2579,
      "Ġê±´ìĿĺ": 2580,
      "Ġë³´ìĦ¸ìļĶ": 2581,
      "ìŀ¥ëĭĺ": 2582,
      "ĠìĤŃ": 2583,
      "Ġìŀ¥ìķłìĿ¸": 2584,
      "ëĿ¼ëıĦ": 2585,
      "ĠìŀĪìĸ´ìĦľ": 2586,
      "ì§ĢíĦ¸": 2587,
      "Ġìĭłê·ľ": 2588,
      "Ġìŀ¬ëĤľ": 2589,
      "ĠìĻĢ": 2590,
      "ê°Ģì¡±": 2591,
      "ë§ĪìĿĦ": 2592,
      "ĠìĨĮê´Ģ": 2593,
      "ê°ĦìĿĺ": 2594,
      "Ī¼": 2595,
      "ĠìĪĺìļĶ": 2596,
      "Ġë°©ìĹŃ": 2597,
      "Ġìłķë¹Ħ": 2598,
      "íĺ¼": 2599,
      "Ġë¶Ħìķ¼ìĹĲìĦľ": 2600,
      "Ġì²ĺìĿĮ": 2601,
      "íķĺìĺĢê³ł": 2602,
      "Ġë¬¸ìłľëĬĶ": 2603,
      "´ë³µ": 2604,
      "ĠìĪĺìŀħ": 2605,
      "Ġ22": 2606,
      "íĥĪ": 2607,
      "Ġë§ī": 2608,
      "Ġì£¼ìĿĺ": 2609,
      "ìŀĲì²´": 2610,
      "ìĿ´ìĬ¤": 2611,
      "Ġê¸°ì¡´": 2612,
      "ĠìłĦíĻĺ": 2613,
      "ê·ľëª¨": 2614,
      "ê³¼ìŀ¥ìĿĢ": 2615,
      "ìĪĺëĬĶ": 2616,
      "ĠìĥģíĴĪ": 2617,
      "Ġë¶Ģë¶ĦìĿĢ": 2618,
      "ĠêµŃë¦½": 2619,
      "êµŃìŀ¥ìĿĢ": 2620,
      "áĦ": 2621,
      "Ġì¡´ìŀ¬": 2622,
      "Ġëĭ¨ê³Ħ": 2623,
      "Ġê¸°ìĪłìĿĦ": 2624,
      "ìħĶ": 2625,
      "ë³´ê±´": 2626,
      "Ġìµľì´Ī": 2627,
      "Ġê³µê°ľ": 2628,
      "ĠìłĦê¸°": 2629,
      "Ġê²ĥëĵ¤ìĿ´": 2630,
      "âĢĿ": 2631,
      "ìĿ¸ì§Ģ": 2632,
      "ìłľê°Ģ": 2633,
      "ì¿": 2634,
      "Ġì¦ī": 2635,
      "íĨµìĭł": 2636,
      "Ġìłľê³µíķĺëĬĶ": 2637,
      "ĠìłĦìĹĲ": 2638,
      "ĠìĿĺíķľ": 2639,
      "ĠM": 2640,
      "íľ": 2641,
      "25": 2642,
      "ìĬĪ": 2643,
      "Ġê²½ì°°": 2644,
      "ë¡Ń": 2645,
      "ìĹħì²´": 2646,
      "ëıĻìķĪ": 2647,
      "Ġì£¼íĥĿ": 2648,
      "Ġì¹´": 2649,
      "ĠíĻĪ": 2650,
      "ĠìĥģíĻ©ìĹĲ": 2651,
      "ëĭ¨ìĿĦ": 2652,
      "ĠìŀĲìĦ¸íŀĪ": 2653,
      "ĠìĦ¸ìŀħ": 2654,
      "ê²½ê¸°ëıĦìĿĺíļĮ": 2655,
      "ëĲĺìĸ´ìķ¼": 2656,
      "êµŃë¯¼": 2657,
      "ĠìķĶ": 2658,
      "ĠëĮĢíķ´ìĦľëĬĶ": 2659,
      "íĦ´": 2660,
      "Ġìĸ¼ë§ĪëĤĺ": 2661,
      "ëĤ¬": 2662,
      "ìŀĲë¡ľ": 2663,
      "ìľĦìĽĲíļĮìĿĺ": 2664,
      "ĠìŀĦìĭľ": 2665,
      "Ġë³´ìĹ¬": 2666,
      ")Â·": 2667,
      "íı¼": 2668,
      "ĴĢ": 2669,
      "Ġë¨¸": 2670,
      "ķħ": 2671,
      "ê¶ĮìĿĦ": 2672,
      "íķľëĭ¤ê³ł": 2673,
      "ĠìĤ¬ëŀĳ": 2674,
      "ë¶ĢìĹĲ": 2675,
      "ĠìłĪì°¨ë¥¼": 2676,
      "ìķŀìľ¼ë¡ľ": 2677,
      "ì£¼ëĬĶ": 2678,
      "ĠìĦ¤ê³Ħ": 2679,
      "ìĪĺëıĦ": 2680,
      "Ġìļ°ìĦł": 2681,
      "´ëĵ¤": 2682,
      "Ġëĭ¹ìĭľ": 2683,
      "Ġë§¡": 2684,
      "ĠêµĲìľ¡ìĿĦ": 2685,
      "Ġê²ĥìĿ¸ê°ĢìļĶ": 2686,
      "Ġ0": 2687,
      "Ġìĭ¤ì²ľ": 2688,
      "Ġë°ĺìĿĳ": 2689,
      "Ġìĭľê°ĦìĿĦ": 2690,
      "Ġê·¼ë¡ľ": 2691,
      "ĠêµĲìľ¡ì²Ń": 2692,
      "ëł¥ìĿ´": 2693,
      "Ġì»¨": 2694,
      "Ġìĸ´ëł¤ìļ´": 2695,
      "´ë¦°": 2696,
      "ë¸Ķ": 2697,
      "Ġì²´ìľ¡": 2698,
      "Ġê°ĲìĹ¼": 2699,
      "Ġëıħë¦½": 2700,
      "ìĺĢëĭ¤": 2701,
      "ìĺ¥": 2702,
      "ëĤĺë¬´": 2703,
      "Ġì§ĢëĤľíķ´": 2704,
      "íĶĦíĬ¸": 2705,
      "Ġê·¼ê±°": 2706,
      "ì³¤": 2707,
      "ëĮĢë¥¼": 2708,
      "Ġì¡°ì¹ĺê°Ģ": 2709,
      "Ġíķ´ê²°íķĺê¸°": 2710,
      "Ġì¤ĳìĹĲìĦľ": 2711,
      "ëģ¼": 2712,
      "ĠëĦĺ": 2713,
      "Ġê²¬": 2714,
      "Ġê¸°ëĬ¥ìĿĦ": 2715,
      "ĠëĤľ": 2716,
      "íı°": 2717,
      "Ġì½ĺíħĲì¸ł": 2718,
      "å¤": 2719,
      "ìŀĳìļ©": 2720,
      "Ġìºł": 2721,
      "ĠìĭłìĨį": 2722,
      "Ġëħ¸ëıĻ": 2723,
      "ëıĦìĻĢ": 2724,
      "Ġíķ´ìĨĮ": 2725,
      "ĠâĢľ": 2726,
      "âĿį": 2727,
      "ìĬ¬": 2728,
      "ĠëĤ©": 2729,
      "Ġë¸Įëŀľëĵľ": 2730,
      "Ġíģ´ë": 2731,
      "ħĦ": 2732,
      "ĠìĦ¤ëªħíķ´ì¤ĺ": 2733,
      "Ġìłľê³µíķ©ëĭĪëĭ¤": 2734,
      "ìľĦìĹĲ": 2735,
      "ìŀĲìĹĲ": 2736,
      "ĠìĹĨëĭ¤": 2737,
      "ìĥģìĿ´": 2738,
      "ìķķ": 2739,
      "Ġìŀ¥ìĨĮ": 2740,
      "ĠëĨįê°Ģ": 2741,
      "ĠìĿ¼ë°ĺìłģìľ¼ë¡ľ": 2742,
      "ĠD": 2743,
      "ĠìŀĲì²´": 2744,
      "ĠìĥģíĻ©ìĹĲìĦľ": 2745,
      "ì¼ĢíĮħ": 2746,
      "âĪ¼": 2747,
      "íĸĪê³ł": 2748,
      "Ġì¡°ìłĪ": 2749,
      "Ġëĭ¬ìĦ±": 2750,
      "ìĽĶìĹĲ": 2751,
      "Ġë§Īì¹ĺ": 2752,
      "¿Ĳë§Į": 2753,
      "ìłĲê²Ģ": 2754,
      "Ġê·ľìłķìĹĲ": 2755,
      "Ġê³µìĤ¬": 2756,
      "Ġ21": 2757,
      "ĠëĮĢì±ħìĿĢ": 2758,
      "ëŀ«íı¼": 2759,
      "Ġê·ľìłľ": 2760,
      "ĠìłĦìŀĲ": 2761,
      "Ġì£¼ëĬĶ": 2762,
      "Ġìŀł": 2763,
      "ĠíĻľìļ©íķĺìĹ¬": 2764,
      "ĠìķĬìķĺ": 2765,
      "íĽĪ": 2766,
      "Ġìĥī": 2767,
      "an": 2768,
      "Ġìľłëªħ": 2769,
      "ìĿ¼ìĿĦ": 2770,
      "Ġëª©ìłģìĿĢ": 2771,
      "ĠìŀĪìľ¼ë¯Ģë¡ľ": 2772,
      "íĻį": 2773,
      "Ġë°ľìłĦìĿĦ": 2774,
      "ĵ¨": 2775,
      "íķĺê¸°ë¡ľ": 2776,
      "ê³µëĭ¨": 2777,
      "Ġê°Ģì§Ħ": 2778,
      "Ġ23": 2779,
      "Ġìłľìłķ": 2780,
      "Ġì£¼ìĭ¤": 2781,
      "ìŀ¥ìĹĲìĦľ": 2782,
      "Ġìļ´ìļ©": 2783,
      "ì¡°ìĦł": 2784,
      "ĠìĬ¤íĬ¸": 2785,
      "ĠíĸīìłķìĤ¬ë¬´": 2786,
      "at": 2787,
      "ëł¸": 2788,
      "Ġì¢Ģ": 2789,
      "ì²ĺëŁ¼": 2790,
      "ìľ¼ë¡ľëĬĶ": 2791,
      "50": 2792,
      "ë²½": 2793,
      "Ġë¸Ķ": 2794,
      "ìĹĲëĦĪì§Ģ": 2795,
      "ëłĩê²Į": 2796,
      "ìĭľíĤ¤ê³ł": 2797,
      "Ġìľµ": 2798,
      "ê³µìĽĲ": 2799,
      "ĠíĦ": 2800,
      "ê¸°íļį": 2801,
      "or": 2802,
      "ì»¤": 2803,
      "ëĨ": 2804,
      "ìĬ¤ìĿĺ": 2805,
      "ĠíĿ¬ë§Ŀ": 2806,
      "Ġê²ĥìĹĲ": 2807,
      "Ġëª¸": 2808,
      "ë§¹": 2809,
      "ĠìĤ¬ìļ©íķĺëĬĶ": 2810,
      "´ë§": 2811,
      "ë²ķìĹĲ": 2812,
      "Ġíĸīë³µ": 2813,
      "Ġìļ´ìĺģìĹĲ": 2814,
      "´í": 2815,
      "íķĳ": 2816,
      "Ġê¹Ĭ": 2817,
      "ëĮĢêµ¬ìĭľ": 2818,
      "ê·¸ëŀĺ": 2819,
      "Ġëª©íĳľë¥¼": 2820,
      "íļĮê°Ģ": 2821,
      "ìŀĲëĵ¤ìĿĺ": 2822,
      "ĠëĤ´ë¶Ģ": 2823,
      "ì£¼ë¯¼": 2824,
      "ìŀĦìĿĦ": 2825,
      "Ġì£¼ìŀ¥": 2826,
      "ĠìĿ¸ë¬¼": 2827,
      "ê³¨": 2828,
      "Ġë°Ľìķĺ": 2829,
      "ë³´íĺ¸": 2830,
      "ìĿ¸ëį°": 2831,
      "Ġì²¨": 2832,
      "Ġëħ¸ëł¥ìĿ´": 2833,
      "Ġê²ĥëıĦ": 2834,
      "Ġíķµìĭ¬": 2835,
      "ëķĮ": 2836,
      "Ġê°ģì¢ħ": 2837,
      "ì¡°ìĹĲ": 2838,
      "Ġê³łëł¤íķĺìĹ¬": 2839,
      "ìłĲìĿ´": 2840,
      "Ġëľ»": 2841,
      "ĠëĮĢë¶Ģë¶Ħ": 2842,
      "íĺĦìŀ¬": 2843,
      "ĠK": 2844,
      "Ġì¢ħë¥ĺìĿĺ": 2845,
      "ìĦľë¹ĦìĬ¤": 2846,
      "ĠG": 2847,
      "Ġì§ĦíĸīëĲĺê³ł": 2848,
      "ĠìĿ´ëŁ°": 2849,
      "ê°ľìĽĶ": 2850,
      "Ġê·¸ê²ĥ": 2851,
      "ĠìĪĻ": 2852,
      "Ġë¹Ħìľ¨": 2853,
      "ìłľìĿĺ": 2854,
      "ìĤ¬ë¡ľ": 2855,
      "Ġìµľì¢ħ": 2856,
      "ëĭ¤ë¥¸": 2857,
      "ìĬ¤ëĬĶ": 2858,
      "ĠìĥģíĻ©ìĿĢ": 2859,
      "Ġë°°ìļ°": 2860,
      "ĠìĿ´ê²ĥ": 2861,
      "Ġê³¨": 2862,
      "ë¬ĺ": 2863,
      "ë£¹": 2864,
      "Ġìĭłë¢°": 2865,
      "ìŀĲëĵ¤ìĿĢ": 2866,
      "ĠëĲĺìĹĪëĤĺìļĶ": 2867,
      "ê¶ģ": 2868,
      "Ġë°°ê²½": 2869,
      "Ġíļ¨ê³¼ë¥¼": 2870,
      "£Į": 2871,
      "Ġë¶Ģê³¼": 2872,
      "('": 2873,
      "ĠìĿ´ë£¨": 2874,
      "ìĿ¼ë°ĺ": 2875,
      "Ģë¡ľë²Į": 2876,
      "Ġìĸ»ìĿĦ": 2877,
      "ĠìĿ´íĸī": 2878,
      "Ġë°©ìĨ¡": 2879,
      "ĠìĤ¶": 2880,
      "Ġì°¨ëŁī": 2881,
      "ìłľìĹĲ": 2882,
      "ĠíĻľìĦ±íĻĶë¥¼": 2883,
      "ĠíĻĶìŀ¬": 2884,
      "ĠìĨĮëĵĿ": 2885,
      "Ġê³µìłķ": 2886,
      "íĪ¬ìŀĲ": 2887,
      "Ġíı¬íķ¨íķĺê³ł": 2888,
      "Ġìī½": 2889,
      "ìĦ¸ê¸°": 2890,
      "ĠìĥģëĮĢ": 2891,
      "ĠíĶĮëŀ«íı¼": 2892,
      "ìĭľíĹĺ": 2893,
      "Ġê·łíĺķ": 2894,
      "ì§ĢìĤ¬": 2895,
      "´íĵ¨": 2896,
      "Ġê¸°íļĮë¥¼": 2897,
      "Ġë³´ê¸ī": 2898,
      "ĠìĽ¹": 2899,
      "ĠìĨĮìĨį": 2900,
      "ëĭĪíĦ°": 2901,
      "ìĭľìĺ¤": 2902,
      "íļĮìĹĲìĦľ": 2903,
      "Ġê·¸ìĹĲ": 2904,
      "ë¶ĢìĤ°ìĭľìĿĺ": 2905,
      "®¤": 2906,
      "ĠâĹĭ": 2907,
      "ĠB": 2908,
      "ìłķìłģìĿ¸": 2909,
      "ĠR": 2910,
      "ìļ°ë¦¬": 2911,
      "Ġì·¨ìĹħ": 2912,
      "ëĲĺë©´": 2913,
      "ĠìĬµ": 2914,
      "ë´": 2915,
      "ĠëĤ´ìļ©ìľ¼ë¡ľ": 2916,
      "ĠìĿ´ìķ¼ê¸°": 2917,
      "Ġë¬´ìĹĩìĿ´ê³ł": 2918,
      "Ġë§ŀì¶¤": 2919,
      "Ġì§ĦíĿ¥": 2920,
      "ĠëıĮìķĦ": 2921,
      "Ġìµľê³ł": 2922,
      "ĠëıĦìĦľ": 2923,
      "ĳ¸": 2924,
      "ëħĦê¹Įì§Ģ": 2925,
      "ĠëıĻìĿĺ": 2926,
      "ĠìŀĪëĤĺ": 2927,
      "ĠìĿ¸ìĤ¬": 2928,
      "ĠìĥģíĻ©ìĿĦ": 2929,
      "Ġê¸°íĽĦ": 2930,
      "Ġê°Ģìŀħ": 2931,
      "ê±´ë³µ": 2932,
      "ĠìĿĺê²°": 2933,
      "ĠìĤ¬ìļ©ëĲĺëĬĶ": 2934,
      "íı¬ì¸ł": 2935,
      "ĠìŀĲê²©": 2936,
      "ĠìĿ´ëĵ¤": 2937,
      "Ġê²½íĹĺìĿĦ": 2938,
      "Ġëª¨ìĬµ": 2939,
      "ê´Ģê³Ħ": 2940,
      "íģ¼": 2941,
      "Ġëĵ±ê³¼": 2942,
      "ì²ĺë¦¬": 2943,
      "ëıĦìĹĲ": 2944,
      "Ġê·¸ìĿĺ": 2945,
      "ìĶ©": 2946,
      "Ġ28": 2947,
      "ĠëĨįì´Į": 2948,
      "ĠëĤĺëĿ¼": 2949,
      "ëĮĢìĹĲ": 2950,
      "ĠìŀĳìĿĢ": 2951,
      "ìĤ°ë¦¼": 2952,
      "ë¥´ê²Į": 2953,
      "Ġë³´íĹĺ": 2954,
      "Ġìĸ¸ìĸ´": 2955,
      "Ġì£¼ìĭľê¸°": 2956,
      "24": 2957,
      "ĠìµľìĨĮíĻĶ": 2958,
      "ì§Ģë§ī": 2959,
      "ë°ľìłĦ": 2960,
      "Ġíķĺì§Ģ": 2961,
      "ìº": 2962,
      "íĺģìĭł": 2963,
      "Ġìķ±": 2964,
      "Ġ26": 2965,
      "ìłĦìŀĲ": 2966,
      "ĠëªħìĿ´": 2967,
      "ìĬ¤íģ¬": 2968,
      "Ġë¶Īë²ķ": 2969,
      "ë¦½ëĭĪëĭ¤": 2970,
      "´ëł": 2971,
      "Ġê´Ģìĭ¬ìĿĦ": 2972,
      "Ġìĸ´ëł¤ìĽĢìĿĦ": 2973,
      "ĠìłķìĿĺ": 2974,
      "Ġì§ĢìĽĲìĹĲ": 2975,
      "Ġ27": 2976,
      "ìĦ¸ê³Ħ": 2977,
      "ë¦Ń": 2978,
      "ê·¸ë¦¬ê³ł": 2979,
      "Ġë³´ì¡°": 2980,
      "Ġê´ĳì£¼": 2981,
      "ê°ľìĿĺ": 2982,
      "ìĬ¤íĦ°": 2983,
      "Ġë¬ĺ": 2984,
      "ì§ĢìĻĢ": 2985,
      "ĠëĤĺëĪĦ": 2986,
      "ìĭľì¼ľ": 2987,
      "ìĥģìĿĢ": 2988,
      "ĠìĥĿë¬¼": 2989,
      "ê¸´": 2990,
      "ìĥģìľ¼ë¡ľ": 2991,
      "ĠìĨĮìľł": 2992,
      "Ġìĭ¬ìĿĺ": 2993,
      "ì¡°íķ©": 2994,
      "Ġì§Īë¬¸": 2995,
      "ĠìĦłìĪĺ": 2996,
      "ìĹĦ": 2997,
      "ĠìĭłìĦ¤": 2998,
      "Ġìŀ¬ë°°": 2999,
      "æľ": 3000,
      "Ġì±Ħìļ©": 3001,
      "ëħĦê°Ħ": 3002,
      "Ġì§Ģêµ¬": 3003,
      "al": 3004,
      "ê¸ĪìĿĢ": 3005,
      "ĠìŀĲê¸°": 3006,
      "ìĨĮìĿĺ": 3007,
      "Ġíĺĳì¡°": 3008,
      "íĸĪìĿĦ": 3009,
      "íĬ¸ìĽĮíģ¬": 3010,
      "Ġìĩ": 3011,
      "ë¬¸íĻĶìŀ¬": 3012,
      "ĠìºĲ": 3013,
      "ìĽĲê³¼": 3014,
      "ĠìĹħë¬´ë¥¼": 3015,
      "Ġë³ĢíĻĶê°Ģ": 3016,
      "ë³´íĹĺ": 3017,
      "ëĥĲ": 3018,
      "Ġêµ¬ìŀħ": 3019,
      "ĠL": 3020,
      "km": 3021,
      "ë¶ĢìĻĢ": 3022,
      "ìłķìĹĲ": 3023,
      "ĠìĿ´ëģ": 3024,
      "Ġìļ°ë¦¬ëĤĺëĿ¼": 3025,
      "en": 3026,
      "):": 3027,
      "ĠëĤĺê°Ī": 3028,
      "ĠìĹ¼": 3029,
      "ìĿ´ìĺ¤": 3030,
      "ĠìĿ¸íĦ°ëĦ·": 3031,
      "ĠìłľìĻ¸": 3032,
      "ê±°ëŀĺ": 3033,
      "Ġë¨¼": 3034,
      "Ġì°¨ì§Ģ": 3035,
      "ì²´íĹĺ": 3036,
      "Ġìĭľë²Ķ": 3037,
      "Ġìŀ¬ìĤ°": 3038,
      "íĬ¹ë³ĦìŀĲì¹ĺ": 3039,
      "ìĸ¸ìĿĦ": 3040,
      "íļĮëĬĶ": 3041,
      "ëĤ©": 3042,
      "Ġíĺĳëł¥ìĿĦ": 3043,
      "Ġê²°ê³¼ëĬĶ": 3044,
      "ë´īìĤ¬": 3045,
      "ĠìłĦë§Ŀ": 3046,
      "Ġì¸¡ë©´": 3047,
      "Ġìļ©ìĹŃ": 3048,
      "íĸĪìĬµëĭĪëĭ¤": 3049,
      "Ġìłľê³µíķĺê³ł": 3050,
      "ìĽĶë¶ĢíĦ°": 3051,
      "ê±´ë³µì§Ģ": 3052,
      "ĠìĪĺì§ĳ": 3053,
      "ãĢİ": 3054,
      "Ġë°©ì¹¨": 3055,
      "ĠëĤ´ëł¤": 3056,
      "Ġëħ¸ìĿ¸": 3057,
      "ĠìķĦë¦Ħ": 3058,
      "Ġê¸Ģ": 3059,
      "ĠëĤ´ëħĦ": 3060,
      "ëĭ¨ìĿĢ": 3061,
      "ĠìĮ": 3062,
      "ĠëķĮëĬĶ": 3063,
      "ì²´ê³Ħ": 3064,
      "ĠíĸĪëĤĺìļĶ": 3065,
      "ìŀ¥ê´Ģ": 3066,
      "Ġê°ľìĿ¸ìĿĺ": 3067,
      "Ġê´Ģë¦¬ìĹĲ": 3068,
      "Ġìŀ¥ë¹Ħ": 3069,
      "ê³µë¬´ìĽĲ": 3070,
      "Ġë§¤ëħĦ": 3071,
      "Ġë°ĸ": 3072,
      "Ġë§ŀëĬĶ": 3073,
      "ĠëıĦìĻĢ": 3074,
      "Ġì·¨ìķ½": 3075,
      "ĠëĤ´ìĹŃ": 3076,
      "´ëĲĺ": 3077,
      "ìĿ´ìħĺ": 3078,
      "ĠíĹĮ": 3079,
      "ĠìµľëĮĢ": 3080,
      "ëį°ìĿ´íĦ°": 3081,
      "ëĤĺëĬĶ": 3082,
      "ĠìĿ¸êµ¬": 3083,
      "ĠìĪĺëĬĶ": 3084,
      "ĠíķĦìļĶíķ©ëĭĪëĭ¤": 3085,
      "íĻĶëĲľ": 3086,
      "ĠíĺĳìĹħ": 3087,
      "Ġíķĺê²łìĬµëĭĪëĭ¤": 3088,
      "Ġì§ĢìŀĲì²´": 3089,
      "ìŀ¬ìĤ°": 3090,
      "ê¸ĪìĿĺ": 3091,
      "ĠìĤ¬íķŃìĿĦ": 3092,
      "Ġìĭ¤ìłľ": 3093,
      "êµ¬íķĺê³ł": 3094,
      "ìķĪìĿĢ": 3095,
      "Ġì§Ģíķĺ": 3096,
      "ìľĦìĿĺ": 3097,
      "ìłĦëĿ¼ëĤ¨ëıĦê°Ģ": 3098,
      "ĠíĶ¼ê³ł": 3099,
      "ĠìĺĪìĤ°ìĿĢ": 3100,
      "Ġìĭ¤íĸī": 3101,
      "Ġ40": 3102,
      "ĠìĽĲìĿĺ": 3103,
      "Ġë°Ľê³ł": 3104,
      "Ġêµ¬ë¶Ħ": 3105,
      "ĠìŀĪìĿĦê¹Į": 3106,
      "Ġê°ľìĦłìĿĦ": 3107,
      "ìļķ": 3108,
      "Ġë©Ķìĭľ": 3109,
      "ìĨĮëĵĿ": 3110,
      "ì§ĢëĤľ": 3111,
      "áĨ": 3112,
      "Ġìĺ¤íĽĦ": 3113,
      "ìĭľë¯¼": 3114,
      "ĠíĪ¬ìŀħ": 3115,
      "ìľ¼ë¡ľë¶ĢíĦ°": 3116,
      "íľĺ": 3117,
      "ìĦľìĿĺ": 3118,
      "´íĵ¨íĦ°": 3119,
      "íħĶ": 3120,
      "Ġìŀ¥ê¸°": 3121,
      "ìĿĢíĸī": 3122,
      "ĠíķŃëª©": 3123,
      "Ġê·ľì¹Ļ": 3124,
      "ĠëĶĶì§ĢíĦ¸": 3125,
      "ìļ¸ëŁ¬": 3126,
      "íĸĪëįĺ": 3127,
      "Ġëĳĺ": 3128,
      "ĠìķĦëĭĮ": 3129,
      "Ġì§ĢìĹŃìĹĲ": 3130,
      "¤íĬ¸": 3131,
      "ĠìĭľëıĦ": 3132,
      "ìĿ¸ëĭ¤": 3133,
      "Ġëª¨ëĭĪíĦ°": 3134,
      "´ë¹Ħ": 3135,
      "ĠìĺĪì¸¡": 3136,
      "Ġìłľê³µíķł": 3137,
      "ìķ¡ìĿĢ": 3138,
      "ìĤ¬ìĹħìĿĦ": 3139,
      "ê°Ģë¥¼": 3140,
      "Ġê¼": 3141,
      "ĠíļĮë³µ": 3142,
      "ĠíĻķìĿ¸íķł": 3143,
      "ìĦľìĹĲ": 3144,
      "ìĿĺíļĮìĹĲìĦľ": 3145,
      "Ġë°Ķíĥķ": 3146,
      "Ġê°Ģìłķ": 3147,
      "Ġì¢ħêµĲ": 3148,
      "ĠìµľìĦłìĿĦ": 3149,
      "Ġê±°ëŀĺ": 3150,
      "Ġì£¼ìłľë¡ľ": 3151,
      "ĠìĸĳìĦ±": 3152,
      "ëĭ¤ìĿĮ": 3153,
      "Ġì£¼ê´Ģ": 3154,
      "Ġê²½ìĥģ": 3155,
      "Ġì¦Ĳê¸¸": 3156,
      "ëıĻìĤ°": 3157,
      "ĠìĤ¬ëŀĮëĵ¤ìĿ´": 3158,
      "ĠìĿĦ": 3159,
      "Ġìĥģëĭ¹": 3160,
      "íĤ¨": 3161,
      "Ġìĺ¤ëĬĺ": 3162,
      "ëĤ¨êµ¬": 3163,
      "ĠìŀĶ": 3164,
      "Ġê¸°íĥĢ": 3165,
      "Ġë¯¸ì¹ł": 3166,
      "ëĪĦ": 3167,
      "ĠìłĢìŀ¥": 3168,
      "Ġê·¼ë¬´": 3169,
      "ì¶ĺ": 3170,
      "ìĦľìļ¸": 3171,
      "Ġì£Ħ": 3172,
      "ìłģìĿ´ê³ł": 3173,
      "Ġìłķìĭł": 3174,
      "ì¡°ìłķ": 3175,
      "',": 3176,
      "Ġë³¸ê²©": 3177,
      "Ġ29": 3178,
      "íĶ½": 3179,
      "Ġìķķ": 3180,
      "ãĢĭ": 3181,
      "Ġê¸°ì´Ī": 3182,
      "ìłľíĴĪ": 3183,
      "íķĺìĺĢìĬµëĭĪëĭ¤": 3184,
      "ë¬¼ê´Ģ": 3185,
      "ĠìķĦëŀĺ": 3186,
      "ëĮĢìłĦê´ĳìĹŃìĭľ": 3187,
      "ëĵľëĬĶ": 3188,
      "ĠìĹĨìľ¼": 3189,
      "ìĭľíĸī": 3190,
      "Ġë¬¸ìłľìłĲìĿĢ": 3191,
      "ìłģìĿ´": 3192,
      "´ëĤĺ": 3193,
      "ĠíĺľíĥĿìĿĦ": 3194,
      "ĠìłĦê°ľ": 3195,
      "ĠìĤ¬ë§Ŀ": 3196,
      "Ġê¶Įíķľ": 3197,
      "ĠëĨĵ": 3198,
      "ëĭ¤ë©´": 3199,
      "Ġëį°ìĿ´íĦ°ë¥¼": 3200,
      "ĠìĭľìĬ¤íħľìĿĦ": 3201,
      "íĸĪëĭ¤ê³ł": 3202,
      "Ġë³´ìľł": 3203,
      "ë¡Ńê²Į": 3204,
      "Ġìĭľíĸīëł¹": 3205,
      "ê¸Īìľµ": 3206,
      "ë¦¬ìĬ¤": 3207,
      "Ġì¼": 3208,
      "ĠíķŃê³µ": 3209,
      "ĠìĽĮ": 3210,
      "Ġë¹Ħë¡¯íķľ": 3211,
      "ĠëĤĺëĪ": 3212,
      "êµŃìĿ´": 3213,
      "ĠìĥĿíĥľê³Ħ": 3214,
      "Ġê°Ģìł¸": 3215,
      "ë¦¬ìĻĢ": 3216,
      "ê±´ìĿĦ": 3217,
      "íķŃìĿĺ": 3218,
      "¿Ī": 3219,
      "ì²łëıĦ": 3220,
      "ĠìķĬìĿĦ": 3221,
      "ìŀ¥ìķłìĿ¸": 3222,
      "Ġëĵ£": 3223,
      "åı": 3224,
      "ĠìĿ´ëł": 3225,
      "ìĺ¤ëĬĶ": 3226,
      "íķĺìĹ¬ìķ¼": 3227,
      "íķĺê¸°ë¥¼": 3228,
      "ìĭŃìĭľìĺ¤": 3229,
      "ĠìŀĲë¦¬": 3230,
      "ìĽĲëıĦ": 3231,
      "ìĩĦ": 3232,
      "Ġë¶Ģë¶ĦìĿ´": 3233,
      "Ġê±´ê°ĢìļĶ": 3234,
      "ëĵľë¦¬": 3235,
      "Ġì§Ħì¶ľ": 3236,
      "ì½Ķë¡ľëĤĺ": 3237,
      "Ġë°°ì¹ĺ": 3238,
      "ëĲĺìĹĪëĬĶëį°": 3239,
      "íĽĪëł¨": 3240,
      "Ġì§Īë³ĳ": 3241,
      "Ġë§Īì¼ĢíĮħ": 3242,
      "Ġë¶Īíİ¸": 3243,
      "ëħĦìĹĲëĬĶ": 3244,
      "íĻĺê²½ìĹ°êµ¬": 3245,
      "ĠíķĦìļĶíķľê°ĢìļĶ": 3246,
      "Ġë²Īì§¸": 3247,
      "Ġë§ĪìĿĮ": 3248,
      "íķĻìłģ": 3249,
      "ĠìĿĺë¬´": 3250,
      "Ġíĳľìĭľ": 3251,
      "ìŀ¥ìľ¼ë¡ľ": 3252,
      "Ġë§ŀì¶¤íĺķ": 3253,
      "ëī´": 3254,
      "ìĻ¸êµŃ": 3255,
      "ĠìĦŃ": 3256,
      "Ġë³´ëĤ´": 3257,
      "ĠìłĦëĿ¼ëĤ¨ëıĦëĬĶ": 3258,
      "ĠìĹŃíķłìĿĢ": 3259,
      "ĠìķĬëıĦë¡Ŀ": 3260,
      "Ġê°ĻìĬµëĭĪëĭ¤": 3261,
      "Ġíĺĳìķ½": 3262,
      "ìŀĲì¹ĺëĭ¨ì²´": 3263,
      "ìĹĨ": 3264,
      "ëĮĢêµ¬ìĭľëĬĶ": 3265,
      "Ġê¸°ì¤Ģìľ¼ë¡ľ": 3266,
      "ĠìĿĺê²¬ìĿ´": 3267,
      "ĠìĤ¬ìľł": 3268,
      "Ġìłľê±°": 3269,
      "ĠìĦ¸ë¶Ģ": 3270,
      "ì¡°ë¡Ģ": 3271,
      "ì²ľë§Į": 3272,
      "Ġëĭ¤ë¥¼": 3273,
      "Ġìļ¸ìĤ°": 3274,
      "ëĵľë¥¼": 3275,
      "Ġë¬¼ë¡ł": 3276,
      "ì½ĺ": 3277,
      "Ġë³´ë©´": 3278,
      "ĠìłĢíĿ¬": 3279,
      "Ġì¸¡ìłķ": 3280,
      "ê°ĢìĬ¤": 3281,
      "ĠìĦłë°ľ": 3282,
      "ĠìķĪëĤ´": 3283,
      "Ġë¹Ħíķ´": 3284,
      "ë¦¬ìĿĺ": 3285,
      "ê²½ì°°": 3286,
      "Ġìĺ¤ìĹ¼": 3287,
      "ìłĦëĤ¨ëıĦëĬĶ": 3288,
      "ìľ¤": 3289,
      "ë³´ê³ł": 3290,
      "Ġìĭľê°ģ": 3291,
      "Ġë°©íĸ¥ìľ¼ë¡ľ": 3292,
      "íĶĦëĿ¼": 3293,
      "Ġì§ĢìĭĿ": 3294,
      "Ġê¸Ģë¡ľë²Į": 3295,
      "Ġìĭ¤íĺĦ": 3296,
      "ĠìĿ¸ê³µ": 3297,
      "ĠìĿ´ìľłê°Ģ": 3298,
      "ìŀĲëĵ¤ìĹĲê²Į": 3299,
      "ìĥģìĹĲ": 3300,
      "Ġë¬´ë£Į": 3301,
      "Ġë¶ĢìĹ¬": 3302,
      "ê´Ħ": 3303,
      "ĠíĮĶ": 3304,
      "ì§ĢëıĦ": 3305,
      "ar": 3306,
      "ìĦ¼": 3307,
      "ĠìłĳìĪĺ": 3308,
      "íĿ¡": 3309,
      "ìľĦìĽĲíļĮê°Ģ": 3310,
      "ĠìĦ¸ì¶ľ": 3311,
      "êµĲìľ¡ì²Ń": 3312,
      "íĺĪ": 3313,
      "ëĭĪìĬ¤": 3314,
      "êµ°ìĿĺ": 3315,
      "ëĲ¨": 3316,
      "ĠíĺĦìĭ¤": 3317,
      "ìĸ´ìĦľ": 3318,
      "ĠìĿĺíķĺìĹ¬": 3319,
      "Ġë³´ìķĪ": 3320,
      "ë¥´ëĬĶ": 3321,
      "ĠëĦ¤íĬ¸ìĽĮíģ¬": 3322,
      "Ġë§Įëĵ¤ê¸°": 3323,
      "Ġíķĺë©´": 3324,
      "ìłģìĿĦ": 3325,
      "åŃ": 3326,
      "Ġìłģíķ©": 3327,
      "ëª»": 3328,
      "´ë¥": 3329,
      "ĠíĻķìłķ": 3330,
      "ĠìĿ´ìĿĺ": 3331,
      "ĠìĬ¤íĬ¸ëłĪ": 3332,
      "Ġëª¨ì§ĳ": 3333,
      "ë²ķìĿĦ": 3334,
      "ĠíĦ°": 3335,
      "ĠëªħìĿĺ": 3336,
      "ìľłì¹ĺ": 3337,
      "Ġ198": 3338,
      "ê¾¸": 3339,
      "ê°ľìĦł": 3340,
      "Ġê´Ģê´ĳê°Ŀ": 3341,
      "ëĨįì´Į": 3342,
      "ë´ĩ": 3343,
      "ìĽ¨ìĸ´": 3344,
      "Ġì§ĢìĽĲíķĺëĬĶ": 3345,
      "Ġ31": 3346,
      "ĠìĻĦíĻĶ": 3347,
      "ĠëĮĢì²ĺ": 3348,
      "Ġíĩ´": 3349,
      "ìĬ¤íĥĢ": 3350,
      "ĠìŀĪëĭ¤ëĬĶ": 3351,
      "Ġëĭ¨ìĨį": 3352,
      "Ġë¶Ģì¡±íķľ": 3353,
      "ĠíĸīìĤ¬ë¥¼": 3354,
      "ë°ķëŀĮíļĮ": 3355,
      "Ġíıīê·ł": 3356,
      "ìĿ´ìĻĢ": 3357,
      "Ġêµ¬ì²´ìłģìĿ¸": 3358,
      "Ġë³ĢíĻĶë¥¼": 3359,
      "ĠìŀĦëĮĢ": 3360,
      "Ġìłķì±ħìĿĦ": 3361,
      "ĠìķĦëıĻ": 3362,
      "Ġë°°ì¶ľ": 3363,
      "Ġê´Ģë¦¬ë¥¼": 3364,
      "Ġê°Ĳëıħ": 3365,
      "ĠìĮĢ": 3366,
      "Ġë³´ìŀ¥": 3367,
      "Ġíĭ": 3368,
      "ĠíĬ¹ì§ķìĿĦ": 3369,
      "ê´": 3370,
      "ĠíĬ¹ë³ĦíļĮê³Ħ": 3371,
      "Ġê°ĸì¶Ķ": 3372,
      "ĠìĿ´ë²¤íĬ¸": 3373,
      "ìĺĪìĪł": 3374,
      "ë§Īëĭ¤": 3375,
      "ĠëıĻìĭľìĹĲ": 3376,
      "ìĥģê³µ": 3377,
      "Ġê³łëł¤íķ´ìķ¼": 3378,
      "ë¬¼ìĿ´": 3379,
      "ĠíĸīìľĦ": 3380,
      "ëıĦìĦľ": 3381,
      "ĠëĤĻ": 3382,
      "ìŀ¬ìĥĿ": 3383,
      "ìĽĲìľ¼ë¡ľ": 3384,
      "ĠìĤ¬ëŀĮìĿ´": 3385,
      "ĠìķĦë¦Ħëĭ¤": 3386,
      "199": 3387,
      "ĠëĮĢì²´": 3388,
      "ê±´ê°ķ": 3389,
      "ĠíļĮìĿĺë¡ĿìĹĲìĦľ": 3390,
      "ĠìĻ¸ë¶Ģ": 3391,
      "ë¹ĦëĬĶ": 3392,
      "íļĮìĹĲ": 3393,
      "ìķ¡ìĿ´": 3394,
      "ĠêµŃíĨł": 3395,
      "Ġëª©ìłģìĿĦ": 3396,
      "ëĭ¨ê³Ħ": 3397,
      "ĠìľĦìĽĲìĿ´": 3398,
      "ìĬ¤ë¡ľ": 3399,
      "Ġê°Ħëĭ´": 3400,
      "ĠíĬ¹ë³Ħíķľ": 3401,
      "ĠíĻķì¶©": 3402,
      "Ġìĺģìĸĳ": 3403,
      "ìļ°ìĪĺ": 3404,
      "ê³Ħìķ½": 3405,
      "ë°ĺê¸°": 3406,
      "ĠìĿ´ëģĮ": 3407,
      "ë¦¬ìłģ": 3408,
      "ëŁīìĿ´": 3409,
      "ĠìĥģìĬ¹": 3410,
      "Ġì£¼ê±°": 3411,
      "Ġì¦Ŀì§Ħ": 3412,
      "Ġê¹¨": 3413,
      "ĠâĨĴ": 3414,
      "ĠìľĦíĥģ": 3415,
      "Ġê³ĦíļįìĹĲ": 3416,
      "ĠìĦ¸ìļ°": 3417,
      "ìĿ¸ê³µ": 3418,
      "Ġìļ´ìĺģíķĺê³ł": 3419,
      "íĻĶìĻĢ": 3420,
      "ìĨĮê°Ģ": 3421,
      "ì±ħìĿĢ": 3422,
      "íĺĢ": 3423,
      "Ġê½ĥ": 3424,
      "Ġë¶Ģë¶ĦìĹĲ": 3425,
      "ĠëĨįìĤ°ë¬¼": 3426,
      "ê²½ëĤ¨ëıĦ": 3427,
      "Ġì¡´ì¤ĳ": 3428,
      "Ġë§Įì¡±": 3429,
      "ĠëĬĲëĤ": 3430,
      "ì¤įëĭĪëĭ¤": 3431,
      "Ġì§ĢìĽĲìĿ´": 3432,
      "Ġìłķê¸°": 3433,
      "Ġë¯¸ì¹ĺëĬĶ": 3434,
      "Ġëĥ": 3435,
      "ëĭ¤ê°Ģ": 3436,
      "ĠE": 3437,
      "ĠìĦłê±°": 3438,
      "ĠìĽĲì¹Ļ": 3439,
      "íķĺìĭł": 3440,
      "Ġê°Ģê³µ": 3441,
      "ê¸°ì¤Ģ": 3442,
      "Ġì°¨ìĿ´ê°Ģ": 3443,
      "Ġë¬¼ì§Ī": 3444,
      "Ġì½": 3445,
      "Ġë°Ķíĥķìľ¼ë¡ľ": 3446,
      "ĠìĤ¬ìļ©ëĲ©ëĭĪëĭ¤": 3447,
      "ì§Ħëĭ¤": 3448,
      "íĻľìļ©": 3449,
      "ìĤ¬ìĹħìĹĲ": 3450,
      "Ġë¶ĦìľĦ": 3451,
      "ĠíĻĪíİĺ": 3452,
      "ĠìŀĲë£Įë¥¼": 3453,
      "íĺľ": 3454,
      "ĠëĮĢì¤ĳ": 3455,
      "ĠìĦłíı¬": 3456,
      "ĠìŀĪì§Ģë§Į": 3457,
      "ìłĦìĿĺ": 3458,
      "ëĭ´ëĭ¹": 3459,
      "ĠìĿĺê²¬ìĿĢ": 3460,
      "ĠìķĮëł¤ì£¼ìĦ¸ìļĶ": 3461,
      "ë¹ĦìĹĲ": 3462,
      "Ġëĭ¤ë£¨ê³ł": 3463,
      "ĠëĮĢìĭł": 3464,
      "ìĺ¬íķ´": 3465,
      "Ġìłģê·¹ìłģìľ¼ë¡ľ": 3466,
      "Ġê¸°ìĹħìĿĺ": 3467,
      "ìĿ¸ê³¼": 3468,
      "Ġë³´ìĥģ": 3469,
      "Ġê²¨": 3470,
      "ì¶ķìĤ°": 3471,
      "Ġê°ľëħĲ": 3472,
      "ĠìĹĦ": 3473,
      "Ġì£¼ì°¨": 3474,
      "ĠìĹ¬ìĪĺ": 3475,
      "ìķĪìĿ´": 3476,
      "ìĨĮëĬĶ": 3477,
      "Ġë³´ì¡´": 3478,
      "ì²´ìĿĺ": 3479,
      "ŀĺ": 3480,
      "Ġì§ĢìĽĲíķĺê³ł": 3481,
      "ĠëķĮìĹĲëĬĶ": 3482,
      "ë¶Ħìķ¼": 3483,
      "26": 3484,
      "ķł": 3485,
      "Ġê¸°ìļ¸ìĿ´ê³ł": 3486,
      "ĠìĿ´ìĤ¬": 3487,
      "Ġê²ĮìŀĦ": 3488,
      "ìĭłê°ĢìļĶ": 3489,
      "Ġìĸ´ëķł": 3490,
      "Ġì¤ĢìĪĺ": 3491,
      "ëĵľìĭľ": 3492,
      "ê±´ì¶ķ": 3493,
      "Ġìħ": 3494,
      "íķĺìħ¨": 3495,
      "Ġê²½ìļ°ê°Ģ": 3496,
      "ëĮĢíĳľ": 3497,
      "ĠëĮĢêµ¬ìĭľ": 3498,
      "Ġíĳľì¤Ģ": 3499,
      "ĠëĤĺìĻĶ": 3500,
      "ĠìĿ´ë¥´": 3501,
      "ĠíĨłì§Ģ": 3502,
      "Ġê²°ìĤ°": 3503,
      "Ġì°¸ìĦĿíķľ": 3504,
      "ìłĦëĤ¨ëıĦê°Ģ": 3505,
      "Ġê¸´ê¸ī": 3506,
      "Ġê·¸ëŀĺ": 3507,
      "Ġê¾¸": 3508,
      "ĠëĮĢíķľë¯¼êµŃìĿĺ": 3509,
      "ĠìĿ´ìĬĪ": 3510,
      "æĿ": 3511,
      "ĠìĪ²": 3512,
      "Ġê°Ģì¹ĺë¥¼": 3513,
      "ëħĦëĮĢ": 3514,
      "ĠëĤĺíĥĢëĤ¬": 3515,
      "ìĿ´ìĹĪ": 3516,
      "ìĬ¨": 3517,
      "íķĺëł¤ê³ł": 3518,
      "ê°ĢìĿĺ": 3519,
      "Ġì²łìłĢ": 3520,
      "ĠìķĪìłĦíķľ": 3521,
      "ìĸ´ëĤľ": 3522,
      "ĠíĥĪ": 3523,
      "ĠìłľíĴĪìĿĦ": 3524,
      "ì±ħìĿĦ": 3525,
      "Ġê´Ģê³Ħë¥¼": 3526,
      "ĠìĹ´ë¦°": 3527,
      "łµ": 3528,
      "ĠìĨĮíĶĦíĬ¸": 3529,
      "Ġíķ©ëıĻ": 3530,
      "íĩ´": 3531,
      "íķĺëł¤ëĬĶ": 3532,
      "Ġê´ĢëŀĮ": 3533,
      "ë¦ī": 3534,
      "íĻľëıĻìĿĦ": 3535,
      "ì¹ĺê³ł": 3536,
      "Ġíķ´ìĦĿ": 3537,
      "êµŃìŀ¥ìĿ´": 3538,
      "Ġìľłíĺķ": 3539,
      "Ġëı¼": 3540,
      "ĠìĿĺìĤ¬ìĿ¼ìłķ": 3541,
      "ĠëıĦêµ¬": 3542,
      "Ġê²½ëĤ¨": 3543,
      "ë³ĳìĽĲ": 3544,
      "íĴĪìĿĦ": 3545,
      "ĠíĺĦì§Ģ": 3546,
      "Ġê³µê³µê¸°ê´Ģ": 3547,
      "Ġëª¨ëĭĪíĦ°ë§ģ": 3548,
      "Ġê·¹ë³µ": 3549,
      "ëħ¸ëıĻ": 3550,
      "ĠíĽĦìĹĲ": 3551,
      "ë³´ì¦Ŀ": 3552,
      "íĺĳìķ½": 3553,
      "Ġê°ľìĿĺ": 3554,
      "Ġë°ľìĿĺ": 3555,
      "ĠìĦŃì·¨": 3556,
      "ĠíĻľìļ©íķľ": 3557,
      "íĸĪëĬĶì§Ģ": 3558,
      "ĠëĮĢíĺķ": 3559,
      "Ġê¸į": 3560,
      "Ġíľ": 3561,
      "íķŃìĹĲ": 3562,
      "Ġì»´íĵ¨íĦ°": 3563,
      "Ġê³¡": 3564,
      "ĠëĬ¥ëł¥ìĿĦ": 3565,
      "60": 3566,
      "Ġì°½ìĿĺ": 3567,
      "Ġì¶Ķì§Ħíķł": 3568,
      "Ġì¶Ķê²½": 3569,
      "Ġìĥģíĺ¸ìŀĳìļ©": 3570,
      "28": 3571,
      "cm": 3572,
      "ìĭ¤ìĿĦ": 3573,
      "ìĿĺìĽĲ": 3574,
      "æĸ": 3575,
      "ì§Ĳ": 3576,
      "ëıĻë¬¼": 3577,
      "st": 3578,
      "ìŀĪëĬĶ": 3579,
      "Ġìĸ´ëĶĶìĹĲ": 3580,
      "ê²ĢìĤ¬": 3581,
      "ĠìĿ¸ìŀ¬": 3582,
      "ìķĦê°Ģ": 3583,
      "ìŀ¬ëĤľ": 3584,
      "ì£¼ìĭľ": 3585,
      "ë®¤": 3586,
      "ìĭ¬ìĿĺ": 3587,
      "Ġë³´ìĪĺ": 3588,
      "Ġì§Ģì¶ľ": 3589,
      "ĠìĸĳìĭĿ": 3590,
      "Ġìĺ¥": 3591,
      "Ġì§ĢìĹŃìĹĲìĦľ": 3592,
      "ĠìĺĪë¹Ħ": 3593,
      "ìĭľíĤ¤ê¸°": 3594,
      "ĠíĺĪ": 3595,
      "ëĭ¨ì§Ģ": 3596,
      "ìĿ´ëĤł": 3597,
      "ĠìĿ´íķ´íķĺê³ł": 3598,
      "ĠìĿĺë¯¸ë¥¼": 3599,
      "ë¿Ĳë§Į": 3600,
      "Ġêµ°ìĤ¬": 3601,
      "Ġë°Ķë¡ľ": 3602,
      "ë³¼": 3603,
      "ìŀ¬ìłķ": 3604,
      "27": 3605,
      "ĠìłĲìĿĦ": 3606,
      "ìłĦìĹĲ": 3607,
      "ĠíĨµìĭł": 3608,
      "ĠâĢ»": 3609,
      "Ġë¶Ħë¥ĺ": 3610,
      "Ġëıķ": 3611,
      "Ġë²ķëł¹": 3612,
      "Ġê²½ìļ°ëĬĶ": 3613,
      "Ġë°±ìĭł": 3614,
      "íĻĶìĹĲ": 3615,
      "ìĿ´ëĵľ": 3616,
      "íĸīìĤ¬": 3617,
      "ëłĮ": 3618,
      "Ġë³´ìĻĦ": 3619,
      "ĠìĦłìłķëĲľ": 3620,
      "Ġë¯¸ìĪł": 3621,
      "ĠìłĦìŁģ": 3622,
      "ĠëĮĢê¸°": 3623,
      "ìĹħë¬´": 3624,
      "Ġëĵ±ìĿĢ": 3625,
      "ìłĦíŀĪ": 3626,
      "Ġì¡°íķ©": 3627,
      "ĠíļĮìĿĺë¥¼": 3628,
      "íķĺê²łìĬµëĭĪëĭ¤": 3629,
      "Ġ60": 3630,
      "Ġëª»íķľ": 3631,
      "Ġì°¸ê³ł": 3632,
      "êµŃìŀ¥": 3633,
      "ìĿį": 3634,
      "Ġìī½ê²Į": 3635,
      "ê¸°ê°Ħ": 3636,
      "Ġë¶Ģì²ĺ": 3637,
      "ìķĮ": 3638,
      "ìĭľëĮĢ": 3639,
      "ĠìĪĺìĿµ": 3640,
      "Ġë¯¼ì£¼": 3641,
      "Ġëĭ´ê³ł": 3642,
      "Ġëĸł": 3643,
      "Ġëķħ": 3644,
      "Ġë¹Ī": 3645,
      "íĬ¸ë¥¼": 3646,
      "Ġë°©ë²ķìľ¼ë¡ľ": 3647,
      "Ġìĭ¤íĹĺ": 3648,
      "ĠíĻĶíķĻ": 3649,
      "Ġì¶ķìĤ°": 3650,
      "ĠêµŃë¹Ħ": 3651,
      "ĠìĥĿê°ģíķĺ": 3652,
      "ìĸ´ì´Į": 3653,
      "ì§Ģêµ¬": 3654,
      "ĠìĿ¼ìĿĦ": 3655,
      "áĨŀ": 3656,
      "ĠìĿ´ìĥģìĿĺ": 3657,
      "Ġëī´": 3658,
      "ëĲĺìĹĪëĤĺ": 3659,
      "êµ¬ì¡°": 3660,
      "ĠìĻ¸êµĲ": 3661,
      "ìŀĲëıĻ": 3662,
      "Ġë§Įíģ¼": 3663,
      "Ġì¡°ë¡ĢìķĪìĿĢ": 3664,
      "ì¦ĺ": 3665,
      "ĠìĿ´ìľłìĻĢ": 3666,
      "Ġ2018": 3667,
      "ĠìĦ±ëĬ¥": 3668,
      "ë¹ĦìĿĺ": 3669,
      "Ġìļ´ìĺģëĲĺê³ł": 3670,
      "Ġë°ĺëĵľìĭľ": 3671,
      "ë¶ĦìĿĦ": 3672,
      "40": 3673,
      "Ġê±°ì£¼": 3674,
      "ë¶": 3675,
      "Ġë³´ê´Ģ": 3676,
      "Ġìłķì°©": 3677,
      "Ġíıīê°Ģë¥¼": 3678,
      "íĤ¹": 3679,
      "ĠãĢĬ": 3680,
      "Ġì¶Ķìłķ": 3681,
      "ìĵ°": 3682,
      "ìĸ¼": 3683,
      "ìĸ´ë¦°ìĿ´": 3684,
      "Ġì§ĢìĨįìłģìĿ¸": 3685,
      "Ġíĺ¹": 3686,
      "ìĤ¬ìĹħìĿĺ": 3687,
      "Ġë²ĶìľĦ": 3688,
      "ĠíĿ¥": 3689,
      "Ġê´ĳìĹŃ": 3690,
      "ì¦ĿìĿĦ": 3691,
      "Ġì¢ħìĤ¬": 3692,
      "Ġìĺ·": 3693,
      "Ġ197": 3694,
      ")'": 3695,
      "ìĤ¬íķŃìĿĦ": 3696,
      "ĩĮ": 3697,
      "êµŃë¦½": 3698,
      "Ġìŀ¬ë£Į": 3699,
      "Ġì§Ħíĸīíķĺê³ł": 3700,
      "ê·ľì¹Ļ": 3701,
      "Ġìłķë¶ĢìĿĺ": 3702,
      "Ġëĵ±ìŀ¥": 3703,
      "Ġì§ģìĹħ": 3704,
      "ĠëĬ¥ëł¥": 3705,
      "Ġíı¬íķ¨íķľ": 3706,
      "ê±°ë¦¬": 3707,
      "Ġë¶Ģë¬¸": 3708,
      "Ġê²½ìłķ": 3709,
      "Ġë³ĢëıĻ": 3710,
      "Ġë¶ĢìĦľ": 3711,
      "Ġë¶Ļ": 3712,
      "ĠìĦłëıĦ": 3713,
      "ĠëªħíĻķ": 3714,
      "Ġë¬´ìĹĩìĿ´ìĹĪëĤĺ": 3715,
      "ĠìĿ¼ìĥģ": 3716,
      "ĠëħĦ": 3717,
      "ìĦ±ìĿĺ": 3718,
      "Ġì¶©ë¶ĦíŀĪ": 3719,
      "ì²ŃìĿĢ": 3720,
      "ê³µëıĻ": 3721,
      "Ġì·¨íķł": 3722,
      "íĺĳìĿĺíļĮ": 3723,
      "ê²½ê¸°ëıĦìĿĺ": 3724,
      "ìķ½íĴĪ": 3725,
      "Ġë¨¼ìłĢ": 3726,
      "ì¡ĮëĤĺìļĶ": 3727,
      "Ġìķ¡": 3728,
      "ì¿ł": 3729,
      "Ġì¶ľìĹ°": 3730,
      "ë¡ľë¥¼": 3731,
      "Ġìĺ¤ìłĦ": 3732,
      "ĩê²Į": 3733,
      "ĠìŀĲìľ¨": 3734,
      "ëħ¹": 3735,
      "ĠìĿ´ë£¨ìĸ´ì¡ĮëĤĺìļĶ": 3736,
      "ìĭľìĬ¤íħľ": 3737,
      "ëĵ±ë¡Ŀ": 3738,
      "ĠìŀĲëĬĶ": 3739,
      "it": 3740,
      "ĠìŀĳìĹħìĿĦ": 3741,
      "ĠìĥģìĦ¸": 3742,
      "ì²Ńìŀ¥": 3743,
      "ĠíĻľìļ©íķł": 3744,
      "Ġíķľíİ¸": 3745,
      "29": 3746,
      "Ġíķ´ìĦľ": 3747,
      "ìłķìĿ´": 3748,
      "Ġë°ľíĸī": 3749,
      "Ġëĭ¨ì§Ģ": 3750,
      "Ġëªħì¹Ń": 3751,
      "ĠíĿĲ": 3752,
      "ĠíĻĺê²½ìĿĦ": 3753,
      "íĥĳ": 3754,
      "ĠìĻ¸êµŃìĿ¸": 3755,
      "ì²´ëĵ¤": 3756,
      "ìĦ¸ë¥¼": 3757,
      "íĤ¤ë¡ľ": 3758,
      "Ġìľłê¸°": 3759,
      "Ġê°ķíĻĶë¥¼": 3760,
      "ĠìĿ¸íĶĦëĿ¼": 3761,
      "ĠíĽĦë³´": 3762,
      "Ġì·¨ëĵĿ": 3763,
      "ĠìĿ´ë¡ł": 3764,
      "ĠìĿµ": 3765,
      "Ġìĺģìĥģ": 3766,
      "Ġì¶Ķì§ĦíķĺëĬĶ": 3767,
      "ĠíļĮìĽĲ": 3768,
      "íĨłë¡Ŀ": 3769,
      "ë¬¼ìĿĢ": 3770,
      "¤ì²ĺ": 3771,
      "åĲ": 3772,
      "Ġë¶Īêµ¬íķĺê³ł": 3773,
      "íķ¨ìĿĦ": 3774,
      "ĠìĿ´ë¡ľ": 3775,
      "ĠíĻķì§Ħ": 3776,
      "ëª°": 3777,
      "Ġê°Īëĵ±": 3778,
      "ĠìĽĲíķĺëĬĶ": 3779,
      "Ġì¶ľìĭł": 3780,
      "Ġìļ°ì£¼": 3781,
      "ĠìŀĲê¸Ī": 3782,
      "Ġì¡¸": 3783,
      "Ġì¤įëĭĪëĭ¤": 3784,
      "ë´Ħ": 3785,
      "åľ": 3786,
      "Ġíķĺê²Į": 3787,
      "Ġê²°ê³¼ìĹĲ": 3788,
      "ĠìľĦíķ´ìĦľ": 3789,
      "Ġìľłì§ĢíķĺëĬĶ": 3790,
      "Ġìŀ¥ê´ĢìĿĢ": 3791,
      "ĠíĻķìŀ¥": 3792,
      "Ġìłĳì¢ħ": 3793,
      "CT": 3794,
      "ëªħìľ¼ë¡ľ": 3795,
      "ì§ľ": 3796,
      "Ġë¬´ìĹŃ": 3797,
      "ëĲĲ": 3798,
      "ìľĦìĽĲíļĮëĬĶ": 3799,
      "Ġìĵ°ëłĪ": 3800,
      "ë©´ìĹĲ": 3801,
      "ìħľ": 3802,
      "ëŀĢëĭ¤": 3803,
      "Ġíļ¨ìľ¨ìłģìľ¼ë¡ľ": 3804,
      "ëŁ¬ìļ´": 3805,
      "Ġìłģê·¹ìłģìĿ¸": 3806,
      "ĠìĽĲíĻľ": 3807,
      "Ġë§ŀìķĦ": 3808,
      "Ġì£¼ê³ł": 3809,
      "ĠìĹŃëŁī": 3810,
      "ëĵ¤ê³¼ìĿĺ": 3811,
      "Ġê²½ê³¼": 3812,
      "ĠìĿ´ëĤ´": 3813,
      "ĠëĨĴìķĦ": 3814,
      "ĠëĳĲê³ł": 3815,
      "ë¬´ë¦¬": 3816,
      "ĠìľĦì¹ĺíķľ": 3817,
      "ĠëĤ¨ìķĦ": 3818,
      "ëĶ©": 3819,
      "ëĲĺë©´ìĦľ": 3820,
      "Ġì´Īê¸°": 3821,
      "ĠìĿ½": 3822,
      "Ġë¹Ħìĥģ": 3823,
      "Ġê´ĳê³ł": 3824,
      "ìŀ¬ëĭ¨": 3825,
      "Ġê³µìĭĿ": 3826,
      "ĠíķĦìļĶíķľê°Ģ": 3827,
      "ì¢ħíķ©": 3828,
      "ĠëĬĶ": 3829,
      "íĭĢ": 3830,
      "Ġì²Ńêµ¬": 3831,
      "íĨ¤": 3832,
      "ĠìĿ¼ë¶Ģë¥¼": 3833,
      "Ġë§Įëĵł": 3834,
      "ìľ¼ëĭĪ": 3835,
      "Ġëª¨ìĥī": 3836,
      "ĠëıĻìĿ¼": 3837,
      "ë¬¼ì§Ī": 3838,
      "ë¥ĺë¥¼": 3839,
      "Ġëª©íı¬": 3840,
      "êµŃíĨł": 3841,
      "Ġë°ľìĥĿíķĺê³ł": 3842,
      "ic": 3843,
      "ĠìĿ¼ìĿ´": 3844,
      "Ġìłľê³ł": 3845,
      "ìĦ¼íĦ°ìĿĺ": 3846,
      "ĠíĺĳìĿĺíļĮ": 3847,
      "ĠìĿ¸ê°Ħ": 3848,
      "Ġê°ľíİ¸": 3849,
      "ĠëĦĵ": 3850,
      "ìĽł": 3851,
      "Ġíĺķíĥľë¡ľ": 3852,
      "ĠíĶĦëŀĳ": 3853,
      "Ġëĵľë¦¬": 3854,
      "Ġì°¸ìĹ¬íķĺëĬĶ": 3855,
      "ĠëĤ´ìĹĲìĦľ": 3856,
      "Ġ2015": 3857,
      "ê³µíķŃ": 3858,
      "Ġìĸ´ëĶĶìĦľ": 3859,
      "ĠêµĲìĪĺ": 3860,
      "Ġìµľìłģ": 3861,
      "ìķĦìļ¸ëŁ¬": 3862,
      "Ġë¯¼ìĽĲ": 3863,
      "ĠìŀĦëªħ": 3864,
      "Ġìĭľìłķ": 3865,
      "Ġê³µë¬´": 3866,
      "ĠëŁ¬": 3867,
      "Ġê¿Ī": 3868,
      "Ġíİ¸ìĿĺ": 3869,
      "Ġìºłíİĺ": 3870,
      "ìĥģê³¼": 3871,
      "Ġê²¸": 3872,
      "ì²ŃìĨĮëħĦ": 3873,
      "ĠìĪĺì§Ī": 3874,
      "ĠëĪĦê°Ģ": 3875,
      "Ġëª°": 3876,
      "íĸīìľĦ": 3877,
      "Ġë³´ëıĦ": 3878,
      "ĠíĽ": 3879,
      "Ġê·¸ë£¹": 3880,
      "ĠëĤ´ìĹĲ": 3881,
      "ìĿ¸ìĹĲ": 3882,
      "ìłľìĻĢ": 3883,
      "Ġìŀ¥ìķł": 3884,
      "ëĶĶìĺ¤": 3885,
      "ĠíĬ¹ìĪĺ": 3886,
      "íĸĪëĬĶëį°": 3887,
      "ion": 3888,
      "íĮĮíĬ¸": 3889,
      "íŀĮ": 3890,
      "ĠìŀĪìĹĪëĬĶëį°": 3891,
      "íķľëĭ¤ëĬĶ": 3892,
      "Ľ°": 3893,
      "ìŀĲë£Į": 3894,
      "ĠíĨµê³Ħ": 3895,
      "Ġíķĺê¸°": 3896,
      "ĠìĪĺìļ©": 3897,
      "ìĦ¤íĮħ": 3898,
      "ìĿĺìĤ¬": 3899,
      "íķµ": 3900,
      "ĠëĮĢíĻĶ": 3901,
      "Ġë°Ľìķĺëĭ¤": 3902,
      "ìĭ¤ìĹĲìĦľ": 3903,
      "ĠìķĪê±´": 3904,
      "ĠìķĦì§ģ": 3905,
      "ĠëĦ£": 3906,
      "ë²ķìĹĲìĦľ": 3907,
      "Ġìĭ¤ìĭľíķĺê³ł": 3908,
      "ĠíĴĢ": 3909,
      "ĠëŃ": 3910,
      "Ġëĭ¬ëĿ¼": 3911,
      "´ë²": 3912,
      "Ġ2016": 3913,
      "ì¡°ëĬĶ": 3914,
      "íķĺìĭ¤": 3915,
      "ĠëıĪ": 3916,
      "ë®¤ëĭĪ": 3917,
      "ĠíĥĿ": 3918,
      "ì§ĢìĤ¬ëĬĶ": 3919,
      "Ġê¸Īì§Ģ": 3920,
      "ĠìĹ´ë¦¬": 3921,
      "le": 3922,
      "ëĵ¤ëıĦ": 3923,
      "ĠìłĦëŀµìĿĦ": 3924,
      "ì§ĢëĬ¥": 3925,
      "ĠìĿ´ëłĩê²Į": 3926,
      "å¯": 3927,
      "ĠìĪĺê°Ģ": 3928,
      "íĺ¸ë¥¼": 3929,
      "ë²ĦìĬ¤": 3930,
      "Ġìŀĺëª»": 3931,
      "Ġë£": 3932,
      "Ġë°ĺëĮĢ": 3933,
      "Ġëĭ¹ë¶ĢíĸĪëĭ¤": 3934,
      "íļĮìĤ¬": 3935,
      "ê¸°êµ¬": 3936,
      "Ġì£¼ìĸ´": 3937,
      "ĠìľłìĤ¬": 3938,
      "ìļ¸ìĤ°": 3939,
      "Ġë¶Ħìķ¼ìĿĺ": 3940,
      "ĠìĽĢ": 3941,
      "ĠíļĮìĿĺìĹĲìĦľ": 3942,
      "ĠìĺĪë°©ìĿĦ": 3943,
      "íķ´ë³´": 3944,
      "Ġì§Ħëĭ¨": 3945,
      "ìłĲìĹĲ": 3946,
      "ĠìłĪê°Ĳ": 3947,
      "Ġê°ľìĦ¤": 3948,
      "ëĬĶëĭ¤": 3949,
      "ĠíķĦìļĶíķĺëĭ¤ê³ł": 3950,
      "Ġë¯¸ëĶĶìĸ´": 3951,
      "ĠáĦ": 3952,
      "ìĿ´ìĹĪëĭ¤": 3953,
      "çĶ": 3954,
      "Ġìĭ¤ì§Ī": 3955,
      "ìĽ¨": 3956,
      "Ġë¬¸íĻĶìŀ¬": 3957,
      "Ġê³¼ê±°": 3958,
      "ë°©ìĨ¡": 3959,
      "ĠìķĬìķĦ": 3960,
      "Ġì°¨ìĿ´ëĬĶ": 3961,
      ").": 3962,
      "ĠìĿ¸ëıĦ": 3963,
      "Ġë°ĶëŀĢëĭ¤": 3964,
      "ĠëĤĺíĥĢëĤĺ": 3965,
      "ĠìĮĵ": 3966,
      "íķĻê³¼": 3967,
      "ë²¨": 3968,
      "ĠìĭľìĦ¤ìĿĦ": 3969,
      "ì¼°": 3970,
      "Ġ2020": 3971,
      "íĶĦë¦¬": 3972,
      "êµŃìĿĢ": 3973,
      "ì¤ĳìķĻ": 3974,
      "ĠìŀĲì£¼": 3975,
      "Ġë°©ì¹¨ìĿ´ëĭ¤": 3976,
      "Ġë³´ìĿ¸ëĭ¤": 3977,
      "Ġ2017": 3978,
      "ê¶ĮìĿĺ": 3979,
      "ìĦ¬": 3980,
      "ë§¥": 3981,
      "ĠìĹ¬ë¦Ħ": 3982,
      "íķĺê¸°ëıĦ": 3983,
      "ëĮĢìłĦìĭľ": 3984,
      "ĠëĤ®ìĿĢ": 3985,
      "Ġìĸ´ëłµ": 3986,
      "éģ": 3987,
      "ĠíķĺëĭĪ": 3988,
      "áħ": 3989,
      "Ġìļ°ë¦¬ê°Ģ": 3990,
      "ìłķìĿĺ": 3991,
      "ĠìłĲìĿĢ": 3992,
      "Ġì°¬": 3993,
      "Ġê¶ģê¸Ī": 3994,
      "ĠìķĮëł¤ìł¸": 3995,
      "Ġìĩ¼": 3996,
      "ë²ķìĿ´": 3997,
      "ĠìĬ¬": 3998,
      "Ġë¶Ģë¶ĦìĿĦ": 3999,
      "ëĨįìĹħê¸°ìĪł": 4000,
      "ĠìłĦë°ĺ": 4001,
      "ìłķê³¼": 4002,
      "ìłĦê±°": 4003,
      "ë¹ĦìĻĢ": 4004,
      "ìĨĮìĹĲ": 4005,
      "ĠìĪĺìĤ°": 4006,
      "ê±¸": 4007,
      "ha": 4008,
      "ĠìĿ´ìķ¼ê¸°ë¥¼": 4009,
      "ì£ł": 4010,
      "ìĭĿìĿ´": 4011,
      "ĠìĽĲê³ł": 4012,
      "ĠìĥĿê°ģíķĺìĭŃëĭĪê¹Į": 4013,
      "Ġëª¨ìĸĳ": 4014,
      "Ġíķľëĭ¤ëĬĶ": 4015,
      "ëĳĺ": 4016,
      "ê³µê°Ħ": 4017,
      "Ġê±¸ì³Ĳ": 4018,
      "íķ´ëıĦ": 4019,
      "ĠìĿ´ìĿµ": 4020,
      "è¨": 4021,
      "ê³µê³µ": 4022,
      "ĠíĨµê³¼": 4023,
      "ìĤ¬ë¡Ģ": 4024,
      "ìĺ¤ìĹ¼": 4025,
      "ĠìĹ°ìŀ¥": 4026,
      "Ġíļ¨ê³¼ìłģìľ¼ë¡ľ": 4027,
      "ê³Ħì¸µ": 4028,
      "ĠêµŃë°©": 4029,
      "ê¸°ê´ĢìĿĺ": 4030,
      "Ġì±ĦíĥĿ": 4031,
      "ìĿ¼ë°ĺìłģìľ¼ë¡ľ": 4032,
      "ĠíĹĪê°Ģ": 4033,
      "ĠíĴįë¶Ģ": 4034,
      "Ġë¶ģíķľ": 4035,
      "ĠìĻĶ": 4036,
      "Ġì°¨ëĭ¨": 4037,
      "ìĺĪë°©": 4038,
      "ìĿ¼ìĿĺ": 4039,
      "Ġê°ĳ": 4040,
      "ĠëĮĢì¶ľ": 4041,
      "ĠìĦłíĺ¸": 4042,
      "Ġê·¸ëıĻìķĪ": 4043,
      "ĠìĺģìĹħ": 4044,
      "ĠëĤĺë¬´": 4045,
      "ëħ¼": 4046,
      "ë¯¸ëŀĺ": 4047,
      "Ġì¢ĭìķĦ": 4048,
      "Ġíĥľìĸĳ": 4049,
      "ë¥´ê³ł": 4050,
      "ĠìĬ¤íı¬ì¸ł": 4051,
      "ĠìĿ´ëĤł": 4052,
      "Ġìļ´ìĺģíķĺëĬĶ": 4053,
      "Ġê³µíı¬": 4054,
      "ì»¨": 4055,
      "ĠìŀĲê°Ģ": 4056,
      "ëĿ¼ìĿ´": 4057,
      "ĠìĿ¼ìľ¼": 4058,
      "ì¡°ì¹ĺ": 4059,
      "ĠìĤ¬ìĿ´ìĹĲ": 4060,
      "ĠìłķíĻķíķľ": 4061,
      "Ġë³¸ë¶Ģ": 4062,
      "ìľłìĤ°": 4063,
      "ëĨįê°Ģ": 4064,
      "Ġì¡°ë¡ĢìķĪìĹĲ": 4065,
      "ìĻĶëĭ¤": 4066,
      "ìĬ¤ê°Ģ": 4067,
      "Ġë²Ķì£Ħ": 4068,
      "ĠìľłëŁ½": 4069,
      "ê³µìĤ¬ìĿĺ": 4070,
      "Ġìļ´íĸī": 4071,
      "Ġ2019": 4072,
      "Ġê³µì§ģ": 4073,
      "´ëĿ¼": 4074,
      "ĠíĶ¼íķ´ë¥¼": 4075,
      "ìĸ´ë³": 4076,
      "ĠíķľêµŃìĿĺ": 4077,
      "Ġë¶Ħë¦¬": 4078,
      "ìĥģëĭ´": 4079,
      "å°": 4080,
      "ìĿ´ë¡ľ": 4081,
      "ĠìĹĶ": 4082,
      "ìĿ´ìĤ¬": 4083,
      "íķĺëįĺ": 4084,
      "íĮĮíģ¬": 4085,
      "ĠìŀĳíĴĪìĿĦ": 4086,
      "·°": 4087,
      "éĩ": 4088,
      "Ġëħ¹ìĥī": 4089,
      "Ġê±°ìĿĺ": 4090,
      "ĠëĦĲ": 4091,
      "ìĿ¼ê°Ħ": 4092,
      "ê·¸ëŀĺìĦľ": 4093,
      "Ġëªħëł¹": 4094,
      "Ġìŀħì£¼": 4095,
      "ìĿ´ê°Ģ": 4096,
      "ìĤ¬ìĿ´íĬ¸": 4097,
      ".(": 4098,
      "ë²ķìĿĺ": 4099,
      "Ġê·¸ëĬĶ": 4100,
      "ĠëĶ°ëĿ¼ìĦľ": 4101,
      "ìĿ¸ëł¥": 4102,
      "Ġì´Īì²Ń": 4103,
      "ëĵ¤ë¡ľ": 4104,
      "ĠíĸīìłķìĤ¬ë¬´ê°ĲìĤ¬": 4105,
      "ì»¬": 4106,
      "íķ¨ìĹĲ": 4107,
      "ìĿ´ìĿĺ": 4108,
      "Ġë°ľëĭ¬": 4109,
      "ëĮĢíķľë¯¼": 4110,
      "Ġì¶©ë¶Ħíķľ": 4111,
      "ê°Ļ": 4112,
      "ĠìĥĿëªħ": 4113,
      "Ġê³Ħìĥģ": 4114,
      "ìłĦëĿ¼ëĤ¨ëıĦëĬĶ": 4115,
      "å·": 4116,
      "ì¢ħìĿĺ": 4117,
      "Ġìĸ´ìĹħ": 4118,
      "ìĹ°ìĪĺ": 4119,
      "ì¶Ķì§Ħ": 4120,
      "Ġëħ¸ëŀĺ": 4121,
      "Ġê°Ģê¹Į": 4122,
      "ê½ĥ": 4123,
      "ì¡°ì§ģ": 4124,
      "ĠìĽĲìĿ´": 4125,
      "Ġì¤ĳìłĲ": 4126,
      "ìĥĿë¬¼": 4127,
      "ĠN": 4128,
      "ê°ĳ": 4129,
      "ĠìľĦìĹĲ": 4130,
      "íķĺìŀĲ": 4131,
      "ìĿ¼ë³¸": 4132,
      "Ġë°Ķëĭ¤": 4133,
      "Ġìŀĳìļ©": 4134,
      "ëĲĺìĹĪìĬµëĭĪëĭ¤": 4135,
      "Ġê¸°ëĮĢëĲľëĭ¤": 4136,
      "ìĽĥ": 4137,
      "ĠíĴĪëª©": 4138,
      "ĠU": 4139,
      "ìĦ¸ì¶ľ": 4140,
      "ìĭľë¥¼": 4141,
      "Ġì·¨íķ´": 4142,
      "ĠìĨĮë¹ĦìŀĲ": 4143,
      "ìĦ¸ëĮĢ": 4144,
      "Ġê°ķíĻĶíķĺê³ł": 4145,
      "ìĬ¤ì½Ķ": 4146,
      "Ġëª©íĳľë¡ľ": 4147,
      "Ġë³´ëĭ¤": 4148,
      "ĠëĽ°": 4149,
      "ìĥģíĻ©": 4150,
      "ìĪį": 4151,
      "ĠíĻķìĿ¸íķĺê³ł": 4152,
      "Ġíİ¸ìķĪ": 4153,
      "Ġìłķìĥģ": 4154,
      "198": 4155,
      "Ġìµľì´Īë¡ľ": 4156,
      "Ġì¶Ķì§ĦëĲĺê³ł": 4157,
      "ìĿ¸ëĵ¤ìĿ´": 4158,
      "ìĸ´ëĵ¤": 4159,
      "Ġê³ĦíļįìĿ¸ê°ĢìļĶ": 4160,
      "Ġìļ´ìĺģìĿĦ": 4161,
      "Ġë¬´ìĹĩìĿ¼": 4162,
      "ìĦłìĿĺ": 4163,
      "Ġë§ĲìĶĢìĿĦ": 4164,
      "Ġ70": 4165,
      "Ġìĭľíĸīíķľëĭ¤": 4166,
      "êµĲìľ¡ìĿĦ": 4167,
      "Ġë¹ĦíĮĲ": 4168,
      "Ġì£¼ìĭĿ": 4169,
      "ĠíķĺëĬĶì§Ģ": 4170,
      "Ġì°¨ë³Ħ": 4171,
      "åĪ": 4172,
      "ìĿ¼ìĿĢ": 4173,
      "re": 4174,
      "ĠëĤ´ê°Ģ": 4175,
      "ĠíĻľëıĻìĹĲ": 4176,
      "Ġê°ľë°©": 4177,
      "ìĭ¬ìĿĦ": 4178,
      "Ġê³ĦìĤ°": 4179,
      "ĠìĥĿìĦ±": 4180,
      "Ġì·¨ìĨĮ": 4181,
      "ëįĶëĿ¼ëıĦ": 4182,
      "Ġì§ĢëĤĺ": 4183,
      "Ġìĸ´ëĶĶìĹĲìĦľ": 4184,
      "Ġì¡°ì¹ĺëĬĶ": 4185,
      "Ġë¶Ģíĥģ": 4186,
      "Ġì§Ģë°©ìŀĲì¹ĺëĭ¨ì²´": 4187,
      "Ġì§ĢìĽĲíķł": 4188,
      "Ġìĭľì²Ń": 4189,
      "Ġë¶Ģëª¨": 4190,
      "ìĦ¯": 4191,
      "Ġê¸°ì¤ĢìĿĢ": 4192,
      "ë°ĽìĿĢ": 4193,
      "ìŀĲê¸°": 4194,
      "Ġì¹ľêµ¬": 4195,
      "Ġëĵ±ìĹĲìĦľ": 4196,
      "å¾": 4197,
      "ëĲĺê¸°": 4198,
      "ìľĦìĥĿ": 4199,
      "ìŀĲìľł": 4200,
      "Ġì¡¸ìĹħ": 4201,
      "ë¶Ģëª¨": 4202,
      "Ġë¯¼ì¡±": 4203,
      "ĠìĤ´íİ": 4204,
      "ìĭłìĿĺ": 4205,
      "ìĹ¬íĸī": 4206,
      "ĠìĤ¬íļĮë³µì§Ģ": 4207,
      "Ġê³łë¯¼": 4208,
      "Ġì§ķìĪĺ": 4209,
      "ĠìľĦìĥĿ": 4210,
      "ĠìĿ´ë£¨ìĸ´ì§ĢëĤĺìļĶ": 4211,
      "ìŀĶ": 4212,
      "Ġê´Ģëł¨íķ´ìĦľ": 4213,
      "ĠëĪĦë¦¬": 4214,
      "ĠìĽĢì§ģ": 4215,
      "ê³µìĤ¬ê°Ģ": 4216,
      "Ġê³¼ìłķìĿĢ": 4217,
      "Ġë¶Īê°Ģ": 4218,
      "ĠìķĦë¦Ħëĭ¤ìļ´": 4219,
      "Ġë¶Ģìłķ": 4220,
      "Ġì²ĺë²Į": 4221,
      "ĠìĽĲìķĪ": 4222,
      "ĠíĿ¡": 4223,
      "ĠìĭĿë¬¼": 4224,
      "ĠíĨµìĿ¼": 4225,
      "Ġê²Ģìĥī": 4226,
      "Ġë¶Ħìķ¼ìĹĲ": 4227,
      "ëĲĺìĹĪëĬĶì§Ģ": 4228,
      "ĠìĦ±ê²©": 4229,
      "Ġìĸ¸ë¡ł": 4230,
      "Ġê·¸ë¦¼": 4231,
      "Ġë¡ľë´ĩ": 4232,
      ".)": 4233,
      "ê´Ģê³¼": 4234,
      "ìļ©ìĹŃ": 4235,
      "Ġëħ¸ëł¥íķĺê³ł": 4236,
      "åį": 4237,
      "íĮĶ": 4238,
      "ĠíıĲê¸°": 4239,
      "ìŀĲëıĻì°¨": 4240,
      "ĠìĤ¬ìĿ´ìĿĺ": 4241,
      "ĠìĿĳê¸ī": 4242,
      "ìĿ´íķĺ": 4243,
      "ê³łìŀĲ": 4244,
      "ìĽĲìŀ¥": 4245,
      "ĠìĤ¬ìĹħìľ¼ë¡ľ": 4246,
      "ì¹¸": 4247,
      "Ġë§Ŀ": 4248,
      "Ġëħ¼ìĿĺëĲľ": 4249,
      "ĠìĬ¹ìĿ¸": 4250,
      "ĠëıĦëª¨": 4251,
      "ìĽĶê¹Įì§Ģ": 4252,
      "íĶĦë¡ľ": 4253,
      "ĠìĿ´ë£¨ìĸ´ìł¸": 4254,
      "íĬľ": 4255,
      "Ġë¹Ľ": 4256,
      "ĠíĺĦíĻ©ìĿĢ": 4257,
      "Ġê²¨ìļ¸": 4258,
      "Ġì°¸ìĹ¬íķľ": 4259,
      "Ġê·¸ëŁ¬ëĤĺ": 4260,
      "ê³ĦìĿĺ": 4261,
      "Ġëĸ¨ìĸ´": 4262,
      "ëĭĿ": 4263,
      "Ġë°©ë²ķìŀħëĭĪëĭ¤": 4264,
      "Ġë¯¿": 4265,
      "Ġë³´ê±´ë³µì§Ģ": 4266,
      "Ġê°ľìĦłíķĺê¸°": 4267,
      "Ġê°Ģì¶ķ": 4268,
      "Ġê°ľë³Ħ": 4269,
      "Ġìľłëªħíķľ": 4270,
      "ĠìŀĲìĦ¸íķľ": 4271,
      "ĠíıĲì§Ģ": 4272,
      "Ġìĭ¤íĥľ": 4273,
      "ìĭľìĻĢ": 4274,
      "Ġë¶Ģì¹Ļ": 4275,
      "Ġê´Ģëł¨íķľ": 4276,
      "ĠíĨ": 4277,
      "Ġìļ°ìĪĺíķľ": 4278,
      "íĸīìłķìĤ¬ë¬´": 4279,
      "íħĮíģ¬": 4280,
      "ìĿ¸ìľ¼ë¡ľ": 4281,
      "ëĭ¤ìĸĳ": 4282,
      "Ġê°Ĳìķ¡": 4283,
      "ìłķìĿĢ": 4284,
      "ê²½ìĺģ": 4285,
      "ĠìłľëĮĢë¡ľ": 4286,
      "ĠâĿį": 4287,
      "Ġê±°ë¦¬": 4288,
      "Ġì¤ĳëĭ¨": 4289,
      "ëł¬": 4290,
      "Ġë§¤ì¶ľ": 4291,
      "ĠìĨĮíĶĦíĬ¸ìĽ¨ìĸ´": 4292,
      "ĠìĹ°íķ©": 4293,
      "ëıĦë¯¼": 4294,
      "ë¬¸ìĿ´": 4295,
      "ì§Ģê¸Ī": 4296,
      "ìĸ´ìķ¼": 4297,
      "Ġì¡°ê¸°": 4298,
      "ì§ĳëĭĪëĭ¤": 4299,
      "Ġë°ľìłĦìĹĲ": 4300,
      "ĠìŀĲìĽĲë´īìĤ¬": 4301,
      "Ġíķľë²Ī": 4302,
      "Ġ196": 4303,
      "ìŀ¬íķ´": 4304,
      "ĠêµĲì²´": 4305,
      "ë²ķìĿĢ": 4306,
      "ĠìĨĮìļĶ": 4307,
      "Ġ2012": 4308,
      "ìłģìĿĢ": 4309,
      "ĠìĤŃìłľ": 4310,
      "ĠO": 4311,
      "ĠíıīíĻĶ": 4312,
      "ĠAI": 4313,
      "ìļ°ìĬ¤": 4314,
      "Ġì»¤ë®¤ëĭĪ": 4315,
      "ë³´ì¡°": 4316,
      "Ġë§Īë¬´ë¦¬": 4317,
      "ĠëĮĢíĳľìłģìĿ¸": 4318,
      "Ġì»¨ìĦ¤íĮħ": 4319,
      "ëĮĢê°Ģ": 4320,
      "ìłĦê¸°": 4321,
      "ĠìķĪìłĦìĿĦ": 4322,
      "Ġì¶Ķê°ĢìłģìĿ¸": 4323,
      "ä»": 4324,
      "ĠëĮĢì±ħìĿ´": 4325,
      "ë¥łìĿ´": 4326,
      "íıŃëł¥": 4327,
      "ëĮĢìĥģ": 4328,
      "ëĲĺëĬĶì§Ģ": 4329,
      "Ġê³µê²©": 4330,
      "ĠëĨĴìĿ´ê¸°": 4331,
      "ìĤ¬ìļ©": 4332,
      "ê³¼ëĬĶ": 4333,
      "Ġ/": 4334,
      "´ëª": 4335,
      "Ġíķ©ìĿĺ": 4336,
      "Ġì¡°ê¸Ī": 4337,
      "ë¬´ë¶Ģ": 4338,
      "Ġê¸°ìĹ¬íķł": 4339,
      "Ġê·¸ëłĩê²Į": 4340,
      "Ġ[": 4341,
      "ĠëĲĺë©°": 4342,
      "ëĵľë¦½ëĭĪëĭ¤": 4343,
      "ĠìĪĺê¸ī": 4344,
      "Ġê°ķëł¥": 4345,
      "ê¸īìĭĿ": 4346,
      "ĠíĬ¹ì§ķìĿĢ": 4347,
      "Ġìļ°ë¦¬ìĿĺ": 4348,
      "ì¦ĪëĭĪìĬ¤": 4349,
      "ì½ľ": 4350,
      "ìĭ¬ìĤ¬": 4351,
      "ì²ŃëħĦ": 4352,
      "ĠìķĬìķĺëĭ¤": 4353,
      "Ġìłľê°Ģ": 4354,
      "íĸ¥ìĿĦ": 4355,
      "Ġìĸ´ë¥": 4356,
      "Ġê²°ìłķìĿĦ": 4357,
      "ì§Ģë§īìľ¼ë¡ľ": 4358,
      "ë¬´ë³´": 4359,
      "ĠíĹ¤": 4360,
      "Ġë°©ìķĪìĹĲ": 4361,
      "ĠìĿ´ìļ©íķĺìĹ¬": 4362,
      "ĠíĮĮê²¬": 4363,
      "ĠW": 4364,
      "Ġìĺ®": 4365,
      "Ġìłķë¦¬": 4366,
      "ê¸ĪìĹĲ": 4367,
      "ĠíĻĺìŀĲ": 4368,
      "ĠíĶĦë¡ľê·¸ëŀ¨ìĿĢ": 4369,
      "Ġê¸įìłķìłģìĿ¸": 4370,
      "ìĤ¬ëŀĳ": 4371,
      "Ġê²½ìłľìłģ": 4372,
      "Ġë³´ìĿ´": 4373,
      "ĠìĽĮíģ¬": 4374,
      "ìłľì£¼íĬ¹ë³ĦìŀĲì¹ĺ": 4375,
      "ìĦ¸ë¨¼": 4376,
      "ìĭ¤ìĿĺ": 4377,
      "Ġë³´ìłĦ": 4378,
      "Ġê³µê°Ĳ": 4379,
      "Ġìĸµ": 4380,
      "ê¸°ê¸°": 4381,
      "ê²½ìĿĦ": 4382,
      "ĠìĤ°ë¶Ī": 4383,
      "ê·¸ëŁ°": 4384,
      "Ġíļ¨ìľ¨ìłģìĿ¸": 4385,
      "Ġìĥģì§ķ": 4386,
      "ê²¼": 4387,
      "31": 4388,
      "ĠíķĻìĪł": 4389,
      "ìĤ¬ë¬´ì²ĺ": 4390,
      "Ġë¬¸ìĿĺ": 4391,
      "ĠìľłëıĦ": 4392,
      "ìĭ¤ìĿ´": 4393,
      "íĻĶê°Ģ": 4394,
      "ĠíĻĪíİĺìĿ´ì§Ģ": 4395,
      "ëĭ¤ë§Į": 4396,
      "Ġë¬¸íķĻ": 4397,
      "Ġìłķíķ´": 4398,
      "Ġìĭľê¸°ìĹĲ": 4399,
      "ĠíĹĪìļ©": 4400,
      "Ġìĭľìĥģ": 4401,
      "ì£¼ë¡ľ": 4402,
      "å±": 4403,
      "45": 4404,
      "Ġíı¬ëŁ¼": 4405,
      "ë¶Īìĸ´": 4406,
      "¬ìĺģ": 4407,
      "Ġìĭ¤ìłľë¡ľ": 4408,
      "ĠìĪĺëł´": 4409,
      "ê¼": 4410,
      "Ġìłķì±ħìĹĲ": 4411,
      "ìĿ´ëĿ¼ë©°": 4412,
      "ĠìĤŃê°Ĳ": 4413,
      "Ġì§Ģì¹¨": 4414,
      "Ġìĵ": 4415,
      "ĠëĮĢê·ľëª¨": 4416,
      "Ġê·¸ë¦°": 4417,
      "ë©¸": 4418,
      "ĠìķĦìĿ´ëĶĶìĸ´": 4419,
      "Ġìĭłì²´": 4420,
      "ĠìŀĪëĬĶì§ĢìĹĲ": 4421,
      "ìĦľê°Ģ": 4422,
      "ĠìĨįìĹĲìĦľ": 4423,
      "íĺĳíļĮ": 4424,
      "ĠH": 4425,
      "ĠìłĲìĿ´": 4426,
      "Ġë°ķë¬¼ê´Ģ": 4427,
      "ìĥģíĴĪ": 4428,
      "Ġìŀ¬íĻľìļ©": 4429,
      "íĭ°ë¸Į": 4430,
      "ëĭ¨ìĹĲ": 4431,
      "Ġ2021": 4432,
      "Ġê²°íķ©": 4433,
      "Ġëĭ¨ìľĦ": 4434,
      "Ġì§ĢìĹ°": 4435,
      "ë©´ìĿĦ": 4436,
      "ìĿ´ìŀĲ": 4437,
      "íĬ¼": 4438,
      "¿Į": 4439,
      "Ġë§Īëł¨íķĺê³ł": 4440,
      "Ġìĸ´ëł¤ìĽĢìĿ´": 4441,
      "ë¯¸ëĤĺ": 4442,
      "ì¤ĳìĨĮê¸°ìĹħ": 4443,
      "ìĭĿìĿĢ": 4444,
      "Ġê²½ìŁģëł¥": 4445,
      "Ġ2014": 4446,
      "Ġë°ĶìĿ´ìĺ¤": 4447,
      "ëĤ´ëĬĶ": 4448,
      "ê°Ģê°Ģ": 4449,
      "Ġìĺ¬ë°Ķ": 4450,
      "Ġë©Ķìĭľì§Ģë¥¼": 4451,
      "ĠìĤ¬ëŀĮëĵ¤ìĹĲê²Į": 4452,
      "ìĨĮíĨµ": 4453,
      "ìĦŃ": 4454,
      "ĠìĦ¤ëªħíķĺê³ł": 4455,
      "Ġê°Ļëĭ¤": 4456,
      "å¤§": 4457,
      "ì§ĢìĽĲìĦ¼íĦ°": 4458,
      "ìľłíĨµ": 4459,
      "Ġê²½ê¸°ëıĦìĿĺ": 4460,
      "Ġì¹´ëĵľ": 4461,
      "Ġê´Ģì°°": 4462,
      "ëł¤ê³ł": 4463,
      "Ġì¿": 4464,
      "ëĭ¹íķľ": 4465,
      "ì°Į": 4466,
      "ë¦ŃíĦ°": 4467,
      "ë¶ĢìĤ°ê´ĳìĹŃìĭľ": 4468,
      "ĠìŀĲë¬¸": 4469,
      "ĠìłģìĿ´": 4470,
      "ĠìĥģìĥĿ": 4471,
      "ìŀĲìŀ¬": 4472,
      "Ġìĭ¤ë¬´": 4473,
      "µëĭĪëĭ¤": 4474,
      "ë¦¬ê¸°": 4475,
      "ë³µíķ©": 4476,
      "Ġì§ĪíĻĺ": 4477,
      "Ġì§ĢìĹŃìĤ¬íļĮ": 4478,
      "êµ°ìĿ´": 4479,
      "Ġë¶ĢëıĻìĤ°": 4480,
      "ĠìŀĪìĿĮ": 4481,
      "Ġì±ħìŀĦìĿĦ": 4482,
      "¨¸": 4483,
      "ìĹ°êµ¬ìĨĮ": 4484,
      "Ġìĥģìłķ": 4485,
      "ĠìĹŃìĭľ": 4486,
      "ì²¨": 4487,
      "ìĤ¬ìĹħìĿĢ": 4488,
      "Ġíļ¨ê³¼ê°Ģ": 4489,
      "íķĺëĭ¤ëĬĶ": 4490,
      "Ġì´Īê³¼": 4491,
      "ëĭĪìķĦ": 4492,
      "Ġë³ĢíĻĶìĹĲ": 4493,
      "ĠëģĮ": 4494,
      "ĠìĦ¸ìĽĮ": 4495,
      "ĠìĪĺìĹ¬": 4496,
      "Ġ2010": 4497,
      "ĠìĺĪìĤ°ìĹĲ": 4498,
      "ë£¡": 4499,
      "ĠëĪĦêµ¬ìĿ¸ê°Ģ": 4500,
      "ìĭ±": 4501,
      "ê¶ĮìĿ´": 4502,
      "åº": 4503,
      "ĠìĹ¬ê¸°": 4504,
      "íķľêµŃìĿĺ": 4505,
      "Ġ2022": 4506,
      "Ġ80": 4507,
      "ìĭĿê³¼": 4508,
      "ì²«": 4509,
      "ìĤ¬íļĮìłģ": 4510,
      "ĠëĨĴìĿ¼": 4511,
      "Ġíķ´ëĭ¹íķĺëĬĶ": 4512,
      "Ġê³Ħíļįíķĺê³ł": 4513,
      "Ġê°ķíĻĶíķĺê¸°": 4514,
      "ĠìĨĮìĥģê³µ": 4515,
      "ĠëĮĢìĥģìĿĢ": 4516,
      "ë¹Ļ": 4517,
      "ë¹Ħìļ©": 4518,
      "Ġë§Īì¹ĺê²łìĬµëĭĪëĭ¤": 4519,
      "ëĭ¥": 4520,
      "Ġëªħìĭľ": 4521,
      "Ġ300": 4522,
      "ìĿ´íģ¬": 4523,
      "Ġë£¨": 4524,
      "ĠìľĦê¸°": 4525,
      "Ġê²ªê³ł": 4526,
      "ìĹĺ": 4527,
      "Ġìŀ¥ì¹ĺ": 4528,
      "ìĭłìĿĦ": 4529,
      "Ġëª©íĳľëĬĶ": 4530,
      "ëħ¸ìĿ¸": 4531,
      "êµ°ìĿĢ": 4532,
      "ê³¼íķĻê¸°ìĪł": 4533,
      "Ġì°¸ìĹ¬ë¥¼": 4534,
      "ĠìĿ´íķ´ë¥¼": 4535,
      "ìĹ°êµ¬ìĽĲ": 4536,
      "Ġê²½ëĤ¨ëıĦ": 4537,
      "ê´´": 4538,
      "ê¸°ë³¸": 4539,
      "ĠìĹ°êµ¬ë¥¼": 4540,
      "ĠìłķìĽĲ": 4541,
      "ĠìĽĲìĭ¬": 4542,
      "ĠëĦĪë¬´": 4543,
      "ìĸ´ê°Ģ": 4544,
      "Ġíķ´ìĸĳìĪĺìĤ°": 4545,
      "Ġìľłê´Ģ": 4546,
      "Ġìĵ°ëłĪê¸°": 4547,
      "Ġì£¼ëª©": 4548,
      "ë¶ĢìĹĲìĦľ": 4549,
      "ĠìĬ¤ìĬ¤ë¡ľ": 4550,
      "Ġì·¨íķĺê³ł": 4551,
      "Ġê¸°ê³Ħ": 4552,
      "ìĹħìĿĦ": 4553,
      "ĠìłķíķĺëĬĶ": 4554,
      "Ġë´īìĤ¬": 4555,
      "ì°¸ìĹ¬": 4556,
      "ĠìĹŃíķłê³¼": 4557,
      "Ġì£¼ìµľ": 4558,
      "ĠëĿ¼ìĿ´": 4559,
      "ìĿ´ìļ©": 4560,
      "Ġì¡°ê°ģ": 4561,
      "Ġêµ¬ê°Ħ": 4562,
      "Ġíį¼": 4563,
      "Ġì¶©ì¡±": 4564,
      "ĠëĨįìĹħê¸°ìĪł": 4565,
      "ë¬¸íķĻ": 4566,
      "Ġë°ĶëŀĮ": 4567,
      "ĠìłĦíĮĮ": 4568,
      "Ġíļ¨ê³¼ìłģìĿ¸": 4569,
      "197": 4570,
      "Ġì¡°ìĦ±ìĿĦ": 4571,
      "Ġì¶Ķê°Ģë¡ľ": 4572,
      "Ġìĺ¬ëĿ¼": 4573,
      "Ġê±´ê°ķíķľ": 4574,
      "ëĨįìĤ°ë¬¼": 4575,
      "Ġê¸°ë°ĺìľ¼ë¡ľ": 4576,
      "Ġìľłì§Ģíķĺê³ł": 4577,
      "ĠìĺĪìĤ°ìķĪìĹĲ": 4578,
      "æĽ": 4579,
      "ë¯¸ìĪł": 4580,
      "ĠíĿĶ": 4581,
      "Ġì°©ìļ©": 4582,
      "Ġê²ĥìĿ´ë©°": 4583,
      "ìµľê·¼": 4584,
      "Ġê°ľë°ľìĿĦ": 4585,
      "ìĹĨìĿ´": 4586,
      "Ġíıīê°Ģíķĺê³ł": 4587,
      "Ġì¡°ëĭ¬": 4588,
      "ĠíĻľë°ľ": 4589,
      "ĠìĤ¬ëŀĮëĵ¤ìĿĢ": 4590,
      "Ġë¯¸ì¹ĺ": 4591,
      "ĠìĽĲìľ¼ë¡ľ": 4592,
      "Ġë°ķëŀĮíļĮ": 4593,
      "ë¬´ìĹŃ": 4594,
      "ĠìŀĲëħĢ": 4595,
      "Ġê³§": 4596,
      "Ġë¶ĪêµĲ": 4597,
      "ìŀĲê¸Ī": 4598,
      "ê·¼ë¡ľ": 4599,
      "Ġê²°ìĿĺ": 4600,
      "Ġê°ĲìłķìĿĦ": 4601,
      "íĻĢ": 4602,
      "ìľĦìĽĲìĿ´": 4603,
      "Ġíļį": 4604,
      "Ġê°Ħëĭ¨": 4605,
      "ĠëĨĢ": 4606,
      "ì¼ĵ": 4607,
      "ĠëĨįë¦¼": 4608,
      "ĠëĤĺìĺ¤": 4609,
      "Ġë§ĮëĤĺ": 4610,
      "ĠìĤ¬íķŃìĿ´": 4611,
      "ĠìĿ¼ìĸ´ëĤĺ": 4612,
      "Ġë°Ľì§Ģ": 4613,
      "Ġìŀ¬ìĥĿ": 4614,
      "Ġë°ľìĸ¸": 4615,
      "ëĭ¤ìĸĳíķľ": 4616,
      "Ġíĸ¥ìĥģìĿĦ": 4617,
      "íĹĪê°Ģ": 4618,
      "ìłĦìĿĢ": 4619,
      "ìĹĪê³ł": 4620,
      "ìĺ¤ëĬĺ": 4621,
      "Ġê·¸ëĵ¤ìĿĺ": 4622,
      "ĠìŀĪê¸°": 4623,
      "ìłĦëŀµ": 4624,
      "ĠëĤ¨ë¶ģ": 4625,
      "ìŀĳë¬¼": 4626,
      "ĠëĦĲë¦¬": 4627,
      ")(": 4628,
      "ê¸°ê³Ħ": 4629,
      "Ġë°©ë²ķìĹĲ": 4630,
      "ĠíĸīëıĻìĿĦ": 4631,
      "ì£¼ê³ł": 4632,
      "ĠìĤ¬íķŃìĹĲ": 4633,
      "Ġêµ¬íĺĦ": 4634,
      "ĠëĤ´ìļ©ìĹĲ": 4635,
      "ì°¨ëŁī": 4636,
      "ĠìĿ¸ê¶Į": 4637,
      "Ġê³Ħìĭłê°ĢìļĶ": 4638,
      "ìłĳì¢ħ": 4639,
      "ĠìĥģëĮĢë°©": 4640,
      "ëĶĶìĸ´ë¥¼": 4641,
      "ëıĪ": 4642,
      "ìĥĿêµĲìľ¡": 4643,
      "ìķĦìĦľ": 4644,
      "Ġíĳ¸": 4645,
      "ìĿ´íĽĦ": 4646,
      "Ġë²¼": 4647,
      "Ġë°ľê°Ħ": 4648,
      "Ġë´Ħ": 4649,
      "Ġê³¤": 4650,
      "ìĤ¬ìĹĲìĦľ": 4651,
      "Ġë¬¸ìłľìĻĢ": 4652,
      "ĠìłĦíĪ¬": 4653,
      "´ëĤ©": 4654,
      "ĠêµŃíļĮìĿĺ": 4655,
      "¨¸ëĭĪ": 4656,
      "Ġì·¨íķ´ìķ¼": 4657,
      "Ġì£¼ë¬¸": 4658,
      "Ġê·ľìłķìĿĢ": 4659,
      "Ġìĭľë¯¼ëĵ¤ìĿĺ": 4660,
      "500": 4661,
      "Ġë²ķìłģ": 4662,
      "ĠìĨĮìĨ¡": 4663,
      "ê²½ë¶ģ": 4664,
      "´ëĦ": 4665,
      "ëĵłì§Ģ": 4666,
      "Ġë²½": 4667,
      "ĠìĿ´ìľłìĹĲ": 4668,
      "Ġì¢ħë£Į": 4669,
      "ä½": 4670,
      "Ġì°¾ìĿĦ": 4671,
      "ìĸ´ìļĶ": 4672,
      "ĠëĬĲëģ¼": 4673,
      "ìģ": 4674,
      "ìłĲê³¼": 4675,
      "Ġê²©ëł¤": 4676,
      "ĠìĹŃìĤ¬ìłģ": 4677,
      "ëį°ìĿ´íĬ¸": 4678,
      "ìĬ¤ìĻĢ": 4679,
      "ë°į": 4680,
      "ìĹ°íķ©": 4681,
      "íĻĶë¡ľ": 4682,
      "ĠíĥĦìĨĮ": 4683,
      "ìĭľìĦ¤ìĿĦ": 4684,
      "ë¦¬ë¡ľ": 4685,
      "Ġíĸ¥ìĥģìĭľíĤ¬": 4686,
      "ë·°": 4687,
      "Ġìļ´ëıĻìĿĦ": 4688,
      "Ġìĭľê¸°": 4689,
      "Ġê·¸ëĮĢë¡ľ": 4690,
      "Ġëŀ": 4691,
      "ë¦¼íĶ½": 4692,
      "Ġê·¸ëłĩ": 4693,
      "ĠíĻĶìŀ¥": 4694,
      "Ġìĸ´ëĸłíķľê°Ģ": 4695,
      "ĠìĪĺìĤ°ë¬¼": 4696,
      "ĠìĿ´ìĻĢ": 4697,
      "Ġë³´ëĬĶ": 4698,
      "ĠìłĦìļ©": 4699,
      "ĠìĤ¬ëŀĮìĿĢ": 4700,
      "ëĤ´ìļ©": 4701,
      "¯¼": 4702,
      "Ġì§ĢìĤ¬ëĬĶ": 4703,
      "éĻ": 4704,
      "Ġì¡°ìĤ¬ë¥¼": 4705,
      "ĠìĤ¬ìĹħìĹĲìĦľ": 4706,
      "ĠêµŃê°ĢìĿĺ": 4707,
      "ì§ĢìĹŃìĿĺ": 4708,
      "ĠìĹ°ê°Ħ": 4709,
      "ĠìĽĮíģ¬ìĪį": 4710,
      "Ġëĥī": 4711,
      "ê±´ë¹Ħ": 4712,
      "Ġì§ĢíĤ¤": 4713,
      "ëĭ¤ìĿĮìĿĢ": 4714,
      "éĥ": 4715,
      "ĠëĮĢìĿĳìĿĦ": 4716,
      "ìĪĺìĤ°ë¬¼": 4717,
      "´ë°Ģ": 4718,
      "35": 4719,
      "Ġë°©ë²ķìĿ´": 4720,
      "....": 4721,
      "çĽ": 4722,
      "Ġíĺ¹ìĿĢ": 4723,
      "ĠëĤ´ë¦¬": 4724,
      "ìłľíķľ": 4725,
      "ëĨįë¦¼": 4726,
      "ĠíĬ¹íĻĶ": 4727,
      "ĠìĦ¤ëªħìĿĦ": 4728,
      "ìľĦíĥģ": 4729,
      "Ġê³¼íĥľ": 4730,
      "ĠíĪ¬ëªħ": 4731,
      "ìķŀìľ¼ë¡ľëıĦ": 4732,
      "ĠëĮ": 4733,
      "ìĪĺìĻĢ": 4734,
      "íĴĪì§Ī": 4735,
      "ë§ĮìĿĦ": 4736,
      "ĠëŁ¬ìĭľìķĦ": 4737,
      "Ġëĭ¤ë£": 4738,
      "ĠìĦľìĭĿ": 4739,
      "ë§ŀ": 4740,
      "ĠíĻįë³": 4741,
      "Ġíķĺì§Ģë§Į": 4742,
      "ĠìĦłì¶ľ": 4743,
      "ĠìĪĺëıĦê¶Į": 4744,
      "ê°Ģì§Ģ": 4745,
      "Ġê³¼ìłľ": 4746,
      "íķŃê³µ": 4747,
      "ê²łëĭ¤ê³ł": 4748,
      "ĳìĬ¤": 4749,
      "ìľ¼ë¯Ģë¡ľ": 4750,
      "ĠìĹĨìĬµëĭĪëĭ¤": 4751,
      "Ġíĳľì°½": 4752,
      "ìĿ¼ê³¼": 4753,
      "Ġê°Ģë¥´": 4754,
      "Ġíİ¸ë¦¬": 4755,
      "´ëŀ": 4756,
      "íĻĶìĿĺ": 4757,
      "ĠìĪł": 4758,
      "Ġì°¸ìĹ¬íķł": 4759,
      "ĠìĿ´ìļ©íķľ": 4760,
      "ìĭľê³ł": 4761,
      "ĠìŀĪìĹĪê³ł": 4762,
      "ë°ĽìĿĦ": 4763,
      "Ġë°ľê¸ī": 4764,
      "Ġì¹¼": 4765,
      "Ġ2013": 4766,
      "ĠìĦłìŀĦ": 4767,
      "ĠëĨĴìĿ´ê³ł": 4768,
      "ĠìĨĮìĻ¸": 4769,
      "Ġìĭľê°ĦìĿ´": 4770,
      "TA": 4771,
      "ëł¥ê³¼": 4772,
      "ìķĪìĿĺ": 4773,
      "ĠìĽ¹ìĤ¬ìĿ´íĬ¸": 4774,
      "ëĲ¨ìĹĲ": 4775,
      "íĺ¸ìĿĺ": 4776,
      "ëªħìĿĢ": 4777,
      "ĠëıĮë´Ħ": 4778,
      "ê³łìļ©": 4779,
      "ìĦĿìĿĦ": 4780,
      "Ġ2008": 4781,
      "Ġìłģíķ©íķľ": 4782,
      "Ġ.": 4783,
      "ë¯¼ì£¼": 4784,
      "Ġ2011": 4785,
      "ìĪĺë¡ľ": 4786,
      "´ë©°": 4787,
      "ĠëĿ": 4788,
      "Ġì½Ķëĵľ": 4789,
      "ìĤ¬íķŃìĿĢ": 4790,
      "ĠêµĲíĻĺ": 4791,
      "36": 4792,
      "Ġê°Ģêµ¬": 4793,
      "Ġê°Ģë¡ľ": 4794,
      "Ġìĺģìĸ´": 4795,
      "Ġë§ŀê²Į": 4796,
      "ëĮĢëĬĶ": 4797,
      "ĠìĺĪë¥¼": 4798,
      "Ġíĥĳ": 4799,
      "Ġê°ĢëĬ¥ìĦ±ìĿ´": 4800,
      "Ġë³´ìľ¡": 4801,
      "Ġì¶Ķì§Ħíķ´": 4802,
      "Ġëĭ¬ë¦¬": 4803,
      "ĠìĪľì²ľ": 4804,
      "ë¹Ī": 4805,
      "ìĹĪìĬµëĭĪëĭ¤": 4806,
      "ì£¼ëħĦ": 4807,
      "ĠíĮĮìķħíķĺê³ł": 4808,
      "ĠìŀĪìľ¼ëĤĺ": 4809,
      "ĠëĮĢë¡ľ": 4810,
      "ĠìĻ¸ìĹĲëıĦ": 4811,
      "Ġêµ¬ìĦ±ëĲľ": 4812,
      "Ġê°Ŀ": 4813,
      "ĠëįĶë¶Īìĸ´": 4814,
      "´ë°°": 4815,
      "ê´ĢìĹĲ": 4816,
      "ĠêµŃë¯¼ìĿĺ": 4817,
      "Ġì§ĳëĭ¨": 4818,
      "Ġë§ĲìĿĦ": 4819,
      "ëħĦëıĦìĹĲ": 4820,
      "Ġì°¾ëĬĶ": 4821,
      "ìľĦëĬĶ": 4822,
      "Ġì¶ķìłľ": 4823,
      "íĺ¸ìĦł": 4824,
      "ë¶ĢìĤ°ìĭľìĿĺíļĮ": 4825,
      "´ëŁ¬": 4826,
      "íĨµìĥģ": 4827,
      "íĻĶëĬĶ": 4828,
      "Ġì£¼ìłľ": 4829,
      "ëĳ¥": 4830,
      "ĠìľłìłĦ": 4831,
      "Ġëĭ¬ëŁ¬": 4832,
      "ìĹŃìĿĦ": 4833,
      "Ġìķłë¡ľ": 4834,
      "ìĦ±ìŀ¥": 4835,
      "İìĿĢ": 4836,
      "ë²ķìĿ¸": 4837,
      "ì²ŃìĿĺ": 4838,
      "Ġë³´ì¦Ŀ": 4839,
      "ĠìĦłíı¬íķ©ëĭĪëĭ¤": 4840,
      "ëĮĢíĸī": 4841,
      "ê°ľìĿ¸": 4842,
      "Ġì¤Ģê³µ": 4843,
      "ĠìŀĪëįĺ": 4844,
      "Ġíİ¼ì³Ĳ": 4845,
      "ê¸°ëĬ¥": 4846,
      "Ġë²Ĺ": 4847,
      "Ġì£¼ê¸°": 4848,
      "ĠíķĦìĪĺ": 4849,
      "Ġê¸°ìĸµ": 4850,
      "æŃ": 4851,
      "ë¹Ħë¡ľ": 4852,
      "ĠìĤ¬ìļ©ëĲł": 4853,
      "ìĹ¼ë³ĳ": 4854,
      "Ġê¸°ì¤ĢìĿĦ": 4855,
      "ìĹĪëįĺ": 4856,
      "íĻĶíķĻ": 4857,
      "Ġëħ¸íĽĦ": 4858,
      "ĠíļĮìĿĺë¡ĿìĹĲ": 4859,
      "ĠìķĦíĮĮíĬ¸": 4860,
      "ë°ĽìķĦ": 4861,
      "Ġê³łìĨį": 4862,
      "ĠíĻľëıĻìĿ´": 4863,
      "âĨĴ": 4864,
      "ì§ĢìĹĲìĦľ": 4865,
      "ĠìĦłë°ķ": 4866,
      "Ġë¬¸ìĦľ": 4867,
      "ì²©": 4868,
      "ĠíĺĦìŀ¬ìĿĺ": 4869,
      "ĠëĤĺìĦľ": 4870,
      "Ġìĭ¬ê°ģ": 4871,
      "Ġì²¨ëĭ¨": 4872,
      "ë°Ľê³ł": 4873,
      "Ġë³µêµ¬": 4874,
      "ro": 4875,
      "Ġë¹Ħì¦ĪëĭĪìĬ¤": 4876,
      "ìĿĮìĭĿ": 4877,
      "ëĮĢêµ¬ìĭľê°Ģ": 4878,
      "ë¹Ľ": 4879,
      "Ġê²ĥìĿ´ëĿ¼ê³ł": 4880,
      "Ġì¦īìĭľ": 4881,
      "ĠíĺĦìŀ¥ìĹĲìĦľ": 4882,
      "ë¬¼ìĹĲ": 4883,
      "Ġê°Ĵ": 4884,
      "Ġë³ĳìĽĲ": 4885,
      "Ġê³Ħìĭľ": 4886,
      "ĠìĪĺíĸīíķł": 4887,
      "ìĭłê³ł": 4888,
      "Ġëĭ¤íķĺê²łëĭ¤": 4889,
      "¾Į": 4890,
      "ëģĹ": 4891,
      "ĠìĹŃëŁīìĿĦ": 4892,
      "ĠìºĲë¦ŃíĦ°": 4893,
      "Ġê°ľìłķíķľëĭ¤": 4894,
      "Ġì£¼ìļĶíķľ": 4895,
      "ĠìĹ°êµ¬ê°ľë°ľ": 4896,
      "ê´ĢìĹĲìĦľ": 4897,
      "ìĽĢìĿĦ": 4898,
      "et": 4899,
      "ì£¼ì°¨": 4900,
      "ìķ¡ìĿĦ": 4901,
      "Ġ2009": 4902,
      "Ġëįķ": 4903,
      "ìĿ¸ëĵ¤ìĿĺ": 4904,
      "íĳ¸": 4905,
      "ĠíĨµíķĺìĹ¬": 4906,
      "ê³µìĹ°": 4907,
      "ĠìĤ¬ìĭ¤ìĿĦ": 4908,
      "ìĺĢëĤĺìļĶ": 4909,
      "Ġì£¼ìĭł": 4910,
      "ĠíĶ¼ë¶Ģ": 4911,
      "Ġê°Ģê²°": 4912,
      "Ġìĥģê³ł": 4913,
      "ìĪĺìĹĲ": 4914,
      "ë¦°ëĭ¤": 4915,
      "Ġíķĺì²ľ": 4916,
      "48": 4917,
      "ĠëĤĺìĺ¨": 4918,
      "Ġë³´ê³łìĦľ": 4919,
      "ĠìĽĲìķĪëĮĢë¡ľ": 4920,
      "ìī": 4921,
      "ĠëĶ¸": 4922,
      "Ġë¶Īìļ©": 4923,
      "Ġë°©ìĭĿìĿĦ": 4924,
      "ê·¸ëĬĶ": 4925,
      "ìĨĮìĻĢ": 4926,
      "ĠìĻĶëĭ¤": 4927,
      "ìłķíķľ": 4928,
      "Ġë¿Ĳ": 4929,
      "ĠìłľëıĦë¥¼": 4930,
      "ĠìķĦìĭľìķĦ": 4931,
      "Ġìĺ¤ëŀĺ": 4932,
      "ĠíķĦìļĶê°Ģ": 4933,
      "ê±´ìĿĺ": 4934,
      "íķ´ìĻ¸": 4935,
      "Ġ500": 4936,
      "ê°ķëĤ¨êµ¬": 4937,
      "Ġìķ½ìĨį": 4938,
      "ĠìĥĿê°ģìĿĦ": 4939,
      "ë¬´ë": 4940,
      "ì¹´ëĵľ": 4941,
      "ĠìķĮìķĦ": 4942,
      "ĠìľĦìĽĲìĿĺ": 4943,
      "ë³´ê±´íĻĺê²½ìĹ°êµ¬": 4944,
      "Ġëª¨ëį¸ìĿĦ": 4945,
      "ĠìľĦìĽĲëĭĺëĵ¤": 4946,
      "ìŀĲìĹ°": 4947,
      "Ġìĭ¬ë¦¬": 4948,
      "Ġë¬¸íĻĶë¥¼": 4949,
      "ìħĺìĿĦ": 4950,
      "ì£¼ë¥¼": 4951,
      "Ġë§ĮëĵľëĬĶ": 4952,
      "ì°¨ë¥¼": 4953,
      "æ°": 4954,
      "íķĻêµĲìĿĺ": 4955,
      "¸ëĭ¤": 4956,
      "Ġê¸°ìĹħìĿ´": 4957,
      "Ġëħ¸ìĦł": 4958,
      "ĠìĿ¸ê·¼": 4959,
      "ë§ĮìĿĺ": 4960,
      "ĠìĦ¤ëªħíķ´ì¤Ħëŀĺ": 4961,
      "ë¦¬ì§Ģ": 4962,
      "Ġì§Ħíĸīíķł": 4963,
      "ĠíĶĦë¡ľê·¸ëŀ¨ìĿ´": 4964,
      "Ġìĭ¤ìĭľíķľ": 4965,
      "ĠëĤ©ë¶Ģ": 4966,
      "Ġì²łíķĻ": 4967,
      "Ġì§ĦíĸīëĲĺìĹĪëĤĺìļĶ": 4968,
      "ĠíķĺëĤĺë¡ľ": 4969,
      "íħį": 4970,
      "Ġê¹Į": 4971,
      "Ġë°¤": 4972,
      "Ġê´": 4973,
      "ìĬ¤ëŁ¬ìļ´": 4974,
      "ëŁīìĿĢ": 4975,
      "ë²Īì§¸": 4976,
      "ĠìłĪì°¨ëĬĶ": 4977,
      "Ġë¡ľë§Ī": 4978,
      "ĠìĿ¼ë³¸ìĿĺ": 4979,
      "Ġìª½": 4980,
      "ĠìĨĮìħľ": 4981,
      "ĠìĻĦìĦ±": 4982,
      "ìĭľì¼°": 4983,
      "ĠíĸīìĤ¬ëĬĶ": 4984,
      "ìĬ·": 4985,
      "46": 4986,
      "ĠìłĦëł¥": 4987,
      "ì¤ĳíķľ": 4988,
      "Ġëĵ£ê³ł": 4989,
      "39": 4990,
      "ĠëĨĴìĿ´": 4991,
      "ê°ĲìĤ¬ë¥¼": 4992,
      "Ġë°ĺë³µ": 4993,
      "ĠìłĦíķ´": 4994,
      "ĠíķŃìĥģ": 4995,
      "ĠìŀĪì§Ģ": 4996,
      "ë°ľìĿĺ": 4997,
      "ĠíĽĦìĹĲëĬĶ": 4998,
      "Ġíİ¸ì§ĳ": 4999,
      "ĠíķĺëĤĺëĬĶ": 5000,
      "Ġìµľìļ°ìĪĺ": 5001,
      "ìĦ¸ë¨¼ì§Ģ": 5002,
      "ĠíļĮê³Ħ": 5003,
      "Ġê´Ģê³ĦìŀĲ": 5004,
      "íķ´ìĸĳìĪĺìĤ°": 5005,
      "ĠìŀĲìłĦê±°": 5006,
      "Ġìŀĳê°Ģ": 5007,
      "Ġìłķë¶Ģê°Ģ": 5008,
      "Ġìĭ¤ìĭľê°Ħ": 5009,
      "íĺ¸ìĻĢ": 5010,
      "Ġìĭľìŀĳìľ¼ë¡ľ": 5011,
      "Ġì§ĢìĽĲíķĺê¸°": 5012,
      "ìĸ´ìĹħ": 5013,
      "ë³´ìĦ¸ìļĶ": 5014,
      "èĩ": 5015,
      "Ġì§Ħë£Į": 5016,
      "Ġë°Ľê²Į": 5017,
      "ĠìĥģíĻ©ìĿ´": 5018,
      "ë¶ģëıĦ": 5019,
      "Ġë³µìŀ¡": 5020,
      "Ġì´¬ìĺģ": 5021,
      "ëª¨ëį¸": 5022,
      "Ġë³µíķ©": 5023,
      "Ġì°½ì¡°": 5024,
      "ì²´ê³Ħë¥¼": 5025,
      "ľ¨": 5026,
      "ëĲĺëıĦë¡Ŀ": 5027,
      "íĭ±": 5028,
      "ê³łëĵ±íķĻêµĲ": 5029,
      "ç¦": 5030,
      "ê¹¨": 5031,
      "Ġìĸ´ëķłëĤĺìļĶ": 5032,
      "ë°©ìľĦ": 5033,
      "ìĬ¤ë§ĪíĬ¸": 5034,
      "ë¥Ļ": 5035,
      "ê¸°ê¸Ī": 5036,
      "Ġê·ľìłķìĿĦ": 5037,
      "ĠëĮĢìĿĳíķĺê³ł": 5038,
      "ĠìķĦë²Ħ": 5039,
      "Ġì¶ķêµ¬": 5040,
      "ìĦ¼íĦ°ê°Ģ": 5041,
      "Ġíķłê¹ĮìļĶ": 5042,
      "Ġë¯¸ë¦¬": 5043,
      "Ġ`": 5044,
      "Ġê¸°ë¶Ģ": 5045,
      "ìĿ¸íĦ°": 5046,
      "Ġìĩ¼íķĳ": 5047,
      "ĠìķĦë¢°": 5048,
      "38": 5049,
      "ëĭĺìĿĺ": 5050,
      "ĠìĨĮìŀ¥": 5051,
      "Ġì°¨ìĿ´ìłĲìĿĢ": 5052,
      "ë¡ľìĿĺ": 5053,
      "Ġë¶Ħíı¬": 5054,
      "ĠíŀĪ": 5055,
      "ĠìĨĮìĦ¤": 5056,
      "2018": 5057,
      "ħëĭĪëĭ¤": 5058,
      "ĠìĪĺìĪĺ": 5059,
      "ĠìĹħë¬´ìĹĲ": 5060,
      "Ġê´Ģìĭ¬ê³¼": 5061,
      "íķĻìĬµ": 5062,
      "ĠìŀĪìĹĪëįĺ": 5063,
      "ë¦¿": 5064,
      "ĠìĦłìĥĿ": 5065,
      "Ġìµľìĭł": 5066,
      "Ġê²ĥê³¼": 5067,
      "Ġê¼Ń": 5068,
      "ĠëĤĺë¨¸": 5069,
      "Ġìĸ¸ìłľë¶ĢíĦ°": 5070,
      "ì§ĢìĤ¬ê°Ģ": 5071,
      "ë²ķìĽĲ": 5072,
      "Ġì§Ģíĳľ": 5073,
      "2021": 5074,
      "ìĦłê±°": 5075,
      "ĠìĿ¸ê°ĦìĿĺ": 5076,
      "ëĤĻ": 5077,
      "Ġë¬¼ë¥ĺ": 5078,
      "ĠìĤ¬ìłĦìĹĲ": 5079,
      "Ġê°ľíĺģ": 5080,
      "ĠìĹħëį°ìĿ´íĬ¸": 5081,
      "Ġìĺģíĸ¥ìĿĢ": 5082,
      "ìĸ´ëĤ¬": 5083,
      "ĠìĿ¸ê³µì§ĢëĬ¥": 5084,
      "ìĭłìĿ´": 5085,
      "ì§Ģì§Ģ": 5086,
      "ëĮĢìłĦìĭľìĿĺ": 5087,
      "ëĨĢìĿ´": 5088,
      "ĠëĤĺëĪĦìĸ´": 5089,
      "Ġ),": 5090,
      "Ġê·ľìłķíķĺê³ł": 5091,
      "ĠìŀĪëĭ¤ë©´": 5092,
      "Ġì²ĺìĿĮìľ¼ë¡ľ": 5093,
      "ì²´ê°Ģ": 5094,
      "ĠìĿį": 5095,
      "Ġê´Ģíķł": 5096,
      "Ġëĵ¤ìĸ´ê°Ģ": 5097,
      "Ġì§ĢìĹŃìĿĦ": 5098,
      "ĠëĤĺìķĦê°Ģ": 5099,
      "ĠíĻķëĮĢë¥¼": 5100,
      "ĠìĭłëĿ¼": 5101,
      "íĬ¸ëĤ¨": 5102,
      "ĠìĹ°ìĨį": 5103,
      "ìĻ¸êµŃìĿ¸": 5104,
      "ĠëĲĲëĭ¤": 5105,
      "Ġê·ľëª¨ìĿĺ": 5106,
      "íķ´ìķĪ": 5107,
      "ê°ĲìĿ´": 5108,
      "196": 5109,
      "Ġë¦¬ëįĶ": 5110,
      "Ġë§Ĳíķĺê¸°ë¥¼": 5111,
      "ê»ĺìĦľëĬĶ": 5112,
      "2020": 5113,
      "Ġëħ¼ëŀĢ": 5114,
      "37": 5115,
      "åĵ": 5116,
      "Ġì¦Ŀê±°": 5117,
      "ĠìĤ¬ìļ©íķĺê³ł": 5118,
      "êµŃìĹĲìĦľ": 5119,
      "ê²°ìĤ°": 5120,
      "ĠëĲĺëĬĶì§Ģ": 5121,
      "Ġê³¼ìłķìĹĲ": 5122,
      "ĠìĦłíĥĿíķĺëĬĶ": 5123,
      "ë°ĽëĬĶ": 5124,
      "ĠíķłìĿ¸": 5125,
      "ĠìĹĨìĸ´": 5126,
      "ì¼ĢìĿ´ìħĺ": 5127,
      "ì§ģìĽĲ": 5128,
      "Ġë°ĶìĿ´ëŁ¬": 5129,
      "ê³¼ìŀ¥": 5130,
      "ìĦ¤ëªħ": 5131,
      "Ġì¡°ê±´ìĿĦ": 5132,
      "Ġë¹Ħìļ©ìĿĦ": 5133,
      "ĠìĿ´ìļ©íķł": 5134,
      "Ġë§ĪìĿĮìĿĦ": 5135,
      "ê³ĦíļįìĿĦ": 5136,
      "Ġìĭ¶ìĿĢ": 5137,
      "å¸": 5138,
      "ê¶ĮìĿµ": 5139,
      "ĠìĤ¬ëŀĮìĿĺ": 5140,
      "è¡": 5141,
      "ĠìĹ¬ë¶Ģë¥¼": 5142,
      "ìĿ¸ì²ľê´ĳìĹŃìĭľ": 5143,
      "Ġë°©ë²ķëĵ¤ìĿĦ": 5144,
      "ìĭłìļ©": 5145,
      "ing": 5146,
      "Ġë¹ĦìĬ·": 5147,
      "ĠìĤ¬ë¡Ģê°Ģ": 5148,
      "ĠíĮ¨íĦ´": 5149,
      "Ġê¸°ëĮĢíķľëĭ¤": 5150,
      "Ġì²łëıĦ": 5151,
      "Ġ...": 5152,
      "Ġê²ĢìĤ¬ë¥¼": 5153,
      "ìĪĺìĽĲ": 5154,
      "ĠìĦ¸ìļ°ê³ł": 5155,
      "Ġì¶Ķêµ¬": 5156,
      "Ġìĭłìļ©": 5157,
      "Ġë¬´ìĹĩìĿ´ëĿ¼ê³ł": 5158,
      "íķĺëĤĺ": 5159,
      "Ġíĭ°": 5160,
      "Ġìłķë¶ĢëĬĶ": 5161,
      "Ġê¸°ê°ĦìĿĢ": 5162,
      "Ġê¸°ëĮĢíķĺê³ł": 5163,
      "ìĦ¸ìĿĺ": 5164,
      "ìŀ¬ë¥¼": 5165,
      "ĠìłĦëĭ´": 5166,
      "ĠìĹĲëĦĪ": 5167,
      "Ġê¸°íļĮ": 5168,
      "âī": 5169,
      "âĢĺ": 5170,
      "ëľ»": 5171,
      "ìºł": 5172,
      "ĠìĨĮëıħ": 5173,
      "ĠìĥĪë¡ľ": 5174,
      "Ġë¬¸ìłľë¡ľ": 5175,
      "ĠìĦłìĸ¸": 5176,
      "ì¤ĳìĹĲ": 5177,
      "Ġíķĺë©´ìĦľ": 5178,
      "ìĭľíĤ": 5179,
      "ëĭ¹ìĿ´": 5180,
      "ĠëĲĺë©´": 5181,
      "Ġë§¤ìŀħ": 5182,
      "Ġì¤ĳê°Ħ": 5183,
      "ĠìĦłíĥĿíķł": 5184,
      "Ġê²°íĺ¼": 5185,
      "ĠìĦľë¥ĺ": 5186,
      "Ġë¥¼": 5187,
      "Ġìĥģíĥľë¥¼": 5188,
      "ìĿ´ëłĩê²Į": 5189,
      "Ġì½ľ": 5190,
      "ĠíĺĦìķĪ": 5191,
      "ìĸ´ë³´": 5192,
      "Ġëĵ±ê¸ī": 5193,
      "Ġë¬¼ìĿĦ": 5194,
      "ĠíĶĦë¡ľìĦ¸": 5195,
      "ĠìĿ´ìĻ¸": 5196,
      "Ġìľłê´Ģê¸°ê´Ģ": 5197,
      "ĠìĥģìŀĦ": 5198,
      "ëł¸ëĭ¤": 5199,
      "ĠëĮĢìĿĳíķł": 5200,
      "ĠìĿ¼ë°ĺìłģìĿ¸": 5201,
      "ìĪĺìŀħ": 5202,
      "Ġìķŀìľ¼ë¡ľëıĦ": 5203,
      "ĠìĿĮìĭĿìĿĦ": 5204,
      "ìĩ¼": 5205,
      "el": 5206,
      "ë¶ĦìĿ´": 5207,
      "Ġì§Ģì§Ģ": 5208,
      "ëĶĶìŀĲìĿ¸": 5209,
      "34": 5210,
      "Ġê°ľìĦłíķł": 5211,
      "Ġëĭµë³ĢìĿĦ": 5212,
      "ĠìĻ¸ìĹĲ": 5213,
      "Ġì¼ĢìĿ´": 5214,
      "ìķĦëıĻ": 5215,
      "ĠëıħìĿ¼": 5216,
      "Ġêµ¬ì²´ìłģìľ¼ë¡ľ": 5217,
      "Ġê¹¨ëģĹ": 5218,
      "Ġ~": 5219,
      "Ġì§ĢìĹŃìĿĢ": 5220,
      "ĠìķŀìĦľ": 5221,
      "Ġëĭ¨ìĪľ": 5222,
      "Ġíķĺë£¨": 5223,
      "ìĭľìĦ¤ìĿĺ": 5224,
      "Ġ('": 5225,
      "ĠëĪĦë¦¬ì§ĳ": 5226,
      "ë¶ĦìĿĺ": 5227,
      "íķĺë¯Ģë¡ľ": 5228,
      "ëĵľë°±": 5229,
      "ëħĦìĿĺ": 5230,
      "ë§Īì§Ģë§īìľ¼ë¡ľ": 5231,
      "ëĬ¥ëł¥": 5232,
      "Ġìŀ¬íķ´": 5233,
      "ìĨĮë¹Ħ": 5234,
      "ìłĦê³¼": 5235,
      "ë§İìĿĢ": 5236,
      "ìĿ¸ìĹĲê²Į": 5237,
      "ì¦ī": 5238,
      "ĠêµŃëĤ´ìĻ¸": 5239,
      "ĦìĬ¤": 5240,
      "ìĤ°íĻĶ": 5241,
      "ë°ĶìĿ¼": 5242,
      "ì§ĪìĿĺ": 5243,
      "Ġë¿Į": 5244,
      "Ġìľłë°ľ": 5245,
      "ë¬¸ìĿĺ": 5246,
      "Ġì¶ľìŀħ": 5247,
      "Ġë°ľìĸ¸ìĿĦ": 5248,
      "ĠëĤ´ì§Ģ": 5249,
      "ìĹĪìľ¼ë©°": 5250,
      "Ġëĵľë¦´": 5251,
      "Ġê³µë¶Ģ": 5252,
      "Ġìī¬": 5253,
      "ĠìĹ°ìĬµ": 5254,
      "ëĳĲê³ł": 5255,
      "Ġê³¼íķĻê¸°ìĪł": 5256,
      "Ġê°Ħíĸī": 5257,
      "ĠëıħíĬ¹": 5258,
      "ĠìĪĺë¡Ŀ": 5259,
      "ĠìļĶë¦¬": 5260,
      "Ġê±´ê°ķìĿĦ": 5261,
      "ĠìĹ¬ë¶Ģ": 5262,
      "ëĿ¼ìĬ¤": 5263,
      "ëĭ¹ìĿĦ": 5264,
      "ìĦ¸ê°Ģ": 5265,
      "Ġ2007": 5266,
      "íļ¨ê³¼": 5267,
      "Ġìŀ¬ëĭ¨": 5268,
      "êµĲíĨµë¶Ģ": 5269,
      "Ġìļ°ëł¤ê°Ģ": 5270,
      "Ġê¸°ìŀ¬": 5271,
      "ĠëĦĪíĿ¬": 5272,
      "Ġê´Ģë¦¬íķĺê³ł": 5273,
      "Ġë³´íĨµ": 5274,
      "Ġíĺĳëł¥íķĺìĹ¬": 5275,
      "ì°½ìĹħ": 5276,
      "ìĥĿíĥľ": 5277,
      "ĠìĦ¸íı¬": 5278,
      "ç¥": 5279,
      "Ġê³µìĽĲ": 5280,
      "ìĽĲìĭ¬": 5281,
      "ç¾": 5282,
      "ĠíĮ¨ìħĺ": 5283,
      "ĠëĤĺê°Ģê²łëĭ¤": 5284,
      "ëıĦìĹĲìĦľ": 5285,
      "ìĬ¤íĭ°": 5286,
      "Ġê·ľëª¨ëĬĶ": 5287,
      "Ġê²½ìŁģëł¥ìĿĦ": 5288,
      "ìłĦêµŃ": 5289,
      "Ġì²ľìĹ°": 5290,
      "Ġê±°ì³Ĳìķ¼": 5291,
      "ĠìĿ¸ê±´ë¹Ħ": 5292,
      "Ġê¾¸ì¤Ģ": 5293,
      "ĠíķĻìĥĿëĵ¤ìĿĺ": 5294,
      "ìĤ°ìĿĦ": 5295,
      "ì§ĵ": 5296,
      "ìľ¨ìĿ´": 5297,
      "ĠêµĲìĤ¬": 5298,
      "Ġì°¨ë¡Ģ": 5299,
      "ĠìĿ´ë¦ĦìĿĦ": 5300,
      "æĪ": 5301,
      "ac": 5302,
      "ĠíĶĦëŀĳìĬ¤": 5303,
      "´ë©Ķ": 5304,
      "Ġê°ĢëĬĶ": 5305,
      "Ġë¶Ģì§Ģ": 5306,
      "ĠëĮĢìłĦê´ĳìĹŃìĭľ": 5307,
      "ĠìķĪìĹĲ": 5308,
      "íı¬ëŁ¼": 5309,
      "Ġê°ĲìĹ¼ë³ĳ": 5310,
      "Ġíķ´ìĥģ": 5311,
      "Ġì²ŃìĨĮ": 5312,
      "ìĭĿíĴĪë¶Ģ": 5313,
      "80": 5314,
      "ê°Ģìłķ": 5315,
      "Ġì¤ĳìĭ¬ìĿĺ": 5316,
      "ìĨĮìĹĲìĦľ": 5317,
      "ĠíĬ¹ìĦ±ìĿĦ": 5318,
      "ê·¸ëŁ¬ë©´": 5319,
      "ëıĦìĭľíĻĺê²½": 5320,
      "ì¡°ìĤ¬ë¥¼": 5321,
      "ì²´ëĬĶ": 5322,
      "Ġê±´ì¡°": 5323,
      "ä¸Ģ": 5324,
      "Ġì¶ľë²Ķ": 5325,
      "Ġ35": 5326,
      "ëŁ½ê²Į": 5327,
      "ĠëĤŃ": 5328,
      "Ġ195": 5329,
      "es": 5330,
      "Ġë¹¨": 5331,
      "Ġë²ķë¥łìĿĺ": 5332,
      "ĠìĤ¬ëŀĮëĵ¤ìĿĺ": 5333,
      "Ġëħ¼ìĿĺê°Ģ": 5334,
      "ê³łëł¤": 5335,
      "íķĺìĺĢëĬĶê°Ģ": 5336,
      "Ġìŀħì°°": 5337,
      "ìķĦìĿ´": 5338,
      "ê¸°ëħĲ": 5339,
      "ĠëĮĢëĭµ": 5340,
      "´ëĲľ": 5341,
      "ìĭłì²Ń": 5342,
      "Ġê¹ĬìĿĢ": 5343,
      "Ġìľµíķ©": 5344,
      "íĸĪëĤĺ": 5345,
      "Ġë²ĦìĬ¤": 5346,
      "êµŃëĤ´": 5347,
      "ì§ĳíĸī": 5348,
      "ĠìłĪìķ½": 5349,
      "íķĺëĬĶì§Ģ": 5350,
      "Ġì´īêµ¬": 5351,
      "ìłĲìĹĲìĦľ": 5352,
      "Ġë¹łë¥´ê²Į": 5353,
      "íķĺìĺĢìľ¼ëĤĺ": 5354,
      "ì¹ĺë£Į": 5355,
      "Ġìĭ¤íĮ¨": 5356,
      "ëĭ¹ìĿĺ": 5357,
      "ĠìĪĺíĸīíķĺê³ł": 5358,
      "Ġê³µëıĻìľ¼ë¡ľ": 5359,
      "ĠìĿ¸ìĥģ": 5360,
      "Ġê·¼ìľ¡": 5361,
      "ëĬĲëĥĲ": 5362,
      "Ġíķ´ê²°íķł": 5363,
      "ĠìĺĪìłķìĿ¸ê°ĢìļĶ": 5364,
      "ë¡ľê·¸": 5365,
      "ĠìĿ¸ê¸°": 5366,
      "ĠíŀĺìĿĦ": 5367,
      "ĬìĿĢ": 5368,
      "ì£½": 5369,
      "ìķĦìĭľìķĦ": 5370,
      "ê³¤": 5371,
      "Ġìłľê³µíķĺìĹ¬": 5372,
      "ë³´ëĭ¤ëĬĶ": 5373,
      "ĠìľĦì´ī": 5374,
      "Ģëĵľ": 5375,
      "Ġë´": 5376,
      "ĠìĿ¼ìłľ": 5377,
      "ĠêµĲìľ¡ê³¼": 5378,
      "Ġê²½ê¸°ëıĦìĿĺíļĮ": 5379,
      "Ġê·¸ë¦¬ìĬ¤": 5380,
      "éĩĳ": 5381,
      "ëĥ¥": 5382,
      "Ġë³µìĽĲ": 5383,
      "ìĿĮìķħ": 5384,
      "Ġê´Ģë¦¬íķĺëĬĶ": 5385,
      "ĠíĻľëıĻìĿĢ": 5386,
      "ìĸ´ëĬĶ": 5387,
      "ĠìĤ¬ë¡Ģë¥¼": 5388,
      "ìª½ìĹĲ": 5389,
      "ìĭľíĭ°": 5390,
      "ĠíĻķë³´ë¥¼": 5391,
      "ëĳĺì§¸": 5392,
      "70": 5393,
      "ìŀ¥ê¸°": 5394,
      "ĠëķĮìĹĲ": 5395,
      "Ġì¤ĳìļĶìĦ±ìĿĦ": 5396,
      "Ġê°ĸì¶ĺ": 5397,
      "Ġëª¨ìĬµìĿĦ": 5398,
      "ĠìłĦëĿ¼ëĤ¨ëıĦê°Ģ": 5399,
      "ĠìĤ¬ëŀĮìĿĦ": 5400,
      "Ġì¡°ë¦¬": 5401,
      "ĠìŀĲë³¸": 5402,
      "Ġì±ĦëĦĲ": 5403,
      "ĠìĤ¶ìĿĺ": 5404,
      "Ġë°©íĸ¥ìĿĢ": 5405,
      "ìĦ¼íĦ°ëĬĶ": 5406,
      "Ġìķ½ë¬¼": 5407,
      "ĠìĿĢíĸī": 5408,
      "Ġì°½ìŀĳ": 5409,
      "Ġë²ķìĿ¸": 5410,
      "Ġì½ĺíħĲì¸łë¥¼": 5411,
      "Ġë¹Ħë¡¯íķ´": 5412,
      "Ġê´Ģê³ĦìŀĲëĬĶ": 5413,
      "ĠíĺĦìŀ¬ê¹Įì§Ģ": 5414,
      "íĮĲë§¤": 5415,
      "Ġê³Ħê¸°ë¡ľ": 5416,
      "ĠìłĦë¶Ģ": 5417,
      "ì£¼ìĭ¤": 5418,
      "íķĺëł¤ë©´": 5419,
      "Ġê²°ê³¼ê°Ģ": 5420,
      "ìĭĿìĹĲ": 5421,
      "êµ¬ê°Ģ": 5422,
      "ìħĭ": 5423,
      "ë¦¬ìĺ¤": 5424,
      "ĠëĤ¨ëıĦ": 5425,
      "ĠìĪĺìĨĮ": 5426,
      "ëĮĢíķľë¯¼êµŃ": 5427,
      "ĠëıĻë£Į": 5428,
      "íĺ¹": 5429,
      "ì§ĦìĿĦ": 5430,
      "Ġìľłìļ©": 5431,
      "ê±°ìļ´": 5432,
      "Ġëª»íķĺê³ł": 5433,
      "ĠìķĦìĿ´ëĶĶìĸ´ë¥¼": 5434,
      "ĠV": 5435,
      "ĠíĹ¬": 5436,
      "49": 5437,
      "Ġì§Ħìŀħ": 5438,
      "íĸīë³µ": 5439,
      "ì§ĪìĿĦ": 5440,
      "ì»µ": 5441,
      "2022": 5442,
      "ĠìĿ´íĥĪ": 5443,
      "ëĲĺëĬĶëį°": 5444,
      "ĠíħĮìĬ¤íĬ¸": 5445,
      "ĠëĲĺìĸ´ìŀĪ": 5446,
      "ë²Īíĺ¸": 5447,
      "ĩ¨": 5448,
      "ê°ķìĽĲëıĦ": 5449,
      "Ġë§º": 5450,
      "ĠìĪĺê³ł": 5451,
      "ĠìĿ´ë£¨ìĸ´ì§ĢëĬĶê°Ģ": 5452,
      "Ġìŀħëł¥": 5453,
      "Ġë©´ìĹŃ": 5454,
      "ĠìĿ´ìłľ": 5455,
      "ĠëĲĺì§Ģ": 5456,
      "ĠíĻįë³´ë¥¼": 5457,
      "ë¦¬ìłģìĿ¸": 5458,
      "Ġëª»íķĺëĬĶ": 5459,
      "ĠìĺģêµŃ": 5460,
      "ĠíĻĺê²½ìĹĲ": 5461,
      "ĠêµŃë¬´": 5462,
      "Ġì£¼ëıĦ": 5463,
      "Ġê¸°ìĪłê³¼": 5464,
      "Ġì¹ł": 5465,
      "Ġê³¼íĥľë£Į": 5466,
      "Ġì£¼ìĿĺíķ´ìķ¼": 5467,
      "Ġì´Īëĵ±íķĻêµĲ": 5468,
      "ìĬ´": 5469,
      "Ġê°ĢëıĻ": 5470,
      "Ġìŀ¥íķĻ": 5471,
      "ĠêµŃíļĮ": 5472,
      "ë¡ľëĵľ": 5473,
      "Ġìŀĩ": 5474,
      "Ġê²½ì£¼": 5475,
      "ĠëĮĢìĤ¬": 5476,
      "ëĿ¼ë§Ī": 5477,
      "Ġë°ĽìķĦìķ¼": 5478,
      "Ġë°ĿíĺĶ": 5479,
      "ëıĦìĭľê³Ħíļį": 5480,
      "Ġê´ĢíķĺìĹ¬": 5481,
      "ìĿ¼ìĿ´": 5482,
      "ĠìĿĺë¯¸íķ©ëĭĪëĭ¤": 5483,
      "ìĤ°ìĹħìĿĺ": 5484,
      "Ġê°ĲìĤ¬ìĿĺ": 5485,
      "ĠìĹħë¬´ë³´": 5486,
      "ìłĦìĭľ": 5487,
      "Ġìľłìłģ": 5488,
      "ĠìĦłì§Ħ": 5489,
      "ëª©íĳľ": 5490,
      "ĠìļĶìĨĮë¥¼": 5491,
      "ĠìµľëĮĢíķľ": 5492,
      "ìłľëıĦ": 5493,
      "íĶ¼ê³ł": 5494,
      "ìª½ìľ¼ë¡ľ": 5495,
      "Ġìļ´ìĨ¡": 5496,
      "ìĹĲê²ĮëĬĶ": 5497,
      "Ġìŀ¥ëł¤": 5498,
      "ĠëĮĢíķĻìĥĿ": 5499,
      "ì¹ľíĻĺê²½": 5500,
      "ê¸īìĹ¬": 5501,
      "Ġë¹Į": 5502,
      "2017": 5503,
      "æĹ": 5504,
      "ëŀĻ": 5505,
      "ë°Ń": 5506,
      "ĠìĹĨëĭ¤ê³ł": 5507,
      "Ġì§ģë¬´": 5508,
      "ì²«ì§¸": 5509,
      "Ġê°ĦìĹĲ": 5510,
      "ë¯¼ê°Ħ": 5511,
      "ĠíķĻìĥĿëĵ¤ìĿ´": 5512,
      "33": 5513,
      "Ġå": 5514,
      "Ġo": 5515,
      "Ġë¶ĢíĴĪ": 5516,
      "Ġìĭ¸": 5517,
      "ëł¤ëĬĶ": 5518,
      "Ġê°ĲìĤ¬ë¥¼": 5519,
      "Ġìĺ¬ë°Ķë¥¸": 5520,
      "ë¬¼ë¡ľ": 5521,
      "Ġê°ķëĤ¨êµ¬": 5522,
      "ë§ĮìĿ´": 5523,
      "Ġë¬´ìĬ¨": 5524,
      "ĠìĿ´íķĺìĿĺ": 5525,
      "ĠëŃĲ": 5526,
      "Ġê°Ĳìĭľ": 5527,
      "Ġê²Ģì¦Ŀ": 5528,
      "Ġê³Ħê¸°ê°Ģ": 5529,
      "ìĥĿìĤ°": 5530,
      "Ġì»¤ë®¤ëĭĪíĭ°": 5531,
      "ĠíĴĪì¢ħ": 5532,
      "ĠëĨĴìĿ´ëĬĶ": 5533,
      "ìľĦê°Ģ": 5534,
      "ëŁīìĿĺ": 5535,
      "´ëĤ¨": 5536,
      "æĸĩ": 5537,
      "ĠíĨłìĸĳ": 5538,
      "ĠìĭľëĮĢìĹĲ": 5539,
      "ĠëĩĮ": 5540,
      "ë³´ëĬĶ": 5541,
      "ĠìĹ°ëĿ½": 5542,
      "47": 5543,
      "Ġì±": 5544,
      "æĺ": 5545,
      "Ġì¸¡ë©´ìĹĲìĦľ": 5546,
      "Ġê°ľìµľíķľëĭ¤": 5547,
      "Ġë§ŀì¶°": 5548,
      "Ġì¤ĳìĨĮ": 5549,
      "Ġê°Ĳì¶ķ": 5550,
      "Ġíķ´ìķĪ": 5551,
      "ĠíĺĳíļĮ": 5552,
      "Ġìŀħìŀ¥ìĿĦ": 5553,
      "ĠìĭłìĦł": 5554,
      "Ġëħ¸ì¶ľ": 5555,
      "Ġíĺ¸íħĶ": 5556,
      "ĠíĿ¥ë¯¸": 5557,
      "Ġê°ľíĨµ": 5558,
      "Ġê³łëĵ±íķĻêµĲ": 5559,
      "Ġìķŀìľ¼ë¡ľìĿĺ": 5560,
      "ĠíĻķë¦½": 5561,
      "Ġê°ķìĿĺ": 5562,
      "Ġê¸°ìĪłìĿĢ": 5563,
      "ĠëĳĶ": 5564,
      "Ġë§¥": 5565,
      "Ġë³´íĺ¸ë¥¼": 5566,
      "ĠìľĦìĽĲíļĮìĿĺ": 5567,
      "íĺĳìķ½ìĿĦ": 5568,
      "ìĺģìĥģ": 5569,
      "ĠëªħìĺĪ": 5570,
      "ĠëĤĺíĥĢëĤ¬ëĭ¤": 5571,
      "íķĺìĺĢëĤĺìļĶ": 5572,
      "ĠëıĦìĦľê´Ģ": 5573,
      "ĠìłĦíĻĶ": 5574,
      "íĨµíķ©": 5575,
      "êµĲìľ¡ì²ŃìĿ´": 5576,
      "ĠëĤłë¶ĢíĦ°": 5577,
      "ĠìĻĦìłĦíŀĪ": 5578,
      "ĠëĤĺëĪĶ": 5579,
      "ìĦľìĻĢ": 5580,
      "Ġíķ´ê²°ìĿĦ": 5581,
      "Ġìłľìĭľíķľ": 5582,
      "Ġì§Ģì¼ľ": 5583,
      "Ġë¹Ħì¤ĳ": 5584,
      "Ġë°ĳ": 5585,
      "Ġì¿ł": 5586,
      "Ġìĭłì¶ķ": 5587,
      "Ġìĸ¼êµ´": 5588,
      "ëĲĺê±°ëĤĺ": 5589,
      "Ġì¹´íİĺ": 5590,
      "ê´ĳê³ł": 5591,
      "ìŀĲëĤĺ": 5592,
      "ĠìĹ°ì£¼": 5593,
      "ĠíķŃë§Į": 5594,
      "ĠìŀĪìĸ´ìķ¼": 5595,
      "íĶĦë¦¬ì¹´": 5596,
      "ìłĦìŁģ": 5597,
      "Ġìļ´ìłĦ": 5598,
      "Ġì§ĢëĬ¥": 5599,
      "Ġêµ¬ìłľ": 5600,
      "ë¬¸ìĹĲ": 5601,
      "êµŃìĹĲ": 5602,
      "ĠíĻľìļ©íķ´": 5603,
      "Ġì¶ĶìĦĿ": 5604,
      "Ġê°Ĳìłķ": 5605,
      "ĠìĪĺíĸīíķĺëĬĶ": 5606,
      "Ġë°ĺíĻĺ": 5607,
      "ëĮ": 5608,
      "Ġë¹ħ": 5609,
      "Ġê¸°ìĽĲ": 5610,
      "æĿİ": 5611,
      "ĠìĪĺíķĻ": 5612,
      "ĠíĨłëĮĢë¡ľ": 5613,
      "Ġìŀħìŀ¥ìĿĢ": 5614,
      "ĠìŀĳëıĻ": 5615,
      "ĠëĮĢêµ¬ìĭľëĬĶ": 5616,
      "ĠìļĶì²Ńíķľ": 5617,
      "ê³łê¸°": 5618,
      "Ġp": 5619,
      "ë³´ê±´ë³µì§Ģ": 5620,
      "ĠëıĦì¶ľ": 5621,
      "Ġë§Īì§Ģë§ī": 5622,
      "Ġìĭ¬ìĤ¬ë¥¼": 5623,
      "ê¸°ë¶Ģ": 5624,
      "Ġì£¼ë¯¼ëĵ¤ìĿĺ": 5625,
      "NS": 5626,
      "ĠëĤĺìĻĢ": 5627,
      "Ġìĭľì±ħ": 5628,
      "Ġê°ľë°ľìĹĲ": 5629,
      "ĠìĿĺìĭ¬": 5630,
      "Ġê·ľìłķìĿ´": 5631,
      "ëĵľë¦¬ê²łìĬµëĭĪëĭ¤": 5632,
      "ĠíĿĲë¦Ħ": 5633,
      "ĠìĹ¬ê±´": 5634,
      "ĠìŀĲìĽĲìĿĦ": 5635,
      "æķ": 5636,
      "ĠëĤĺëĬĶ": 5637,
      "ëĲĺìĹĪìĿĦ": 5638,
      "ëıħêµĲ": 5639,
      "ìĻ¸êµĲ": 5640,
      "ĠìĹ°ëıĦ": 5641,
      "ĠìĤ¬íĽĦ": 5642,
      "Ġìľ¼": 5643,
      "Ġë²ķìĿĢ": 5644,
      "ĠíĻĺìŀĲìĿĺ": 5645,
      "ĠìĺĪìķ½": 5646,
      "ĠìĹŃíķłìĹĲ": 5647,
      "ìĿ´ìĥģìľ¼ë¡ľ": 5648,
      "Ġ119": 5649,
      "Ġê³µê°ĦìĿĦ": 5650,
      "ĠëĵľëŁ¬": 5651,
      "ĠìĺĪìłķìĿ´ë©°": 5652,
      "ĠëĴ·": 5653,
      "ĠìłĲìĹĲìĦľ": 5654,
      "Ġìłķë³": 5655,
      "êµĲìľ¡ì§ĢìĽĲ": 5656,
      "Ġê³łëł¤íķ´": 5657,
      "Ġê²½ìĥģëĤ¨ëıĦ": 5658,
      "Ġíķĺìħ¨": 5659,
      "ëĢ": 5660,
      "ìĸ´ëı": 5661,
      "Ġê¸ĪìĨį": 5662,
      "ë°ĺëıĦ": 5663,
      "Ġê³łìľł": 5664,
      "Ġì¤ĳìļĶíķľê°ĢìļĶ": 5665,
      "Ġë°©ìĭĿìĿĢ": 5666,
      "Ġìłľì£¼ëıĦ": 5667,
      "Â°": 5668,
      "ĠìĺĪìĤ°ìĿĺ": 5669,
      "Ġì²Ńì·¨": 5670,
      "Ġê²½ê³Ħ": 5671,
      "ĠìĥģíĻĺ": 5672,
      "32": 5673,
      "ëĵŃ": 5674,
      "ëł¹ìľ¼ë¡ľ": 5675,
      "íķ´ë": 5676,
      "ê°Ķëĭ¤": 5677,
      "ĠìĿĺíķĺë©´": 5678,
      "ë¶ģë¶Ģ": 5679,
      "ê¶": 5680,
      "ĠìĹ¬ê²¨": 5681,
      "Ġëį°ìĹĲ": 5682,
      "Ġë¶Ħìĸĳ": 5683,
      "Ġë¯¸êµŃìĿĺ": 5684,
      "ĠíĸĪëĬĶê°Ģ": 5685,
      "ĠìĤ´ìķĦ": 5686,
      "Ġìłģìłķ": 5687,
      "Ġì§ĢìłķëĲľ": 5688,
      "ë¬¸ìĿĢ": 5689,
      "ê²½ìĥģ": 5690,
      "ì§ģìĿĦ": 5691,
      "is": 5692,
      "íķ´ê°Ģ": 5693,
      "´ìĭł": 5694,
      "Ġë¹łë¥¸": 5695,
      "ĠíļĮìĤ¬": 5696,
      "ê¸°ìĹħìĿĺ": 5697,
      "º¼": 5698,
      "íĸīìłķìĤ¬ë¬´ê°ĲìĤ¬": 5699,
      "ê·¸ëŁ°ëį°": 5700,
      "ê°Ĳëıħ": 5701,
      "Ġë°°íı¬": 5702,
      "ìĪ²": 5703,
      "ë¬µ": 5704,
      "ìŀ¥ë¹Ħ": 5705,
      "Ġìĸĺ": 5706,
      "Ġë°©ë¬¸íķĺìĹ¬": 5707,
      "ìĹĪëĬĶëį°": 5708,
      "Ġê³ĦíļįìĿ¸ê°Ģ": 5709,
      "om": 5710,
      "195": 5711,
      "ì¹©ëĭĪëĭ¤": 5712,
      "ìĬ¤íĨł": 5713,
      "ë¡łìĿĦ": 5714,
      "Ġêµ¬ì¶ķìĿĦ": 5715,
      "Ġìĭ¤ìĭľíķĺëĬĶ": 5716,
      "êµ¬ìĹĲ": 5717,
      "ìĤ¬ìĹħìĿ´": 5718,
      "íĻĶíķĺê³ł": 5719,
      "Ġê¸°ìļ¸ìĹ¬": 5720,
      "ĠìĿ´ë£¨ìĸ´ì§Ħ": 5721,
      "ĠíĺĦíĻ©ìĹĲ": 5722,
      "ĠìĭľìĹĲ": 5723,
      "íķĺìĺĢëĬĶëį°": 5724,
      "ìĦľë¡ľ": 5725,
      "ìŀĲëĵ¤ìĿĦ": 5726,
      "Ġê³µìŀ¥": 5727,
      "Ġì¶Ķì§ĦìĿĦ": 5728,
      "Ġìľłë¦¬": 5729,
      "ê²łìĬµëĭĪê¹Į": 5730,
      "ë¨¼ìłĢ": 5731,
      "Ġ2006": 5732,
      "ëĭĪëĿ¼": 5733,
      "ĠTV": 5734,
      "íĴĢ": 5735,
      "Ġëĵľë¦¬ê²łìĬµëĭĪëĭ¤": 5736,
      "ìĦ¼íĭ°ë¸Į": 5737,
      "ĠìĿ´íķ´íķĺëĬĶ": 5738,
      "Ġì¤ĳë³µ": 5739,
      "Ġë°ĶëĢ": 5740,
      "ìĽĶìĹĲëĬĶ": 5741,
      "ĳìĬ¤íı¬": 5742,
      "Ġì§Ģê¸Īê¹Įì§Ģ": 5743,
      "Ġëī": 5744,
      "ĠëĮĢíĳľë°ľìĿĺ": 5745,
      "ĠìĹ°ìĪĺ": 5746,
      "ãĢī": 5747,
      "´ë¥ĺ": 5748,
      "Ġêµ¬ìĹŃ": 5749,
      "Ġë¨¸ë¦¬": 5750,
      "Ġê³µë¬´ìĽĲìĿĺ": 5751,
      "Ġìļ°ìĪĺìĤ¬ë¡Ģ": 5752,
      "Ġê°ķìĽĲëıĦ": 5753,
      "Ġê°ķì¡°íĸĪëĭ¤": 5754,
      "98": 5755,
      "ë¹Į": 5756,
      "ĠìĺĽ": 5757,
      "ĠìķĦëĵ¤": 5758,
      "ĠìľĦíĺĳ": 5759,
      "ë¶ĦìĦĿ": 5760,
      "ëķħ": 5761,
      "ĠìŀĦê¸ĪìĿ´": 5762,
      "Ġìľłìŀħ": 5763,
      "Ġíķ´ìĪĺ": 5764,
      "ë¥ĺìĿĺ": 5765,
      "ĠìĹ°íľ´": 5766,
      "ìłĪìĿĦ": 5767,
      "ĠëĴ¤ìĹĲ": 5768,
      "ìĭĿìľ¼ë¡ľ": 5769,
      "Ġì¦Ŀê°Ģíķľ": 5770,
      "ĠìĬ¤íĨł": 5771,
      "ĠìĦ¸ì¶ľìĺĪìĤ°": 5772,
      "Ġì²łìłĢíŀĪ": 5773,
      "Ġë°ĸìĹĲ": 5774,
      "íķĺì²ľ": 5775,
      "ì½©": 5776,
      "Ġìĸ´ë¨¸ëĭĪ": 5777,
      "ìłĪíķľ": 5778,
      "Ġê³µìĿµ": 5779,
      "ĠíĿĳ": 5780,
      "Ġëģ¼": 5781,
      "´ëł¤": 5782,
      "ì§ĪíĻĺ": 5783,
      "ĠìĿ¼ì¹ĺ": 5784,
      "ĠìŀĦìĭľíļĮ": 5785,
      "ĠìłĦëĤ¨ëıĦëĬĶ": 5786,
      "ĠëĳĺëŁ¬": 5787,
      "ìĨĮìĨ¡": 5788,
      "ĠëĤ´ìļ©ìĿĺ": 5789,
      "ĠìłĦë¬¸ê°ĢìĿĺ": 5790,
      "ĠìłľíĴĪìĿĺ": 5791,
      "ĠìŀĲë¦½": 5792,
      "ìĿĺíķĻ": 5793,
      "Ġê³µê³ł": 5794,
      "ìĿ¸ì¦Ŀ": 5795,
      "Ġ90": 5796,
      "ìĹ½": 5797,
      "ìĿ´ê²ĥ": 5798,
      "ë¦¬ì¦ĺ": 5799,
      "ìĸ´ë¡ľ": 5800,
      "Ġì§ĵ": 5801,
      "Ġì¶©ìłĦ": 5802,
      "íĶĮë£¨": 5803,
      "ë°±ë§Į": 5804,
      "100": 5805,
      "Ġìļķ": 5806,
      "ĠìķĬëĬĶëĭ¤": 5807,
      "Ġëª¨ìĹ¬": 5808,
      "ìĨĶ": 5809,
      "Ġìĸ´ë¦°": 5810,
      "Ġë©¸": 5811,
      "ì¦Į": 5812,
      "Ġë¬»": 5813,
      "ìĸ´ëıĦ": 5814,
      "ĠíĨµìĥģ": 5815,
      "Ġê°ĢìĿ´ëĵľ": 5816,
      "ĠëıĻíĸ¥": 5817,
      "ĠìĤ¬ìĹħê³¼": 5818,
      "Ġíı¬íķ¨ëĲľ": 5819,
      "ìĽħ": 5820,
      "å±±": 5821,
      "ëıĦìĦľê´Ģ": 5822,
      "IS": 5823,
      "íĬ¸ëĬĶ": 5824,
      "íħĮíģ¬ëħ¸": 5825,
      "Ġê´ĳìĸĳ": 5826,
      "´ëį¤": 5827,
      "Ġê¸°ìĪłìĿĺ": 5828,
      "ĠíĺķíĥľìĿĺ": 5829,
      "ĠìĿ¼íĻĺ": 5830,
      "Ġìŀ¥ê´ĢìĿ´": 5831,
      "ĠíĶ¼ëĵľë°±": 5832,
      "Ġ36": 5833,
      "ìĺ¨ëĿ¼ìĿ¸": 5834,
      "Ġë©Ģ": 5835,
      "ĠìĿ´ìłĦìĹĲ": 5836,
      "âĸ": 5837,
      "Ġë°©ìĤ¬": 5838,
      "ĠìŀĦìļ©": 5839,
      "ëĮĢìĻĢ": 5840,
      "Ġë¶Ģëĭ´ìĿĦ": 5841,
      "Ġê´Ģìĭ¬ìĿ´": 5842,
      "ed": 5843,
      "ĠëĪĦêµ¬ìĿ¸ê°ĢìļĶ": 5844,
      "ĠìĪĺê±°": 5845,
      "ĠíħĮë§Ī": 5846,
      "95": 5847,
      "ìĿ´ëķĮ": 5848,
      "Ġê°ĢìĿĦ": 5849,
      "ìĨĮìĦľ": 5850,
      "íĮĲìĿĦ": 5851,
      "ĠìĨĶ": 5852,
      "Ġë§Įìķ½": 5853,
      "ĠëķĮê¹Įì§Ģ": 5854,
      "ation": 5855,
      "Ġì¤ĳìĹĲëĬĶ": 5856,
      "ëħķ": 5857,
      "ĠìĥģíĻ©ê³¼": 5858,
      "Ġë¬¸ìłľìłĲìĿĦ": 5859,
      "ĠìķĪìłĦíķĺê²Į": 5860,
      "ĠëĬĲëĤĦ": 5861,
      "ĠëĤłì§ľ": 5862,
      "ìĥĿìĿĦ": 5863,
      "Ġìĭľë¯¼ëĵ¤ìĿ´": 5864,
      "ìłĢëĬĶ": 5865,
      "Ġë¬¼íĴĪ": 5866,
      "ĠìŀĪìĬµëĭĪê¹Į": 5867,
      "ê¸Īê³¼": 5868,
      "Ġíĺĳìķ½ìĿĦ": 5869,
      "ëĳĶ": 5870,
      "Ġê´Ģê³ĦëĬĶ": 5871,
      "2016": 5872,
      "Ġìłľê¸°íķľ": 5873,
      "ĠíĬ¹íĹĪ": 5874,
      "ìĤ¬íķŃìĿ´": 5875,
      "ìĸ´ìĿĺ": 5876,
      "ì²ľìĹ¬": 5877,
      "Ġì¡°ë¡ĢìķĪìĿ´": 5878,
      "ĠíĸīìĤ¬ê°Ģ": 5879,
      "Ġìĺµ": 5880,
      "íĬľë¸Į": 5881,
      "Ġ2005": 5882,
      "Ġìľłì§Ģíķĺê¸°": 5883,
      "ëĩ¨": 5884,
      "ĠìłģìĿĳ": 5885,
      "Ġë¶ĦìĦĿíķĺìĹ¬": 5886,
      "Ġìľ¡ìĦ±ìĿĦ": 5887,
      "ìľĦìĽĲëĵ¤ìĿ´": 5888,
      "Ġë¶ĦìŁģ": 5889,
      "ìľ¨ìĿĦ": 5890,
      "íĺĦìŀ¥": 5891,
      "Ġê´ĢëŀĮê°Ŀ": 5892,
      "ĠíĥľíĴį": 5893,
      "ĠìłľìķĪíķľ": 5894,
      "Ġíĺģ": 5895,
      "ĠìĭłìķĻ": 5896,
      "Ġìľłì§Ģíķł": 5897,
      "ĠëķĮë¬¸ìĿ´ëĭ¤": 5898,
      "Ġì§ĢìĭĿìĿĦ": 5899,
      "ìĤ°ì§Ģ": 5900,
      "ëŃ": 5901,
      "ê³µìłķ": 5902,
      "Ġëľ»ìĿĦ": 5903,
      "ĠìłĦëħĦ": 5904,
      "Ġìĸ¸ê¸īëĲĺìĹĪëĬĶëį°": 5905,
      "íĺķìĿĦ": 5906,
      "Ġìĸ´ë¦°ìĿ´ì§ĳ": 5907,
      "Ġë¬¸íĻĶìĻĢ": 5908,
      "2015": 5909,
      "ìļ°ìĦł": 5910,
      "Ġê´Ģëł¨íķ´": 5911,
      "2019": 5912,
      "Ġìļ°ë¦¬ëĬĶ": 5913,
      "ë¶Ģëĭ´": 5914,
      "Ġë¶Ģëĵľ": 5915,
      "ĠíĮ¬": 5916,
      "ĠëĦĺìĸ´": 5917,
      "ĠëıĻìŀĳ": 5918,
      "ê³µìĹħ": 5919,
      "ëĭ¹ìĿĢ": 5920,
      "Ġë°ĶëĿ¼": 5921,
      "ë°ĸ": 5922,
      "å¹": 5923,
      "Ġëĭ¤ë£¨ëĬĶ": 5924,
      "ĠìĦ±ê³µìłģìľ¼ë¡ľ": 5925,
      "ìļ°ëĬĶ": 5926,
      "ì§Ģíķĺ": 5927,
      "ëª½": 5928,
      "ĠìŀĲìĤ°": 5929,
      "ĠëĤ´ìļ©ê³¼": 5930,
      "Ġì¤ĦìĿ¼": 5931,
      "ê¸°ê³ł": 5932,
      "ëª©ìĿĦ": 5933,
      "ĠìĪĺë¦¬": 5934,
      "ĠìĿ¸ìĽĲ": 5935,
      "Ġê°ĲìķĪ": 5936,
      "ë¶ĢìĤ°ìĭľê°Ģ": 5937,
      "Ġíı¬ìŀ¥": 5938,
      "ĠêµĲíĻ©": 5939,
      "êµ¬ëĬĶ": 5940,
      "ë¶ĢìĤ°ìĿĺ": 5941,
      "ìĿĺìĤ¬ìĿ¼ìłķ": 5942,
      "Ġê±°ë¶Ģ": 5943,
      "Ġê±°ì¹ĺ": 5944,
      "ĠëĬ¦": 5945,
      "ĠìĤ°ìłķ": 5946,
      "ì²Ńê³¼": 5947,
      "ĠíĥĢëĭ¹": 5948,
      "Ġì§Ģì§Ħ": 5949,
      "Ġë¶ĪìķĪ": 5950,
      "ĠìĭľëĮĢìĿĺ": 5951,
      "ë¶ķ": 5952,
      "ĠìĿ´ë¯¸ì§Ģ": 5953,
      "ìłĦìĿ´": 5954,
      "Ġê¶Įê³ł": 5955,
      "ë°©ìĹŃ": 5956,
      "Ġì¦Ŀëªħ": 5957,
      "ĠìłķëıĦë¡ľ": 5958,
      "ìŀĦìĭľ": 5959,
      "Ġê°ľìµľëĲĺëĬĶ": 5960,
      "ĠìĨĮë°©ìĦľ": 5961,
      "Ġê¸īìĭĿ": 5962,
      "Ġë¹Ħíĸī": 5963,
      "ĠìŀĪìĹĪìľ¼ë©°": 5964,
      "ĠìĤ¬íļĮìĿĺ": 5965,
      "ë¡ľìĦľìĿĺ": 5966,
      "êµ°ìĿĦ": 5967,
      "ëłī": 5968,
      "Ġë°ľìłĦê³¼": 5969,
      "Ġì¤ĦìĿ´ê¸°": 5970,
      "ìĭľíĤµëĭĪëĭ¤": 5971,
      "Ġìŀĥ": 5972,
      "ìĿ´ë²Ħ": 5973,
      "ĠìĿ¼ìĭľ": 5974,
      "ìĿ¼ë¶Ģ": 5975,
      "Ġë¶Ģë¶ĦìĹĲìĦľ": 5976,
      "íĺķìĿĺ": 5977,
      "44": 5978,
      "Ġíļ¨ê³¼ëĬĶ": 5979,
      "ëĨįì´Įì§ĦíĿ¥": 5980,
      "»į": 5981,
      "99": 5982,
      "ĠíĪ¬íĳľ": 5983,
      "Ġë°©ì§Ģíķĺê¸°": 5984,
      "ĠìĤ¬ìļ©ìŀĲ": 5985,
      "å®ĺ": 5986,
      "Ġëª¨ìķĦ": 5987,
      "Ġì²´ëĤ©": 5988,
      "ë¥łìĿĢ": 5989,
      "ĠìĿ´ìķ¼ê¸°ê°Ģ": 5990,
      "Ġê°ķìĽĲ": 5991,
      "Ġë¶ĦìľĦê¸°ë¥¼": 5992,
      "ĠìĹħë¬´íĺĳìķ½": 5993,
      "ìĭľíĤ¨": 5994,
      "ë©ĺ": 5995,
      "Ġë°ľê²¬ëĲľ": 5996,
      "ĠëĤĺë¨¸ì§Ģ": 5997,
      "ìļ°ëĵľ": 5998,
      "ê³¼ìŀ¥ìĿ´": 5999,
      "ĠìļĶê¸Ī": 6000,
      "Ġìĭ¤ìĭľíķľëĭ¤": 6001,
      "çİ": 6002,
      "Ġë§ŀìĿ´": 6003,
      "ìĿ´ë²ĪìĹĲ": 6004,
      "Ġìĭ¤ëĤ´": 6005,
      "ëł¹ìĿ´": 6006,
      "Ġìŀħìŀ¥": 6007,
      "ê¸°ë¡Ŀ": 6008,
      "Ġê°ķì¡°íķľ": 6009,
      "ĠìĹŃìŀĦ": 6010,
      "Ġë§ĪìĬ¤íģ¬": 6011,
      "Ġìłģë°ľ": 6012,
      "ĠìĽĶëĵľ": 6013,
      "ol": 6014,
      "ĠìĹĨê³ł": 6015,
      "´ë°©": 6016,
      "ëĵ¬": 6017,
      "è«": 6018,
      "ĠìĦłë³´": 6019,
      "%)": 6020,
      "ĠìĪĺìĿĺ": 6021,
      "ĠìĿ´ë¯¸ì§Ģë¥¼": 6022,
      "ëĨįìłķ": 6023,
      "ìĦłìĿ´": 6024,
      "ë°©íĸ¥": 6025,
      "Ġê¸°ìĥģ": 6026,
      "Ġìłķì±ħìĿĢ": 6027,
      "ìºĲ": 6028,
      "ìĪĺë¡Ŀ": 6029,
      "Ġìĭ¤ìĭľíķł": 6030,
      "ĠìĿ¸ì§Ģ": 6031,
      "ë¶ĦìĹĲ": 6032,
      "Ġê¶ģê¸Īíķ©ëĭĪëĭ¤": 6033,
      "êµ°ìĹĲ": 6034,
      "ìĿ¼ìĹĲëĬĶ": 6035,
      "Ġ2023": 6036,
      "Ġê¸°ìĪłìĿ´": 6037,
      "Ġê´Ģëł¨ìĿ´": 6038,
      "ĠìĦ¸ì¢ħ": 6039,
      "ë³ĢíĻĶ": 6040,
      "ìĭľíĸīìĿ¼": 6041,
      "ĠìĪĺíĻķ": 6042,
      "ĠìĭłìĨįíķľ": 6043,
      "Ġë¹Ħë°Ģ": 6044,
      "ë²¤": 6045,
      "ĠìĨĮë°©ë³¸ë¶Ģ": 6046,
      "Ġë²¤ì²ĺ": 6047,
      "Ġê²½ë¶ģ": 6048,
      "ìĸ´ë§": 6049,
      "ĠìĪ¨": 6050,
      "ìĬ¤íı¬ì¸ł": 6051,
      "ĠìłĦëĤ¨ìĿĺ": 6052,
      "ĠëĤĺíĥĢëĤ": 6053,
      "êµŃìĿĦ": 6054,
      "Ġë¬¸íĻĶìłģ": 6055,
      "ìĬ¤ìĹĲ": 6056,
      "ĠìĿ´ë©": 6057,
      "ĠíĸĪìĬµëĭĪëĭ¤": 6058,
      "Ġê·¸ë¦¬": 6059,
      "Ġë¬ĺìĤ¬": 6060,
      "ĠëıĻìĿ¼íķľ": 6061,
      "Ġê°Ĳë©´": 6062,
      "ĠìĤ¬ìĹħë¹Ħ": 6063,
      "íķľëĭ¤ë©´": 6064,
      "Ġì¶©ëıĮ": 6065,
      "ĠìłĪì°¨ê°Ģ": 6066,
      "ê³Ħê°Ģ": 6067,
      "Ġíħį": 6068,
      "ë¦¬íķĻ": 6069,
      "ìĦ¸ìĹĲ": 6070,
      "Ġê°ĢëĬ¥íķĺëĭ¤": 6071,
      "Ġê°ľë°ľíķĺê³ł": 6072,
      "ëĭĲ": 6073,
      "Ġíķ´ìłľ": 6074,
      "ĠêµĲìľ¡ìĿĢ": 6075,
      "ĠíķĺëĤĺìĿĺ": 6076,
      "Ġìŀħë²ķ": 6077,
      "ĠìĺģìĹŃ": 6078,
      "ĠìĦ¸ë¯¸ëĤĺ": 6079,
      "ìŀĳíĴĪ": 6080,
      "ĠìĭĿìĤ¬": 6081,
      "ìĪľíĻĺ": 6082,
      "ĠëĤ´ëł": 6083,
      "Ġìľłì¹ĺë¥¼": 6084,
      "Ġìĭľë¯¼ëĵ¤ìĹĲê²Į": 6085,
      "íĺģëªħ": 6086,
      "Ġì¢ħê²°": 6087,
      "ĠìĿ¸ìĦ¼íĭ°ë¸Į": 6088,
      "Ġë³ĢíĻĶìĻĢ": 6089,
      "ĠìĦ±ë¦½": 6090,
      "90": 6091,
      "ĠíĶĦë¡ľê·¸ëŀ¨ìĹĲ": 6092,
      "ĠíķĺìĹ¬ê¸Ī": 6093,
      "ĠìĪĻë°ķ": 6094,
      "Ġë³´ìĿ´ê³ł": 6095,
      "ĠíĪ¬ìŀĲìľłì¹ĺ": 6096,
      "Ġë°©íĸ¥ìĿĦ": 6097,
      "Ġëĭ¹ìĤ¬": 6098,
      "ĠìłĦíĨµìłģìĿ¸": 6099,
      "ì¶Ķìĸ´": 6100,
      "Ġëª¨ë°ĶìĿ¼": 6101,
      "Ġëł": 6102,
      "ĠíĸīìľĦë¥¼": 6103,
      "Ġì·¨ìŀĦ": 6104,
      "ì¹ľíĻĶ": 6105,
      "ë¥´ê¸°": 6106,
      "Ġê¸°ê´ĢìĿĢ": 6107,
      "ìĿ¸íĦ°ëĦ·": 6108,
      "ĠìĺĪë°©ìłĳì¢ħ": 6109,
      "Ġê°ľì²Ļ": 6110,
      "Ġê°Ģì§Ī": 6111,
      "ìĭ¤ìŀ¥ìĿĢ": 6112,
      "ĠíĬ¹ë¡Ģ": 6113,
      "ĠëĤĺìĻĶëĤĺìļĶ": 6114,
      "Ġë¬´ìĹĩìĿ¼ê¹ĮìļĶ": 6115,
      "ê²½ìŁģ": 6116,
      "ë°ķë¬¼ê´Ģ": 6117,
      "Ġê°ķíķľ": 6118,
      "Ġì´Īëŀĺ": 6119,
      "ĠìĿ´íĽĦìĹĲ": 6120,
      "Ġë¶Ģìłģ": 6121,
      "ë¥łìĿĦ": 6122,
      "êµĲìĤ¬": 6123,
      "åŁ": 6124,
      "Ġíķĺê²łëĭ¤": 6125,
      "Ġìłľì£¼íĬ¹ë³ĦìŀĲì¹ĺ": 6126,
      "ĠìĨĮíĻĶ": 6127,
      "Ġê·¸ê°Ģ": 6128,
      "Ġê²½ëł¥": 6129,
      "Ġë§ĮìĹĲ": 6130,
      "ìĿ´ëŁ°": 6131,
      "ìłĦíĨµ": 6132,
      "ìĮĢ": 6133,
      "Ġëĵ±ìĿ´ëĭ¤": 6134,
      "´ëĶ": 6135,
      "ĠëĨįë¯¼": 6136,
      "Ġìĥģë°ĺê¸°": 6137,
      "96": 6138,
      "ĠëĮĢë¦¬": 6139,
      "ĠëıĻë¶Ģ": 6140,
      "Ġì¶ķìĤ°ë¬¼": 6141,
      "ĠìľłìĹ°": 6142,
      "ìŀ¥ìķł": 6143,
      "ĠìĹĨëıĦë¡Ŀ": 6144,
      "Ġì²´ê³Ħë¥¼": 6145,
      "è³": 6146,
      "ĠëıĦìłķ": 6147,
      "ĠìłĢëĬĶ": 6148,
      "Ġê°ķëł¥íķľ": 6149,
      "íĭ´": 6150,
      "Ġì¹ľíĻĺê²½ëĨįìĹħ": 6151,
      "Ġê°ĢìĦľ": 6152,
      "ĠëĲĺìĹĪëĬĶê°Ģ": 6153,
      "Ġì¡°ë¡ĢìķĪìĿĺ": 6154,
      "ì£¼ê°Ģ": 6155,
      "ê¶ĮìĹĲ": 6156,
      "ch": 6157,
      "Ġìłķë³´íĻĶ": 6158,
      "ĠìĹĨìľ¼ë¯Ģë¡ľ": 6159,
      "%,": 6160,
      "Ġìĸ¸ê¸īëĲĺìĹĪëĤĺìļĶ": 6161,
      "ë²¤ì²ĺ": 6162,
      "Ġìĺ¤ë¥¸": 6163,
      "Ġì£¼ìĿ¸ê³µ": 6164,
      "ĠëĨįìĸ´ì´Į": 6165,
      "Ġë°Ľê¸°": 6166,
      "Ġì°¸ì¡°": 6167,
      "ìķĦë¦¬": 6168,
      "ĠíĸīìĤ¬ìĹĲ": 6169,
      "ìĿ¸ìĤ¬": 6170,
      "Ġíĸ¥ìĥģìĭľíĤ¤ëĬĶ": 6171,
      "ìłĲìľ¼ë¡ľ": 6172,
      "ĠìĹĲëĦĪì§Ģë¥¼": 6173,
      "Ġì¤ĳìļĶíķľê°Ģ": 6174,
      "ê°Ĵ": 6175,
      "Ġìłľì¶ľíķľ": 6176,
      "ĠíĴįë¶Ģíķľ": 6177,
      "íķŃìłľ": 6178,
      "Ġìĺ¨ìĭ¤": 6179,
      "ëĲĺìĹĪìĿĮìĿĦ": 6180,
      "Ġê³ĦìĨįíķ´ìĦľ": 6181,
      "ì¤ĳêµŃ": 6182,
      "ĠìĬ¤íĬ¸ëłĪìĬ¤ë¥¼": 6183,
      "äºĭ": 6184,
      "Ġê°ľìĿ¸ìłģìĿ¸": 6185,
      "Ġê²Įìĭľ": 6186,
      "Ġìĵ´": 6187,
      "ou": 6188,
      "ìłķë¹Ħ": 6189,
      "ĠëĭĪ": 6190,
      "éķ": 6191,
      "ìĦ¼íĦ°ë¥¼": 6192,
      "ĠìĭľìĬ¤íħľìĿĢ": 6193,
      "ìĤ¬íļĮë³µì§Ģ": 6194,
      "ĠìĨĮê·ľëª¨": 6195,
      "íļĮìŀ¥": 6196,
      "ĠìĿ´ê³³": 6197,
      "Ġë°ĿíĺĢ": 6198,
      "ĠìĪľíĻĺ": 6199,
      "ê³µíĻĶ": 6200,
      "éķ·": 6201,
      "ĠìĤ¬ìľ¡": 6202,
      "ĠìķłíĶĮ": 6203,
      "éĢ": 6204,
      "Ġê°ĢëĬ¥ìĦ±ìĿĦ": 6205,
      "Ġë°Ķê¾¸": 6206,
      "Ġê¸°íļĮê°Ģ": 6207,
      "ĠëĤĺì£¼": 6208,
      "Ġì§§": 6209,
      "ê´ĳì£¼": 6210,
      "ìĦ°": 6211,
      "ìĭĿìĿĺ": 6212,
      "Ġì¶Ķìłģ": 6213,
      "Ġê¸°ê´ĢìĿĺ": 6214,
      "íĨłì§Ģ": 6215,
      "ĠìĺģëĨį": 6216,
      "Ġì§Ģë°°": 6217,
      "Ġê³łêµ¬": 6218,
      "Ġëĵ¯": 6219,
      "ë³´ìłĦ": 6220,
      "Ġê°ľìĦłìĿ´": 6221,
      "Ġë³´ê±´íĻĺê²½ìĹ°êµ¬": 6222,
      "ë¶Ģì²ĺ": 6223,
      "ĠëĶ°ëľ»": 6224,
      "ìķ¡ìĿĺ": 6225,
      "ĠíķĦìļĶíķĺëĭ¤": 6226,
      "ê³½": 6227,
      "ì¶ķìłľ": 6228,
      "ëł¹ìĿĦ": 6229,
      "ĠíĻĶíķ©": 6230,
      "ëıĻìĿĦ": 6231,
      "ĠëıĦì²Ń": 6232,
      "íĦ°ë¦¬": 6233,
      "íĶĪ": 6234,
      "ĠíĨµìłľ": 6235,
      "Ġ45": 6236,
      "Ġìłķì¹ĺìłģ": 6237,
      "ì§ĢëĤĺìļĶ": 6238,
      "Ġë¹Ħìļ©ìĿ´": 6239,
      "ìłĦíķľ": 6240,
      "Ġ2000": 6241,
      "ĠìŀĪìĹĪëĤĺ": 6242,
      "ë§¨": 6243,
      "ë¡¤": 6244,
      "ĠìĿ¸ìĩĦ": 6245,
      "íķ¨ìĿ´": 6246,
      "ìĸ´ëĤ´": 6247,
      "BS": 6248,
      "ëĵ¯": 6249,
      "ì¡°ë¥¼": 6250,
      "ĠìĿ¸ìĭĿìĿĦ": 6251,
      "ĠìĥĪë¡Ńê²Į": 6252,
      "ìŀĲë¦¬ë¥¼": 6253,
      "ĠëıħíĬ¹íķľ": 6254,
      "íĺ¸ìĹĲ": 6255,
      "íķŃìĿĦ": 6256,
      "Ġê¸°ë³¸ê³Ħíļį": 6257,
      "Ġê¸°ë°ĺìĿĦ": 6258,
      "Ġë³´ìķĦ": 6259,
      "ĠëłĪìĿ´": 6260,
      "Ġì°¨ì§Ī": 6261,
      "âī«": 6262,
      "èģ": 6263,
      "ê¸°ë°ĺ": 6264,
      "ĠìłģìĿĢ": 6265,
      "ìĿĺíļĮìĤ¬ë¬´ì²ĺ": 6266,
      "íıīëĵ±": 6267,
      "Ġì¶©ì²Ń": 6268,
      "Ġë°©ë¬¸íķ´": 6269,
      "Ġíķ´ë³": 6270,
      "äºº": 6271,
      "ĠìŀĪìĹĪëĬĶê°Ģ": 6272,
      "Ġì§Ģíľĺ": 6273,
      "ĠìĤ¼ìĦ±": 6274,
      "Ġë¶ģë¶Ģ": 6275,
      "Ġê²°ìłķìĿ´": 6276,
      "Ġë³Ģíĺ¸": 6277,
      "Ġê°ķíĻĶíķł": 6278,
      "ĠëĪĦêµ¬ëĤĺ": 6279,
      "ĠìĬ¤ë§ĪíĬ¸íı°": 6280,
      "íıĲê¸°": 6281,
      "ĠëĮĢìĿĳìĿĢ": 6282,
      "´ë©ĶëĿ¼": 6283,
      "Ġíģ´ëĿ¼": 6284,
      "ĠìĥģìĦ¸íŀĪ": 6285,
      "ìħĶìĦľ": 6286,
      "Ġê°ĸì¶Ķê³ł": 6287,
      "Ġë¿Ĳë§Į": 6288,
      "êµĲë¥ĺ": 6289,
      "ëĭ¨ìĨį": 6290,
      "Ġìĭľíĸīê·ľì¹Ļ": 6291,
      "ĠíķĦìļĶíķł": 6292,
      "Ġë²łíĬ¸ëĤ¨": 6293,
      "æĶ": 6294,
      "97": 6295,
      "ĠêµŃê³ł": 6296,
      "Ġê³łëł¹": 6297,
      "ĠëķĮìĿĺ": 6298,
      "ĠëĮĢíĻĶë¥¼": 6299,
      "íĨłë¡ł": 6300,
      "ìĭľìĦ¤ìĹĲ": 6301,
      "ìĭľë¡ľ": 6302,
      "´ë¶ĢíĦ°": 6303,
      "ë©´ìĿĺ": 6304,
      "Ġê¸īìĹ¬": 6305,
      "ì¡°ìĹĲìĦľ": 6306,
      "Ġíķ©ê²©": 6307,
      "Ġì¶Ķì²ľíķ´": 6308,
      "ë¶ĢìĤ°ìĭľìĿĺíļĮìĹĲìĦľ": 6309,
      "ģëĭĪëĭ¤": 6310,
      "ìĦ¸ëĬĶ": 6311,
      "Ġëĵľë¦½ëĭĪëĭ¤": 6312,
      "ĠëĮĢë¶Ģë¶ĦìĿĺ": 6313,
      "Ġê¸°ê´ĢìĿ´": 6314,
      "ĠìŀĳíĴĪìĿĢ": 6315,
      "ent": 6316,
      "ê°ľë¥¼": 6317,
      "ĠìĿ´ê²ĥìĿ´": 6318,
      "éĸ": 6319,
      "ê³µìŀĲ": 6320,
      "ĠìŀħíķĻ": 6321,
      "ê²°ê³¼": 6322,
      "ĠìłĦëĤ¨ì§ĢìĹŃ": 6323,
      "ĠìĹ´ë¦¬ëĬĶ": 6324,
      "ìĤ°ìĹħì§ĦíĿ¥": 6325,
      "Ġì·¨ìķ½ê³Ħì¸µ": 6326,
      "ìľĦìĽĲíļĮë¥¼": 6327,
      "ĠìĿ´ìļ©íķĺëĬĶ": 6328,
      ".'": 6329,
      "Ġê°Ģê¹Įìļ´": 6330,
      "Ġìĭłì²ŃìĿĦ": 6331,
      "ĠìĿĳëĭµ": 6332,
      "Ġê³łìľĦ": 6333,
      "Ġì£¼ìĭŃìĭľìĺ¤": 6334,
      "Ġì§ĢìĤ¬": 6335,
      "íļĮìĻĢ": 6336,
      "ĠìĿ¸íķĺìĹ¬": 6337,
      "Ġìłľìĸ´": 6338,
      "ĠIT": 6339,
      "ĠìĹ´ëł": 6340,
      "Ġëĭ¤ë¬¸íĻĶ": 6341,
      "Ġì§Ģìłģíķľ": 6342,
      "ìĿ´ëĦĪ": 6343,
      "AI": 6344,
      "Ġì§ĦíĸīëĲľëĭ¤": 6345,
      "Ġìµľì´ĪìĿĺ": 6346,
      "ì§ĢëĤľíķ´": 6347,
      "ĠêµĲìľ¡ê³¼ìłķ": 6348,
      "ì£¼ê¸°": 6349,
      "ĠìļĶê±´": 6350,
      "Ġìłĳì´ī": 6351,
      "ĠìĥĿì¡´": 6352,
      "Ġêµ¬ìĦ±ìĽĲ": 6353,
      "ìĭľìĹĲìĦľ": 6354,
      "Ġì§ĦíĸīëĲł": 6355,
      "Ġìĸ¸ê¸īìĿ´": 6356,
      "ëıĻì¡°íķ©": 6357,
      "ĠìĤ¬íļĮìłģìĿ¸": 6358,
      "am": 6359,
      "ìĺģíĻĶ": 6360,
      "ìĿ´ìľł": 6361,
      "ĠìĿ¼íĻĺìľ¼ë¡ľ": 6362,
      "Ġëĭ¤ì§Ĳ": 6363,
      "Ġíĺ¸íĿ¡": 6364,
      "Ġëļ": 6365,
      "ĠìĻĦê³µ": 6366,
      "ìŀĳìĹħ": 6367,
      "as": 6368,
      "ì²´ìĹĲ": 6369,
      "ĠìĽĲìŀĲ": 6370,
      "å¥": 6371,
      "ĠìķĪìłĦìĦ±": 6372,
      "íķĺìĭľëĬĶ": 6373,
      "Ġê°ķì¡°íķĺê³ł": 6374,
      "ì¡°ê°Ģ": 6375,
      "Ġê·¸ëŀĺìĦľ": 6376,
      "Ġ150": 6377,
      "ìĿĺíļĮìĿĺ": 6378,
      "íĳľì¤Ģ": 6379,
      "ĠìĤ¬ëĬĶ": 6380,
      "41": 6381,
      "Ġë§¤ê°ģ": 6382,
      "ĠìŀĪìĹĪìĬµëĭĪëĭ¤": 6383,
      "Ġë½": 6384,
      "ĠìĭľìĦ¤ìĿĺ": 6385,
      "ë°©ìķĪ": 6386,
      "ìĿĮìĿ´": 6387,
      "Ġìłķë¡Ģ": 6388,
      "Ġíľ´ëĮĢ": 6389,
      "åĵ¡": 6390,
      "Ġë°©ìķĪìĿ´": 6391,
      "Ġê°Ģìĥģ": 6392,
      "Ġìĸ¼ë§ĪìĿ¸ê°ĢìļĶ": 6393,
      "ê°Ģì¹ĺ": 6394,
      "Ġìłķëĭ¹": 6395,
      "Ġëħ¸ëł¥íķĺê²łëĭ¤": 6396,
      "ĠëıĦì°©": 6397,
      "Ġì¢ħì¢ħ": 6398,
      "ĠëªħìĿĦ": 6399,
      "ĠëıĦìłĦ": 6400,
      "ä¹": 6401,
      "Ġì±Ħë¬´": 6402,
      "Ġê´Ģë¦¬ìĻĢ": 6403,
      "ìĿ¸ìŀ¬": 6404,
      "Ģëĭ¤": 6405,
      "Ġëħ¸ëł¥íķ´": 6406,
      "Ġíķĺë°ĺê¸°": 6407,
      "Ġìŀ¬ë¬´": 6408,
      "ë¬¸ìłľ": 6409,
      "ĠìĸĳêµŃ": 6410,
      "ĠìĤ¬ìĿ´ë²Ħ": 6411,
      "Ġì§ĢìĽĲíķľëĭ¤": 6412,
      "êµŃë°©": 6413,
      "Ġê°ķíĻĶíķĺëĬĶ": 6414,
      "Ġì°¨ìĽĲìĹĲìĦľ": 6415,
      "ìĭ¤íķľ": 6416,
      "ĠìĭľìĦ¤ìĿ´": 6417,
      "ĠìĿ´ë£¨ìĸ´ì§Ī": 6418,
      "íĹ¬": 6419,
      "Ġë¯¸íĿ¡": 6420,
      "´ë¬¸": 6421,
      "Ġì¹Ń": 6422,
      "ĠëĤĺíĥĢëĤľ": 6423,
      "ĠíķĺëĬĺ": 6424,
      "Ġëĭ¨ê³Ħë¥¼": 6425,
      "ĠìĤ¬ê±´ìĿĦ": 6426,
      "Ġìĭłê²½": 6427,
      "ĠìĦ±ìŀ¥ìĿĦ": 6428,
      "ê³µìĺĪ": 6429,
      "Ġê·¸ê²ĥìĿĦ": 6430,
      "Ġìķŀìŀ¥": 6431,
      "Ġì§ĪìĿĺíķĺìĭ¤": 6432,
      "ĠìĤ°ìĹħìĿĺ": 6433,
      "ì´Ŀë¦¬": 6434,
      "ĠêµĲë¶Ģ": 6435,
      "ì¡°ëĭ¬": 6436,
      "ì¤ĳë¦½": 6437,
      "ĠìĭĿë³Ħ": 6438,
      "ëıĻê°ķ": 6439,
      "¼ìĨĲ": 6440,
      "ëĭ¨ìľĦ": 6441,
      "ĠìĤ¬ìļ©íķľ": 6442,
      "Ġìĸ´ì°Į": 6443,
      "ĠìłķëıĦìĿĺ": 6444,
      "ĠìľłìĿ¼": 6445,
      "ìĪĺëª©": 6446,
      "ĠíĻľìļ©íķĺëĬĶ": 6447,
      "ìĿĺìķ½íĴĪ": 6448,
      "Ġë¯¸ì¹©ëĭĪëĭ¤": 6449,
      "íĺĦëĮĢ": 6450,
      "ĠìĹĨìĿĦ": 6451,
      "Ġìĭľë¯¼ìĿĺ": 6452,
      "Ġë°©ìĭĿìĹĲ": 6453,
      "æ³": 6454,
      "ĠìĤ¬ë£Į": 6455,
      "ìĿ¼ë¡ľ": 6456,
      "Ġê³³ìĹĲ": 6457,
      "ĠìĹĲê²Į": 6458,
      "ëª¬": 6459,
      "ëĶĶì§ĢíĦ¸": 6460,
      "Ġê°ģê°ģìĿĺ": 6461,
      "Ġìŀłìŀ¬": 6462,
      "Ġë¹Ħìľ¨ìĿĢ": 6463,
      "Ġë¶ĪëŁ¬": 6464,
      "ĠìĨĮìĥģê³µìĿ¸": 6465,
      "Ġíģ´ëŀĺ": 6466,
      "ĠëıĦìĻĢì¤įëĭĪëĭ¤": 6467,
      "ë°ĸìĹĲ": 6468,
      "ĠìľĦìĽĲìŀ¥": 6469,
      "ĠìķĪìłĦìĤ¬ê³ł": 6470,
      "ë¦¬ì¦Ī": 6471,
      "ĠìĥģìĪĺëıĦ": 6472,
      "ìĤ°ìĿĺ": 6473,
      "ĠìľłìķĦ": 6474,
      "Ġê°ĢìĪĺ": 6475,
      "Ġìłķì±ħìĿ´": 6476,
      "ĠìĹĨìľ¼ìĭŃëĭĪê¹Į": 6477,
      "Ġìĭ¤ìłģ": 6478,
      "ëıĦìĭľì²łëıĦ": 6479,
      "ê°Ģë¡ľ": 6480,
      "ĠìŀĪìľ¼ë©´": 6481,
      "ìĭ¸": 6482,
      "Ġì°¸ìĹ¬íķ´": 6483,
      "ĠíĺĳìĿĺë¥¼": 6484,
      "Ġíķ¨ê»ĺíķĺëĬĶ": 6485,
      "ëĭ¨ê³¼": 6486,
      "ĠìĤ¬ìĿ´íĬ¸": 6487,
      "Ġê·¼ë¡ľìŀĲ": 6488,
      "íĨµìĥģìŀĲìĽĲ": 6489,
      "Ġê¶Įë¦¬": 6490,
      "Ġì¶¤": 6491,
      "ĠíĻķìĿ¸íķĺëĬĶ": 6492,
      "ëĤ´ê³ł": 6493,
      "ì½ĺíħĲì¸ł": 6494,
      "Ġíļ¨ìľ¨ìĦ±ìĿĦ": 6495,
      "Ġì·¨ê¸ī": 6496,
      "ĠíĮĮíĬ¸": 6497,
      "ĠëĮĢì¤ĳêµĲíĨµ": 6498,
      "Ġë³´ìĿ´ëĬĶ": 6499,
      "ëĪĪ": 6500,
      "ĠíĨ¤": 6501,
      "ìĹ°ìĿĦ": 6502,
      "Ġê²½íĸ¥": 6503,
      "Ġë§Įíķľ": 6504,
      "ĠíĻľìĦ±íĻĶìĹĲ": 6505,
      "Ġë³ĢíĻĶëĬĶ": 6506,
      "Ġë§Ĳê¹Įì§Ģ": 6507,
      "ìķĪìłĦì²ĺ": 6508,
      "ĠìľĦìŀĦ": 6509,
      "Ġì§ĢìĽĲíķ´": 6510,
      "ìŀĦê¸ĪìĿ´": 6511,
      "ĠëĤ´ìĿĺ": 6512,
      "Ġ2004": 6513,
      "ĠìľłìĹĶ": 6514,
      "Ġê¸°êµ¬": 6515,
      "Ġì¶ľë°ľ": 6516,
      "ë§Įê¸Ī": 6517,
      "ĠíĶĦë¡ľìłĿíĬ¸ë¥¼": 6518,
      "ĠìĭŃ": 6519,
      "ĠíĺĦíĻ©ìĿĦ": 6520,
      "ì§Ģê²Į": 6521,
      "ĠìķĮëł¤ì¤Ħ": 6522,
      "Ġê¸Īìķ¡ìĿĢ": 6523,
      "Ġë¸Ķë¡Ŀ": 6524,
      "Ġë³´ê°ķ": 6525,
      "ëĭī": 6526,
      "ĠìĪĺìĪł": 6527,
      "ì°½ì¡°": 6528,
      "ĠìĿ´ê²ĥìĿĢ": 6529,
      "íĺ¸ëĬĶ": 6530,
      "ĠìķĬìĬµëĭĪëĭ¤": 6531,
      "íķ´ëĤĺ": 6532,
      "ĠìĤ´íİ´ë³": 6533,
      "Ġì¡°ìĸ¸ìĿĦ": 6534,
      "Ġê³łìĸĳ": 6535,
      "Ġë²ķìĹĲ": 6536,
      "Ġê²½ë¡ľ": 6537,
      "Ġë¬´ìķĪ": 6538,
      "ĠìłĲì°¨": 6539,
      "êµĲìĿĺ": 6540,
      "ë¹ĦìķĦ": 6541,
      "ĠìŀĦê¸Ī": 6542,
      "çŁ": 6543,
      "ĠíĨµíķ´ìĦľ": 6544,
      "Ġìļ´ìĺģíķł": 6545,
      "ê¶ĮìĿĢ": 6546,
      "ìŀĦëĮĢ": 6547,
      "Ġëª©ìĨĮ": 6548,
      "ìłĦìĹĲìĦľ": 6549,
      "ìĭľë¶ĢíĦ°": 6550,
      "ĠìĪĺìĹħ": 6551,
      "Ġë¯¼ìĨį": 6552,
      "ĠíĿ¡ìĪĺ": 6553,
      "Ġëĭ¨ë°±": 6554,
      "Ġëĭ¹ì´Ī": 6555,
      "Ġìłľìĭľíķĺê³ł": 6556,
      "íĥĦìĨĮ": 6557,
      "Ġìķī": 6558,
      "ë²ķê³¼": 6559,
      "Ġê¸°ì¤ĢìĹĲ": 6560,
      "Ġìłķë§Ĳ": 6561,
      "ìŀī": 6562,
      "ëĲĺìĹĪëĭ¤ê³ł": 6563,
      "ëĵ±ê¸ī": 6564,
      "ĠëĨĴìĹ¬": 6565,
      "Ġìį¨": 6566,
      "Ġê¸°ëıħêµĲ": 6567,
      "Ġêµ´": 6568,
      "íĸĪì§Ģë§Į": 6569,
      "´ë°ĺ": 6570,
      "Ġ38": 6571,
      "ĠìŀĪìĸ´ìļĶ": 6572,
      "ĠìĿ´íĥĪë¦¬ìķĦ": 6573,
      "ìłķìĭł": 6574,
      "ĠëĮĢíķ´ìĦľëıĦ": 6575,
      "Ġìķ¼ìĥĿ": 6576,
      "ĠìĦ¬ìľł": 6577,
      "ì³¤ëĭ¤": 6578,
      "Ġê°ľìµľëĲĺìĹĪëĤĺìļĶ": 6579,
      "Ġì²¨ë¶Ģ": 6580,
      "Ġìķ±ìĿĦ": 6581,
      "Ġë²ĪìĹŃ": 6582,
      "ìĬ¤íĭ°ë²Į": 6583,
      "Ġëª½": 6584,
      "Ġê²½íĹĺê³¼": 6585,
      "ì¹¼": 6586,
      "Ġë¬´ëĮĢ": 6587,
      "ìĤ¬ìĹħìľ¼ë¡ľ": 6588,
      "ĠìĿ´ìŀĲ": 6589,
      "êµŃê³¼": 6590,
      "ëıĦê¸ī": 6591,
      "ĠìĺĪìłķìĿ¸ê°Ģ": 6592,
      "ĠëĲĲ": 6593,
      "Ġì°¸ìĹ¬íķĺìĹ¬": 6594,
      "Ġì§ĢìĽĲê³¼": 6595,
      "ĠìĬĪ": 6596,
      "ĠìķĪìĭ¬": 6597,
      "éģĵ": 6598,
      "ìĭ¤ìĹĲ": 6599,
      "ĠìĽĲìĿ¸": 6600,
      "ìĻķìĿ´": 6601,
      "Ġì°į": 6602,
      "ĠëĤ´ìĹŃìĿĢ": 6603,
      "ëĮĢìĿĳ": 6604,
      "ĠìĿĺìķ½íĴĪ": 6605,
      "ìĸ´ì§Ħ": 6606,
      "ĠíıĲê¸°ë¬¼": 6607,
      "Ġìĭ¤ì§ĪìłģìĿ¸": 6608,
      "ĠìĪĺìĺģ": 6609,
      "Ġê³Ħíļįê³¼": 6610,
      "ĠíĬ¹ìĦ±": 6611,
      "ĠìĤ¬ëŀĮëĵ¤ê³¼": 6612,
      "Ġë°©ì§Ģë¥¼": 6613,
      "Ġìĺģê´ĳ": 6614,
      "ĠìĦ¤ì¹ĺëĲľ": 6615,
      "ĠëĮĢìķĪ": 6616,
      "Ġìĥģëĭ¹íŀĪ": 6617,
      "ë°¥": 6618,
      "ĠìĨįìĹĲ": 6619,
      "ê·¸ë£¹": 6620,
      "ĠìĹ°êµ¬ëĬĶ": 6621,
      "ìĿ´ì§Ģë§Į": 6622,
      "Ġê¸°ìĹħìĿĦ": 6623,
      "æī": 6624,
      "ĠìĦłìłľ": 6625,
      "Ġì´Ŀê´Ħ": 6626,
      "ëªħê³¼": 6627,
      "Ġë³ĳíĸī": 6628,
      "ìķĪìłĦë¶Ģ": 6629,
      "ĠìĤ¬ìļ©ìĿĦ": 6630,
      "Ġê¸´ë°Ģ": 6631,
      "Ġê³¨íĶĦ": 6632,
      "íıīìĸĳ": 6633,
      "Ġ32": 6634,
      "ĠëĤĺìĦł": 6635,
      "ê°Ģê²©": 6636,
      "Ġìłķë°Ģ": 6637,
      "Ġ\"ãĢĮ": 6638,
      "ì§ĢìĨį": 6639,
      "Ġë¯¸ìĦ¸ë¨¼ì§Ģ": 6640,
      "61": 6641,
      "ê±°ëĵł": 6642,
      "ĠìĿĮìĦ±": 6643,
      "ĠìĿ¼ê´Ģ": 6644,
      "Ġíķĺìĭľ": 6645,
      "Ġëħ¸ìĤ¬": 6646,
      "Ġì²ŃìĤ¬": 6647,
      "ëłĪìĬ¤": 6648,
      "Ġê¸°ê°ĦìĿĦ": 6649,
      "íĢ": 6650,
      "Ġë¬´ìĹĩìĿ¸ì§Ģ": 6651,
      "´ëĶľ": 6652,
      "ĠëĮĢíıŃ": 6653,
      "Ġì¶ľíĨł": 6654,
      "Ġì¹ĺìľł": 6655,
      "Ġë°ĺìĿĳìĿĦ": 6656,
      "Ġê²°ìłķìĹĲ": 6657,
      "ĠíļįëĵĿ": 6658,
      "ĠëĬĺìĸ´ëĤĺ": 6659,
      "ìłķë¶ĢëĬĶ": 6660,
      "ë§ĪëĬĶ": 6661,
      "ĠíĽĦìĨį": 6662,
      "íķĻìĿĦ": 6663,
      "Ġê³µìľłìŀ¬ìĤ°": 6664,
      "Ġíķ´ê²°ì±ħìĿĢ": 6665,
      "ĠìľĦë¡ľ": 6666,
      "íķĢ": 6667,
      "ĠìĪĺëł¨": 6668,
      "ìĨĮë¡ľ": 6669,
      "íĸĪëĭ¤ëĬĶ": 6670,
      "ìĿ¸ë¯¼": 6671,
      "ĠìĭľìĬ¤íħľìĿĺ": 6672,
      "ä¸ī": 6673,
      "íĻįë³´": 6674,
      "ìłĲê²ĢìĿĦ": 6675,
      "NA": 6676,
      "íķ´ë¶ĢíĦ°": 6677,
      "Ġì¡°ë¡ĢìķĪìĿĦ": 6678,
      "ĠíĽĪ": 6679,
      "ì²ĺë¶Ħ": 6680,
      "íĸīìĿĦ": 6681,
      "Ġ190": 6682,
      "ê·ľì§ģ": 6683,
      "ĠíĺĦíĻ©ê³¼": 6684,
      "ĠìĪĺìĪĺë£Į": 6685,
      "ĠíĽĦìĽĲ": 6686,
      "ĠíĬ¸ëłĮ": 6687,
      "ìĭłìļ©ë³´ì¦Ŀ": 6688,
      "Ġë¬¸ìłľìłĲìĿ´": 6689,
      "ëĭ¨ìľ¼ë¡ľ": 6690,
      "ìĤ¬íķŃìĹĲ": 6691,
      "ê³łìĨį": 6692,
      "Ġê³µê¸°": 6693,
      "ĠìĹ°ê´Ģ": 6694,
      "ëĭĺìĿ´": 6695,
      "ĠìĽĲíĻľíķľ": 6696,
      "íĬ¸ìĹħ": 6697,
      "ê·¸ëıĻìķĪ": 6698,
      "43": 6699,
      "Ġì£¼ìłľëĬĶ": 6700,
      "ĠëĵľëĿ¼ë§Ī": 6701,
      "ĠìĹ¬ìłĦíŀĪ": 6702,
      "ĠíļĮìĿĺëĬĶ": 6703,
      "Ġìĸ´ë¥´ìĭł": 6704,
      "ëħĦìĿ´": 6705,
      "ë³´ìĥģ": 6706,
      "íĬ¸ë¡ľ": 6707,
      "ĠëĲĺëıĦë¡Ŀ": 6708,
      "Ġìı": 6709,
      "Ġìľłíķ´": 6710,
      "ë²¼": 6711,
      "ê²½ëĤ¨": 6712,
      "Ġë³´íĺ¸íķĺê³ł": 6713,
      "Ġì§ĦíĸīíķĺëĬĶ": 6714,
      "ëıĻìĿĺ": 6715,
      "ë¥ľ": 6716,
      "ĠìłĦìĨ¡": 6717,
      "Ġìŀ¥ìĭĿ": 6718,
      "il": 6719,
      "íĻĶíķĺëĬĶ": 6720,
      "ĠìŀĲìĭłìĿ´": 6721,
      "Ġëª¨ë²Ķ": 6722,
      "íķĺëĿ¼": 6723,
      "Ġëĭ¨ì¶ķ": 6724,
      "ĠìĿĮìķħìĿĦ": 6725,
      "Ġìĺ¤ë¥ĺ": 6726,
      "Ġê¸¸ìĿ´": 6727,
      "ĠìĿ¼ë°ĺíļĮê³Ħ": 6728,
      "Ġë°ľìĥĿíĸĪëĤĺìļĶ": 6729,
      "íĺĳìĿĺ": 6730,
      "Ġì¾Į": 6731,
      "ë¨¹": 6732,
      "Ġê¸°ìĹħìĿĢ": 6733,
      "Ġì±ħìłķ": 6734,
      "ĠìĤ¬ìļ©íķ©ëĭĪëĭ¤": 6735,
      "Ġë§Įëĵ¤ê³ł": 6736,
      "ìĿ´ëĵ¤ìĿĢ": 6737,
      "íĨ¨": 6738,
      "th": 6739,
      "Ġë¨¹ëĬĶ": 6740,
      "ĠìĹ¬íĺ¸ìĻĢ": 6741,
      "ìĿ´ë¯Ģë¡ľ": 6742,
      "ê°Ĳê³¼": 6743,
      "ìķĦë²Ħ": 6744,
      "Ġìķ¼ìĻ¸": 6745,
      "íķŃìĿĢ": 6746,
      "ĠìĿ´ìľłë¥¼": 6747,
      "EC": 6748,
      "ìłľì£¼ëıĦ": 6749,
      "Ġë°ľíĳľíķľ": 6750,
      "ĠëĮĢíķĻêµĲ": 6751,
      "ê¸°íķľ": 6752,
      "Ġë§Ĳíķľ": 6753,
      "Ł½": 6754,
      "ĠìĦ¼": 6755,
      "Ġê²°êµŃ": 6756,
      "Ġì¦Ŀê°Ģíķĺê³ł": 6757,
      "ë³´ìĤ´": 6758,
      "Ġê¸°ìŀĲ": 6759,
      "ì°į": 6760,
      "Ġíı¬ìĥģ": 6761,
      "ëĮĢë©´": 6762,
      "ì²ŃìĹĲìĦľ": 6763,
      "ëĬ¬": 6764,
      "ë¶ĢëıĻìĤ°": 6765,
      "ĠìłľìķĪìĿ´": 6766,
      "ĠìľłìĤ¬íķľ": 6767,
      "Ġìĺ¬ë¦¼íĶ½": 6768,
      "ê°ĻìĿĢ": 6769,
      "ĠìłĦë©´": 6770,
      "ëĮĢíĨµëł¹": 6771,
      "ìĿĺíļĮê°Ģ": 6772,
      "íĸĪìľ¼ëĤĺ": 6773,
      "Ġê°Ħì£¼": 6774,
      "ĠìĥģìĹħ": 6775,
      "ĠíķĻë¶Ģëª¨": 6776,
      "ĠëĲĺìĹĪê³ł": 6777,
      "ĠìĿ´ìĿµìĿĦ": 6778,
      "Ġêµ¬ì¡°ë¥¼": 6779,
      "Ġê±°ëĳĲ": 6780,
      "Ġê´Ģê°Ŀ": 6781,
      "ë°ĶìĿ´ìĺ¤": 6782,
      "íħĮíģ¬ëħ¸íĮĮíģ¬": 6783,
      "ĠëĤłìĶ¨": 6784,
      "ìľłìķĦ": 6785,
      "ê³ĦìĹĲ": 6786,
      "ĠìĽĲëŀĺ": 6787,
      "ê¸°íĽĦ": 6788,
      "ĠìļĶìĸĳ": 6789,
      "ĠìłĢìĨĮëĵĿ": 6790,
      "Ġì·¨íĸ¥": 6791,
      "Ġê¹ĬìĿ´": 6792,
      "ĠìĿ´ë²ĪìĹĲ": 6793,
      "Ġìłķë³´íĨµìĭł": 6794,
      "ìĺģíĸ¥": 6795,
      "ìĦ¼íĦ°ìĹĲìĦľ": 6796,
      "ëĤ´ë²": 6797,
      "ë¬¸ê³¼": 6798,
      "Ġê°Ħëĭ´íļĮ": 6799,
      "ìĿ´íķľ": 6800,
      "Ġê±±": 6801,
      "Ġìłľê³µíķĺê¸°": 6802,
      "ìĭĿìĹĲìĦľ": 6803,
      "Ġì£¼ëł¥": 6804,
      "OU": 6805,
      "ì½ĶìŀĲ": 6806,
      "ĠìŀĦìĥģ": 6807,
      "Ġê°ľìĿ¸ìłķë³´": 6808,
      "42": 6809,
      "ê°ķìĽĲ": 6810,
      "ëª©ìłģ": 6811,
      "Ġë¸ĮëĿ¼": 6812,
      "êµ°ê³¼": 6813,
      "ĠìĭľìĦ¤ìĹĲ": 6814,
      "ĠìĿ´ëĵ": 6815,
      "Ġìĸ¼ë§ĪìĿ´ë©°": 6816,
      "Ġë¹ħëį°ìĿ´íĦ°": 6817,
      "ê³µíķĻ": 6818,
      "ĠìĪĺìĤ¬": 6819,
      "íĤ¤ëĬĶ": 6820,
      "Ġê·¸ëŁ¬ë©´": 6821,
      "Ġì¤ĦìĿ´ê³ł": 6822,
      "ìĬ¤íĥĦ": 6823,
      "ĠëıĦë¯¼ìĿĺ": 6824,
      "Ġê°Ħë¶Ģ": 6825,
      "ëŀĢëĵľ": 6826,
      "Ġìµľê³łìĿĺ": 6827,
      "Ġ37": 6828,
      "Ġë°ĺëıĦ": 6829,
      "íĶ¼íķ´": 6830,
      "Ġë§ĽìĿĦ": 6831,
      "Ġì²Ńëł´": 6832,
      "Ġì°¸ìĹ¬íķĺê³ł": 6833,
      "ì¢ħìĿ´": 6834,
      "ì²ĺë¥¼": 6835,
      "Ġê²ªëĬĶ": 6836,
      "Ĩĵ": 6837,
      "Ġì¤ĳìļĶìĦ±ìĿĢ": 6838,
      "ìħĭì§¸": 6839,
      "Ġê³łëıĦ": 6840,
      "ìĤ¬ëŀĮ": 6841,
      "Ġì§ĦíĸīëĲĺëĬĶ": 6842,
      "Ġê°Ģë¦¬": 6843,
      "ĠëĲĺìĹĪìĬµëĭĪëĭ¤": 6844,
      "Ġì¶ľíĮĲ": 6845,
      "Ġíĺĳì¡°ë¥¼": 6846,
      "Ġê°ľìµľëĲľ": 6847,
      "ìĺĢëįĺ": 6848,
      "Ġê±´ì¶ķë¬¼": 6849,
      "ĠJ": 6850,
      "ĠíĻķìĤ°ìĿĦ": 6851,
      "ê¸Īìľ¼ë¡ľ": 6852,
      "Ġíķłëĭ¹": 6853,
      "ĠìĦ¸ê³Ħìłģìľ¼ë¡ľ": 6854,
      "Ġë°ĶëĢĮ": 6855,
      "ì¡ĮëĬĶê°Ģ": 6856,
      "Ġê³Ħìķ½ìĿĦ": 6857,
      "ë¯¸ë¥¼": 6858,
      "ĠëĨįìĭĿíĴĪ": 6859,
      "Ġì°©ê³µ": 6860,
      "´ëł¥": 6861,
      "ê°ķëĤ¨": 6862,
      "ĠìĿ´íķ´ìĻĢ": 6863,
      "Ġê°Ģì§ĢëĬĶ": 6864,
      "Ġì§ĢìĹŃì£¼ë¯¼": 6865,
      "ë§ĿìĿĦ": 6866,
      "ĠìĿ´ìĽĥ": 6867,
      "ĠìĹ°ëł¹": 6868,
      "Ġë§Ĳíķľëĭ¤": 6869,
      "ĠëĮĢíĸī": 6870,
      "ìľ¼ë©´ìĦľ": 6871,
      "íŀĪê³ł": 6872,
      "íıīíĥĿ": 6873,
      "Ġíİ¸ìŀħ": 6874,
      "ĠíĨµë³´": 6875,
      "íĬ¹ë³Ħìĭľ": 6876,
      "ĠFTA": 6877,
      "Ġë¹ĦìĬ·íķľ": 6878,
      "ìķĦìļĶ": 6879,
      "ĠìĹ¬ìĦ±ê°Ģì¡±": 6880,
      "ĠìĦ±ëĬ¥ìĿĦ": 6881,
      "ĠìĤ¬ìĥģ": 6882,
      "ĠìĿ¼ìłķìĿĦ": 6883,
      "åŃĲ": 6884,
      "Ġëĭ¤ìĸĳìĦ±ìĿĦ": 6885,
      "Ġë°ľì£¼": 6886,
      "Ġê°ľë°ľê³¼": 6887,
      "ë¶Ļ": 6888,
      "Ġì²ĺë¶Ħ": 6889,
      "ëĨĵ": 6890,
      "Ġë°©ë¬¸íķľ": 6891,
      "Ġì¤ĳêµŃìĿĺ": 6892,
      "ĠìĥĿê°ģíķĺê³ł": 6893,
      "ĠíĻķì§ĦìŀĲ": 6894,
      "Ġëª©ë¡Ŀ": 6895,
      "Ġê´Ģê³ĦìĹĲ": 6896,
      "ĠêµĲìľ¡ë¹Ħ": 6897,
      "ìĸ´ëĵ": 6898,
      "ĠìķĪìłķìłģìĿ¸": 6899,
      "ĠíĸĪëĬĶëį°": 6900,
      "íķĦìļĶíķľ": 6901,
      "ìĿ¸ëĵ¤ìĿĢ": 6902,
      "ĠëĨĢìĿ´": 6903,
      "Ġì£Ħë¥¼": 6904,
      "ĠëıĦìĭľê³Ħíļį": 6905,
      "ê¹Įì§ĢìĿĺ": 6906,
      "ĠêµĲìľ¡ìĹĲ": 6907,
      "Ġë©´ìłľ": 6908,
      "ìĨĮìŀ¬": 6909,
      "ĠìºłíİĺìĿ¸": 6910,
      "ĠìľĦìĽĲìĿĢ": 6911,
      "ê¸°ìĹĲëĬĶ": 6912,
      "ĠëĤĺíĥĢëĤ´ëĬĶ": 6913,
      "ëŃĦ": 6914,
      "Ġëĵ±ìŀ¥íķĺëĬĶ": 6915,
      "ê¸°ê´ĢìĹĲ": 6916,
      "ĠíĶ¼íķ´ê°Ģ": 6917,
      "ìĨĮë°©ë³¸ë¶Ģ": 6918,
      "Ġìłľìķ½": 6919,
      "Ġë©ĺ": 6920,
      "ĠìľłíĬľë¸Į": 6921,
      "Ġë³ĦëıĦë¡ľ": 6922,
      "ê³łê°Ŀ": 6923,
      "ĠìĮį": 6924,
      "Ġê³¼ëıĦ": 6925,
      "Ġë¬¸íĻĶìĿĺ": 6926,
      "ĠëıĦêµ¬ë¥¼": 6927,
      "ì¶¤": 6928,
      "ìľ¨ìĿĢ": 6929,
      "ê³µìĤ¬ëĬĶ": 6930,
      "ĠíķĺìĿ´": 6931,
      "ìĭłë¬¸": 6932,
      "Ġê³µëıĻì²´": 6933,
      "ĠëĮĢìĥģìĿĦ": 6934,
      "Ġê¸°ìĹħëĵ¤ìĿ´": 6935,
      "Ġê³łëĮĢ": 6936,
      "Ġìŀ¥ë¹Ħë¥¼": 6937,
      "ì§ĢìĹŃìĹĲ": 6938,
      "ĠíķĻìĥĿëĵ¤ìĹĲê²Į": 6939,
      "ĠìĦľë¹ĦìĬ¤ìĿĺ": 6940,
      "ĠëĤĺìĺ¤ëĬĶ": 6941,
      "ĠìĿ´ëŀĺ": 6942,
      "ìłķìĽĲ": 6943,
      "Ġë¶Ģìŀĳìļ©": 6944,
      "Ġì¦Ŀìķ¡ëĲľ": 6945,
      "Ġíıīëĵ±": 6946,
      "ĠíĺľíĥĿìĿ´": 6947,
      "Ġê°ľìĦłíķĺê³ł": 6948,
      "ĠìĿ´ë©Ķ": 6949,
      "Ġë³¸ëĭ¤": 6950,
      "íı´ë¦¬": 6951,
      "Ġì¢ħëª©": 6952,
      "ĠìĪ«": 6953,
      "Ġë¯¸ë§Į": 6954,
      "íıīìĥĿêµĲìľ¡": 6955,
      "Ġìĭ¬ê°ģíķľ": 6956,
      "ìĿ´ìĿµ": 6957,
      "´ëłĪ": 6958,
      "Ġì±Ħê¶Į": 6959,
      "Ġê¾¸ì¤ĢíŀĪ": 6960,
      "ì²ŃìĤ¬": 6961,
      "ìĿ´ì¦Ī": 6962,
      "íĬ¹ìĪĺ": 6963,
      "ê²½ê¸°ëıĦê°Ģ": 6964,
      "2010": 6965,
      "ĠìĭłìĨįíķĺê²Į": 6966,
      "94": 6967,
      "ìľĦë¡ľ": 6968,
      "ĠëıĻì°¸": 6969,
      "Ġê³łëł¤íķł": 6970,
      "Ġë³´ì¶©": 6971,
      "Ġê°ľìµľíĸĪëĭ¤": 6972,
      "æµ": 6973,
      "ĠêµĲìľ¡ì²ŃìĿ´": 6974,
      "ĠìĨĮë©¸": 6975,
      "ĠìķĮëł¤ì§Ħ": 6976,
      "us": 6977,
      "ê³łìĹĲ": 6978,
      "ê´Ģìľ¼ë¡ľ": 6979,
      "éĽ": 6980,
      "ìĭ¤ìĿĢ": 6981,
      "ê³¼íķĻìĽĲ": 6982,
      "ëªħíķľ": 6983,
      "Ġë°ľíľĺ": 6984,
      "ìŀ¬ë£Į": 6985,
      "Ġë³ĢíĻĺ": 6986,
      "Ġê°ľìĦłíķĺëĬĶ": 6987,
      "íĨ¡": 6988,
      "ĠìĬ¹ìĿ¸ìĿĦ": 6989,
      "ĠìŀĪìľ¼ëĭĪ": 6990,
      "ĠìĹ°ê¸°": 6991,
      "´ë³ĳ": 6992,
      "2014": 6993,
      "ĠìĹ°ê·¹": 6994,
      "ĠëıĻë°ĺ": 6995,
      "Ġëª©ìłģê³¼": 6996,
      "Ġì¡°ê±´ìĿĢ": 6997,
      "ĠìĥĿê°ģíķĺëĤĺìļĶ": 6998,
      "Ġë¬´ê¸°": 6999,
      "Ġì¤Ħìĸ´ëĵ¤": 7000,
      "Ġíĥľìĸĳê´ĳ": 7001,
      "ì¶°": 7002,
      "ì¤ĳëıħ": 7003,
      "Ġê·¸ê²ĥìĿ´": 7004,
      "Ġê³łê¸ī": 7005,
      "ê°ľêµŃ": 7006,
      "ri": 7007,
      "2023": 7008,
      "ĠìķŀëĳĲê³ł": 7009,
      "ĠëĮĢìĥģìĿ´": 7010,
      "Ġë³´íĺ¸íķĺê¸°": 7011,
      "ë¯¸íĦ°": 7012,
      "íķĺë©´ìĦľëıĦ": 7013,
      "ĠìĿ¼ìłķíķľ": 7014,
      "Ġê¸°ëĭ¤": 7015,
      "ĠêµŃíļĮìĿĺìĽĲ": 7016,
      "Ġì§Ģíĺķ": 7017,
      "ê¸°ê´ĢìĿ´": 7018,
      "ĠëģĬ": 7019,
      "ĠìŀĪìĿĮìĿĦ": 7020,
      "ê°Ģê³ł": 7021,
      "Ġë§ĲìĿ´": 7022,
      "íĹ¤": 7023,
      "ĠëıĦëįķ": 7024,
      "Ġ33": 7025,
      "Ġê¶Įìŀ¥": 7026,
      "ìłķë³´íĨµìĭł": 7027,
      "op": 7028,
      "Ġëĭ¤íķ´": 7029,
      "Ġëĭ´ê²¨": 7030,
      "íĥĢë¯¼": 7031,
      "ĠìĻĦëıĦ": 7032,
      "ìĬ¤ëŁ½ê²Į": 7033,
      "ìĹ¬ìĪĺ": 7034,
      "Ġì°©ìĪĺ": 7035,
      "ĠíĮĮíĬ¸ëĦĪ": 7036,
      "Ġì§Ģìĭľ": 7037,
      "Ġêµ¬ì¶ķíķĺê³ł": 7038,
      "åı¸": 7039,
      "ĠìĺģìķĶ": 7040,
      "Ġìĸ´ìļ¸": 7041,
      "ĠìĿĺëħ¼": 7042,
      "ĠìĦľë¶Ģ": 7043,
      "ĠìŀĲìĭłìĿĦ": 7044,
      "ĠëĬĲëĤĮ": 7045,
      "ì¹ĺê°Ģ": 7046,
      "Ġë¶ĦìĦĿìĿĦ": 7047,
      "ĠìĿĺìĤ¬ìĨĮíĨµ": 7048,
      "ĠìľłìłĦìŀĲ": 7049,
      "Ġê·¸ëł¤": 7050,
      "Ġë¶ĦìĦĿíķĺê³ł": 7051,
      "ìĦ¸ì¢ħ": 7052,
      "íĶĮë£¨ìĹĶ": 7053,
      "ĠìķĬìľ¼ë©´": 7054,
      "ĠìĹ°êµ¬ìĽĲ": 7055,
      "ìĹĪëĬĶê°Ģ": 7056,
      "Ġì¶Ķì¶ľ": 7057,
      "ìĭ¤ë¡ľ": 7058,
      "ê·¼ë¬´": 7059,
      "ëıĦëĤ´": 7060,
      "ĠìĬ¤íİĺ": 7061,
      "ê¸°ê´Ģìľ¼ë¡ľ": 7062,
      "Ġê¸°ì¡´ìĿĺ": 7063,
      "ëħĦìĿĦ": 7064,
      "Ġê³µíĨµ": 7065,
      "ê²©ìĿĦ": 7066,
      "ìĦ¤ê³Ħ": 7067,
      "Ġìłķë³´ê°Ģ": 7068,
      "Ġê¸°ê¸°": 7069,
      "ìļ°ë¦¬ëĤĺëĿ¼": 7070,
      "ì§Ģë©°": 7071,
      "Ġìĭ¤ì¦Ŀ": 7072,
      "Ġë®¤": 7073,
      "ĠìĦľë¡ľìĿĺ": 7074,
      "ĠìĤ¬ì§ĦìĿĦ": 7075,
      "ìĥĪë¡ľìļ´": 7076,
      "Ġë°ĽìķĦëĵ¤": 7077,
      "ĠìĿ¼ìĥģìĥĿíĻľ": 7078,
      "ĠìĬµëĵĿ": 7079,
      "íķĺëĭ¤ê°Ģ": 7080,
      "Ġê°Ĳìĥģ": 7081,
      "ë¦¬ëĿ¼": 7082,
      "Ġì¶Ķì§Ħíķľ": 7083,
      "ĠíĿĺ": 7084,
      "ĠìłľìĭľëĲĺìĹĪëĤĺìļĶ": 7085,
      "ìĪĺì²ĺë¦¬": 7086,
      "ëĭ´ëĭ¹ê´Ģ": 7087,
      "Ġê³¤ì¶©": 7088,
      "ëĿ¼ìĹĺ": 7089,
      "ìłģìľ¼ë¡ľëĬĶ": 7090,
      "ì¼ĢìĿ´": 7091,
      "ëĲĺìĹĪëįĺ": 7092,
      "ĠëĤ´ìĻ¸": 7093,
      "Ġë¹Ħë¡Ŀ": 7094,
      "ê°ĻìĿ´": 7095,
      "ìľĦìĽĲìŀ¥ìĿ´": 7096,
      "ĠìĤ¬ìļ©íķĺì§Ģ": 7097,
      "ìĸ´ëĸ»ê²Į": 7098,
      "ĠëĮĢìĿĳì±ħìĿĢ": 7099,
      "ĠìļĶêµ¬íķĺëĬĶ": 7100,
      "kg": 7101,
      "ë²ķë¥ł": 7102,
      "Ġë¬´ë£Įë¡ľ": 7103,
      "Ġë¹¼": 7104,
      "Ġíķ´ê²°íķĺëĬĶ": 7105,
      "ìĭĿë¬¼": 7106,
      "ĠìĤ¬ëŀĮëĵ¤ìĿĦ": 7107,
      "ĠìŀĲì¹ĺëĭ¨ì²´": 7108,
      "Ġì¶ĺ": 7109,
      "ë¡±": 7110,
      "ĠìķĪë³´": 7111,
      "Ġì¶ľìĭľ": 7112,
      "Ġë©´ìłģ": 7113,
      "ê²°ìĤ°íĬ¹ë³Ħ": 7114,
      "ìļ©íĴĪ": 7115,
      "ĠìĦ¤ëªħíķľ": 7116,
      "Ġê´Ģì¸¡": 7117,
      "ĠëĶ°ë¡ľ": 7118,
      "Ġìłķì±ħê³¼": 7119,
      "ìŀł": 7120,
      "Ġíĳľê¸°": 7121,
      "Ġëħ¸ëł¥ìĿĢ": 7122,
      "ĠìĹĨìĹĪëĭ¤": 7123,
      "ĠíķĦìļĶë¡ľ": 7124,
      "Ġìĩł": 7125,
      "Ġíķ´ëĤ¨": 7126,
      "ĠìĤ¬ë¡ĢëĬĶ": 7127,
      "ëıĻìĹĲ": 7128,
      "Ġê³łíĸ¥": 7129,
      "ëĭĻ": 7130,
      "Ġìŀ¥ë¥´": 7131,
      "ĠëıĦì§ĢìĤ¬": 7132,
      "ìŀ¬ë¡ľ": 7133,
      "ä¾": 7134,
      "Ġëĭ¤ë§Į": 7135,
      "êµ¬ìĻĢ": 7136,
      "ĠìĭłëıĦìĭľ": 7137,
      "ĠìķĦë§Ī": 7138,
      "å£": 7139,
      "ĠìķŀìĹĲ": 7140,
      "ìļĶìĿ¼": 7141,
      "Ġë¬´ìĥģ": 7142,
      "ĠëĤĺìĿĢ": 7143,
      "ìĤ¬ì§Ħ": 7144,
      "ĠêµĲìľ¡ìĿĺ": 7145,
      "Ġë§¤ìĿ¼": 7146,
      "ë²łìĿ´ìĬ¤": 7147,
      "Ġê°ĸëĬĶ": 7148,
      "ĠìĿ´íķ´íķł": 7149,
      "Ġìĸ»ìĿĢ": 7150,
      "ĠëĪĦêµ¬ìĹĲê²Į": 7151,
      "ĪìĿĦ": 7152,
      "ĠìĹħë¬´íĺĳìķ½ìĿĦ": 7153,
      "Ġì¶Ķì§ĦìĹĲ": 7154,
      "ĠìĿ´ìĥģìľ¼ë¡ľ": 7155,
      "75": 7156,
      "ëľ": 7157,
      "íļĮê´Ģ": 7158,
      "Ġì¦Ĳê¸°": 7159,
      "ì¹´ëį°": 7160,
      "Ġê³łìłķ": 7161,
      "íķŃë§Į": 7162,
      "ĠìłĦë¬¸ìłģìĿ¸": 7163,
      "ĠëıĦëĬĶ": 7164,
      "ĠìĭłìķĪ": 7165,
      "ĠìĿĺíļĮìĿĺ": 7166,
      "Ġìĸ´ëĸ¤ê°ĢìļĶ": 7167,
      "Ġë°ĺëł¤": 7168,
      "Ġëī´ëĶľ": 7169,
      "Ġë§İìķĦ": 7170,
      "§Ķ": 7171,
      "ĠìŀĲê¸ĪìĿĦ": 7172,
      "Ġê±°ìłĲ": 7173,
      "ì§ĢëĬĶê°Ģ": 7174,
      "Ġê·łíĺķìĿĦ": 7175,
      "ë¥´íģ¬": 7176,
      "íĺĦíĻ©": 7177,
      "ĠìķĦë¢°ê¸°ë¥¼": 7178,
      "Ġì§ĢìĽĲìĦ¼íĦ°": 7179,
      "ê°Ķ": 7180,
      "Ġì¤ĳìĿ´ëĭ¤": 7181,
      "ìĭ¤ìŀ¥": 7182,
      "ĠìĹ°ë£Į": 7183,
      "ì¹ĻìĿĦ": 7184,
      "Ġë¯¸ì³¤": 7185,
      "Ġëĭ´ìĿĢ": 7186,
      "ĠíļĮìŀ¥": 7187,
      "Ġê°Ģì¡Įëĭ¤": 7188,
      "Ġì¶Ķì§Ħíķľëĭ¤": 7189,
      "ë¹ł": 7190,
      "ëĮĢì±ħìĿĦ": 7191,
      "Ġ34": 7192,
      "ĠìĹħì¢ħ": 7193,
      "íķĺëĭĪ": 7194,
      "Ġì£¼ê°Ħ": 7195,
      "Ġìĺ·ìĿĦ": 7196,
      "ìļ©ìĨĮë°©": 7197,
      "Ġíķľìļ°": 7198,
      "ĠìłĲê²Ģíķĺê³ł": 7199,
      "ĠìłĦê³µ": 7200,
      "Ġì§Ħë¡ľ": 7201,
      "ìĹŃìĤ¬": 7202,
      "ê°ĢìĻĢ": 7203,
      "Ġê·¼ëĮĢ": 7204,
      "ĠëĨįìĹħìĿ¸": 7205,
      "Ġëª¨ëĳĲê°Ģ": 7206,
      "ĠìľĦìĽĲëĭĺëĵ¤ê»ĺìĦľ": 7207,
      "ë©´ìłģ": 7208,
      "íķĺìħ¨ëĬĶëį°": 7209,
      "åºľ": 7210,
      "íķľìĿĺ": 7211,
      "ëł¤ë©´": 7212,
      "Ġê³łëł¤íķĺê³ł": 7213,
      "ĠìĺĪë°©íķĺê¸°": 7214,
      "Ġìĺ®ê²¨": 7215,
      "ì²´ë¡ľ": 7216,
      "ĠìłĢëł´": 7217,
      "ĠìĤ¬ìļ©íķĺë©´": 7218,
      "Ġíķ¨ìľł": 7219,
      "Ġë¹Ħë¡¯íķĺìĹ¬": 7220,
      "ĠìĭľìĿĺ": 7221,
      "Ġê´ĢìĹ¬": 7222,
      "ĠíĿ¬ìĥĿ": 7223,
      "íķ´ëĭ¹": 7224,
      "Ġê²ĥìĿ¸ì§Ģ": 7225,
      "âĢ»": 7226,
      "ĠìĿĺìłķ": 7227,
      "ĠìĬ¹ì§Ħ": 7228,
      "Ġê³łë¶Ħ": 7229,
      "ĠìĤ¶ìĿĦ": 7230,
      "Ġì§Ģíķĺì²ł": 7231,
      "Ġë°ľíļ¨": 7232,
      "íĬ¸ìĿĺ": 7233,
      "Ġì§ģìŀ¥": 7234,
      "Ġ2002": 7235,
      "ĠìĻ¸ìĿĺ": 7236,
      "ĠìĿ´ì¤ĳ": 7237,
      "íĻĶíķł": 7238,
      "Ġì½Ķëĵľë¥¼": 7239,
      "ĠëĤĺëĪł": 7240,
      "Ġëĵ¤ìĹ¬": 7241,
      "ë¯¼ìĽĲ": 7242,
      "ìĭľëĮĢìĿĺ": 7243,
      "íĿĲ": 7244,
      "ĠìłľìķĪìĿĦ": 7245,
      "ë©´ìľ¼ë¡ľ": 7246,
      "Ġê·¸ë¥¼": 7247,
      "Ġìĭľê³µ": 7248,
      "ì§ĢìļĶ": 7249,
      "ĠìĿĺíļĮìĹĲìĦľ": 7250,
      "Ġì¡°ëªħ": 7251,
      "Ġê²½ìļ°ëıĦ": 7252,
      "Ġm": 7253,
      "ĠíĽĪëł¨ìĿĦ": 7254,
      "Ġíİ¸ì°¬": 7255,
      "ĠíĮĮìķħíķł": 7256,
      "92": 7257,
      "Ġê±´ëĦ": 7258,
      "Ġì¶ķíķĺ": 7259,
      "ĠìĦ¸ìĽł": 7260,
      "ëŀĲëĭ¤": 7261,
      "Ġë¬¸ìŀĲ": 7262,
      "ĠìłĲê²ĢìĿĦ": 7263,
      "ĠìĿ¸ì²ľìĭľ": 7264,
      "Ġì¢Įìļ°": 7265,
      "Ġê°Ħëĭ´íļĮë¥¼": 7266,
      "ê³µìľł": 7267,
      "Ġë¹Ħìļ©ìĿĢ": 7268,
      "Ġìľłë¬¼": 7269,
      "íļĮìĿĺìĹĲìĦľ": 7270,
      "ĠìĿ¸ëªħ": 7271,
      "Ġë¯¸ëŀĺë¥¼": 7272,
      "55": 7273,
      "ĠìĪĺë¦½íķĺê³ł": 7274,
      "Ġë°°ìłķ": 7275,
      "Ġì¤ĳìļĶìĦ±ìĹĲ": 7276,
      "Ġê·¼ê±°ëĬĶ": 7277,
      "88": 7278,
      "íŀĪëł¤": 7279,
      "ĠìķĮê³łë¦¬ì¦ĺ": 7280,
      "ìłĪì°¨": 7281,
      "ìłĦëĿ¼ëĤ¨ëıĦìĿĺ": 7282,
      "ìķĪìłķ": 7283,
      "Ġê¸°ê°ĦìĿ´": 7284,
      "ĠìĤ¬ëĿ¼": 7285,
      "ê³µê°ľ": 7286,
      "Ġìĺ¬ëł¤": 7287,
      "ĠãĢĪ": 7288,
      "Ġíĺ¼ëŀĢ": 7289,
      "ìĬ¤íħĮ": 7290,
      "Ġëĭ¬ëĿ¼ì§Ī": 7291,
      "Ġíĩ´ì§ģ": 7292,
      "Ġ+": 7293,
      "ĠìĦŀ": 7294,
      "Ġë§Ĳê³ł": 7295,
      "Ġìľłì¶ľ": 7296,
      "ĠâĹĩ": 7297,
      "Ġê°Ģì¹ĺê°Ģ": 7298,
      "ĠìłľìĻ¸íķľ": 7299,
      "Ġìĭľê°Ħê³¼": 7300,
      "ĠíĮĲë¡ľ": 7301,
      "ĠìĬ¤íĬ¸ëłĪìĬ¤": 7302,
      "§Ķåĵ¡": 7303,
      "Ġì§Īë¬¸ìĿĦ": 7304,
      "Ġ2003": 7305,
      "Ġë³´ìľłíķĺê³ł": 7306,
      "ĠìŀĲê·¹": 7307,
      "ĠëıħìĦľ": 7308,
      "Ġì²ĺë°©": 7309,
      "ĠìĹ°êµ¬ìĹĲ": 7310,
      "ĠëĤ¨ìĿĢ": 7311,
      "ĠìĿ´ìĽĶ": 7312,
      "Ġë¥": 7313,
      "Ġì¤ĳìłĲìĿĦ": 7314,
      "Ġë¶Ħìķ¼ëĬĶ": 7315,
      "ĠíĺģìĭłìĿĦ": 7316,
      "ĠíĶĮëłĪìĿ´": 7317,
      "ĠìłĢìŀĳ": 7318,
      "ĠìļĶêµ¬íķľ": 7319,
      "Ġê¶ĮìĹŃ": 7320,
      "Ġì¼Ģ": 7321,
      "ĠìķĦëĭĻ": 7322,
      "ëĤ¸": 7323,
      "de": 7324,
      "ê²½ìĹĲ": 7325,
      "Ġìłľê³µíķ´": 7326,
      "ĠìĦłë¬¼": 7327,
      "ìĹ°ê¸Ī": 7328,
      "ĠíĮģ": 7329,
      "è¨»": 7330,
      "èŃ": 7331,
      "ëĨĴ": 7332,
      "ìŀ¬íĮĲ": 7333,
      "ê¿": 7334,
      "Ġì§Ģêµ¬ìĿĺ": 7335,
      "Ġìĭľê¸°ëĬĶ": 7336,
      "ëį´": 7337,
      "Ġë²Ĺìĸ´ëĤĺ": 7338,
      "ìľ¼ë¡ľìĦľìĿĺ": 7339,
      "ìĤ¬ê±´": 7340,
      "Ġì§ĢìĤ¬ê°Ģ": 7341,
      "ĠêµĲíĨµìĤ¬ê³ł": 7342,
      "Ġìĸ¼ë§ĪìĿĺ": 7343,
      "Ġê°ľë§ī": 7344,
      "ĠìķĪìłĦíķĺê³ł": 7345,
      "Ġê°ĢìĬ¤": 7346,
      "ĠìĺĨ": 7347,
      "ìļ´ëĵľ": 7348,
      "ê´Ģëł¨": 7349,
      "Ġë¬´ìļ©": 7350,
      "ìŀĲë¬¸": 7351,
      "ĠìľĦì¹ĺíķĺê³ł": 7352,
      "ĠëĤĺëī": 7353,
      "Ġì¡°ë¥ĺ": 7354,
      "Ġë§Īëł¨ëĲĺìĸ´": 7355,
      "ĠìĬ¤íĥĢìĿ¼ìĿĦ": 7356,
      "'(": 7357,
      "ĠìŀĲë£Įê°Ģ": 7358,
      "Ġëĵ±ëıĦ": 7359,
      "ì°¾": 7360,
      "ĠìľłìĤ°": 7361,
      "ĠíĨµíĸī": 7362,
      "Ġì±ħìĿĦ": 7363,
      "å»": 7364,
      "ëªħìĹĲ": 7365,
      "æĽ¸": 7366,
      "ì£¼ìļĶ": 7367,
      "ç§": 7368,
      "íĽ": 7369,
      "Ġê¸°ìĹħìĹĲ": 7370,
      "ë§Įìķ½": 7371,
      "íķĻê¸ī": 7372,
      "èª": 7373,
      "ê±´ëĮĢ": 7374,
      "ì¡Įìľ¼ë©°": 7375,
      "Ġê³łëĵ±": 7376,
      "ìĸ´ë¯¼": 7377,
      "ĠìłĬìĿĢ": 7378,
      "ìĭ¤íŀĪ": 7379,
      "ĠìķĦì¹¨": 7380,
      "ê³¼ìłķìĹĲìĦľ": 7381,
      "ĠìķĦìļ¸ëŁ¬": 7382,
      "ĠìĪĺìĽĲ": 7383,
      "Ġê°Ĳì§Ģ": 7384,
      "ĠíĶĦë¡ľê·¸ëŀ¨ìĿĺ": 7385,
      "ĠêµĲìľ¡ì²ŃìĿĺ": 7386,
      "Ġë§İëĭ¤": 7387,
      "ä¸Ĭ": 7388,
      "íŀĪëĬĶ": 7389,
      "Ġë°©ìłľ": 7390,
      "Ġíĸīë³µíķľ": 7391,
      "ê³¼ìłľ": 7392,
      "ĠìĨĮíĨµìĿĦ": 7393,
      "ĠìĭľìĬ¤íħľìĿ´": 7394,
      "Ġìĺ¨ìĭ¤ê°ĢìĬ¤": 7395,
      "ĠìĹĺ": 7396,
      "ä¸Ń": 7397,
      "Ġìĩ¼íķĳëª°": 7398,
      "ĠìĹ°ë§Ĳ": 7399,
      "Ġì°¨ì§Ģíķĺê³ł": 7400,
      "ĠìĦ¤ë¬¸": 7401,
      "Ġìłľì¡°ìĹħ": 7402,
      "Ġìĭłê¸°ìĪł": 7403,
      "Ġê²°ìłľ": 7404,
      "ìĸ´ìĻĢ": 7405,
      "Ġìĸµìłľ": 7406,
      "íķĻìĿĺ": 7407,
      "ĠìłĦëŀµìĿĢ": 7408,
      "ĠìĥģëĮĢìłģìľ¼ë¡ľ": 7409,
      "´ë¦´": 7410,
      "ĠíĻľìļ©ëĲł": 7411,
      "Ġê²½ê¸°ëıĦê°Ģ": 7412,
      "ĠíĹĮë²ķ": 7413,
      "ĠìļĶêµ¬ìĹĲ": 7414,
      "65": 7415,
      "çī": 7416,
      "Ġì£¼ìĨĮ": 7417,
      "ìŀĳìĿĢ": 7418,
      "Ġê°ľìłķê·ľ": 7419,
      "Ġê³łìĨįëıĦë¡ľ": 7420,
      "ëªĩ": 7421,
      "ì§Ģìłķ": 7422,
      "ĠíķĻêµĲìĿĺ": 7423,
      "ĠëªħìłĪ": 7424,
      "ë¶Ģì¹Ļ": 7425,
      "ì·¨ìĹħ": 7426,
      "Ġìĭ±": 7427,
      "Ġì£¼ë³ĢìĹĲ": 7428,
      "ĠìłĦíĽĦ": 7429,
      "ĠíķĺëıĦë¡Ŀ": 7430,
      "Ġìĸ´ì´Į": 7431,
      "Ġíĺ¸ëĤ¨": 7432,
      "ìĪĺê¸ī": 7433,
      "Ġê±´ê°ķìĹĲ": 7434,
      "ĠêµĲíĨµìķĪìłĦ": 7435,
      "Ġê±°ëĵŃ": 7436,
      "Ġëį§": 7437,
      "ë¿Ĳ": 7438,
      "Ġì¶ľìĤ°": 7439,
      "ìľµíķ©": 7440,
      "ìĺµ": 7441,
      "íıīíĻĶ": 7442,
      "ĠìĦľë¯¼": 7443,
      "íķĺê²łëĭ¤ê³ł": 7444,
      "Ġê³µìľłíķĺê³ł": 7445,
      "Ġì¡°ìĦ±ìĹĲ": 7446,
      "ĠíĺĦìŀ¥ìĿĦ": 7447,
      "Ġê°ľìµľíķĺê³ł": 7448,
      "ìĤ°ìĹħìĿĦ": 7449,
      "ĠëıĪìĿĦ": 7450,
      "åĬ": 7451,
      "Ġì¹ĺë£Įë¥¼": 7452,
      "íĨ±": 7453,
      "Ġì½©": 7454,
      "íĻĶíķĺìĹ¬": 7455,
      "Ġì¡°ìĨį": 7456,
      "2012": 7457,
      "åĳ": 7458,
      "Ġê¶Įë¦¬ë¥¼": 7459,
      "Ġê´ĢìĦ¸": 7460,
      "Ġê°ķì¡°íķĺëĬĶ": 7461,
      "Ġì§ķê³Ħ": 7462,
      "âĿ": 7463,
      "Ġì¹´ë©ĶëĿ¼": 7464,
      "ĠìķĦì£¼": 7465,
      "Ġìŀ¬íĮĲ": 7466,
      "Ġê·¼ë³¸": 7467,
      "ĠìĿ´ì£¼": 7468,
      "Ġì£¼ìĭľê³ł": 7469,
      "ĠêµĲë¥ĺë¥¼": 7470,
      "ĠìĽĲìĿ¸ìĿĢ": 7471,
      "ëĨįìĸ´ì´Į": 7472,
      "Ġ65": 7473,
      "ĠêµĲê³¼": 7474,
      "íķĺìĹĲ": 7475,
      "Ġë½ĳ": 7476,
      "ì²Ńìŀ¥ìĿĢ": 7477,
      "ì°¨ë¡ľ": 7478,
      "Ġê°Ģë§¹": 7479,
      "ĠíİĺìĬ¤íĭ°ë²Į": 7480,
      "ĠìĤ¬ìļ©ëĲĺê³ł": 7481,
      "ĠìłĢíĿ¬ê°Ģ": 7482,
      "ë¶Ģë¡ľ": 7483,
      "Ġë°Ķëĭ¥": 7484,
      "Ġìĭłì²Ńíķł": 7485,
      "ìľĦìĽĲíļĮìĹĲ": 7486,
      "ĠìłķíĻķíŀĪ": 7487,
      "ĠìĿ´ë£¨ìĸ´ì¡ĮëĬĶê°Ģ": 7488,
      "Ġë¶Īê°ĢëĬ¥": 7489,
      "Ġìĸ¸ìłľìĿ¸ê°Ģ": 7490,
      "ëĵ¤ë¡ľë¶ĢíĦ°": 7491,
      "ĠíĴĪì§ĪìĿĦ": 7492,
      "íĺ¸ê°Ģ": 7493,
      "ĠìŀĳíĴĪìĿĺ": 7494,
      "ìŀĲìľłêµ¬ìĹŃ": 7495,
      "Ġê´Ģë¦¬ê°Ģ": 7496,
      "Ġì¤ĳê¸°": 7497,
      "ì¦Ŀì§Ħ": 7498,
      "åĭ": 7499,
      "Ġë°ĶìĹĲ": 7500,
      "ĠìŀĦì°¨": 7501,
      "ìĽĲìŀ¥ìĿ´": 7502,
      "Ġë§Īëķħ": 7503,
      "ëıĦë¦½": 7504,
      "ĠìĿ¼ìŀĲë¦¬ë¥¼": 7505,
      "ìķĦëŀĺ": 7506,
      "Ġë¶Ħëĭ´": 7507,
      "Ġë§¤ë¦½": 7508,
      "Ġíķľë§Ī": 7509,
      "Ġì±Ħì·¨": 7510,
      "Ġê°ĢìĬ´": 7511,
      "ĠìĬ¤íĥĢíĬ¸ìĹħ": 7512,
      "ë³´ìľ¡": 7513,
      "ë¯¸ëĦĲ": 7514,
      "êµĲìľ¡ìĿĺ": 7515,
      "Ġì£¼ë¯¼ëĵ¤ìĿ´": 7516,
      "Ġì¡°íĻĶ": 7517,
      "´ë¦Ń": 7518,
      "Ġìķ¼ê°Ħ": 7519,
      "Ġìĭľë¦¬ì¦Ī": 7520,
      "ĠíĸīìłķìĤ¬ë¬´ê°ĲìĤ¬ë¥¼": 7521,
      "íĨµê³Ħ": 7522,
      "ëĤĺëĭ¤": 7523,
      "ĠëĨįíĺĳ": 7524,
      "ì±ħìŀĦ": 7525,
      "ìłķë³´ë¥¼": 7526,
      "Ġìļ°ìĬ¹": 7527,
      "ëłĪìĿ´ìħĺ": 7528,
      "ĠìĿ¸ì¦ĿìĿĦ": 7529,
      "Ġë¹ĦêµĲìłģ": 7530,
      "Ġê³ĦìĬ¹": 7531,
      "Ġê°ľìµľíķľ": 7532,
      "ĠìłĦíĺĢ": 7533,
      "ĠìĽĥ": 7534,
      "Ġë¯¼ê°ĦìľĦíĥģ": 7535,
      "ĠëĤ´ëł¸": 7536,
      "Ġìľ¼ë¡ľ": 7537,
      "åľĭ": 7538,
      "Ġê³Ħì¸µ": 7539,
      "Ġì¶ľìĥĿ": 7540,
      "Ġë¶Ģì°©": 7541,
      "ìłģìŀħëĭĪëĭ¤": 7542,
      "ëĮĢì¤ĳ": 7543,
      "ĠêµĲìľ¡ìĿ´": 7544,
      "Ġì°¬ìĦ±": 7545,
      "ìĸ´ë¦°ìĿ´ì§ĳ": 7546,
      "ĠíĮĮìĿ¼": 7547,
      "ĠìłľëıĦê°Ģ": 7548,
      "ìĮ": 7549,
      "íĻĶìŀ¬": 7550,
      "ĠìĿ´ìļ©íķ´": 7551,
      "ĠìľµìŀĲ": 7552,
      "èĢ": 7553,
      "ë°©ìĿĺ": 7554,
      "Ġê³µìĤ°": 7555,
      "ìĿĺìłķ": 7556,
      "ìĦłìĿĢ": 7557,
      "Ġë²ķìłķ": 7558,
      "ĲìĿĺ": 7559,
      "Ġìĺ¤ëŀľ": 7560,
      "Ġë§Įëĵ¤ìĸ´ì§Ħ": 7561,
      "ĠìķĶíĺ¸": 7562,
      "ĠìĤ¬ê±´ìĿ´": 7563,
      "ĠìļĶìĨĮìŀħëĭĪëĭ¤": 7564,
      "Ġë¬´ë¦¬": 7565,
      "ED": 7566,
      "ìĿ´ìķ¼": 7567,
      "ìķĹ": 7568,
      "Ġë³´ê³łë¥¼": 7569,
      "ëĿ¼ìĬ¤íĭ±": 7570,
      "ì£¼ê°Ħ": 7571,
      "Ġì¶ķìĨĮ": 7572,
      "ĠìĿĺë¯¸ê°Ģ": 7573,
      "ĠíıŃìĹ¼": 7574,
      "Ġë³´ìĭľ": 7575,
      "ëıĦìĭľì£¼íĥĿ": 7576,
      "ĠìĬ¤íĥĢìĿ¼": 7577,
      "çİĭ": 7578,
      "ëī´ìĸ¼": 7579,
      "Ġë¦¬ëįĶìĭŃ": 7580,
      "ĠìĿ´íķ´ê´Ģê³Ħ": 7581,
      "Ġê¸°ê°ĦìĹĲ": 7582,
      "ëĥĪëĭ¤": 7583,
      "ê¸į": 7584,
      "ĠìĨĮê°ģ": 7585,
      "ĠìľĦíĹĺìĿĦ": 7586,
      "ĠìĿĺìĽĲëĭĺ": 7587,
      "Ġëĭ´ëĭ¹íķĺëĬĶ": 7588,
      "ìĹŃìĹĲ": 7589,
      "68": 7590,
      "ìĭ¤ìŀ¥ìĿ´": 7591,
      "Ġë©Ķëª¨": 7592,
      "ĠìĿ´ë¤Ħì§Ģê³ł": 7593,
      "ĠìĭľìĿĺíļĮ": 7594,
      "ĠìĥĿíĥľê³ĦìĿĺ": 7595,
      "ìĹĪìĿĦ": 7596,
      "Ġìĥģëĭ´ìĿĦ": 7597,
      "CTV": 7598,
      "Ġì§ĦëıĦ": 7599,
      "Ġëĭ¤ìĨĮ": 7600,
      "ë¶Ģìŀ¥": 7601,
      "ĠíĻķëĮĢíķ´": 7602,
      "Ġâī": 7603,
      "ĠíĪ¬ìŀĲë¥¼": 7604,
      "Ġë¶ĦìĤ°": 7605,
      "Ġìłľê³µëĲĺëĬĶ": 7606,
      "Ġì¶ľìŀĲ": 7607,
      "ĠíĻĶë©´": 7608,
      "Ġìĭľíĸīíķĺê³ł": 7609,
      "ĠëĤ¨ë¶Ģ": 7610,
      "ĠìĪľìľ¼ë¡ľ": 7611,
      "Ġì£¼ì°¨ìŀ¥": 7612,
      "ĠíķĻë¬¸": 7613,
      "Ġëħ¼ëŀĢìĿ´": 7614,
      "īìĿĢ": 7615,
      "Ġìļ°ìĦłìĪľ": 7616,
      "íķĺìĺĢëĭ¤ê³ł": 7617,
      "ĠìłĢê°Ĳ": 7618,
      "ë¯¸êµŃ": 7619,
      "ĠíĻķëĮĢíķĺê³ł": 7620,
      "Ġì°¾ê¸°": 7621,
      "ĠíĬ¹ë³Ħë²ķ": 7622,
      "ãĢį,": 7623,
      "ĠíĥĦìĨĮì¤ĳë¦½": 7624,
      "íĶĦëĿ¼ìĿ¸": 7625,
      "ĠëĸłëĤĺ": 7626,
      "ë¬¼ë¥ĺ": 7627,
      "Ġë³´íĺ¸ìĹĲ": 7628,
      "ë¬´ëĮĢ": 7629,
      "Ġë¬´ìĹĩìĿ¼ê¹Į": 7630,
      "Ġë¶ĢëĮĢ": 7631,
      "Ġë¶Ħë°°": 7632,
      "Ġìļ©ëıĦë¡ľ": 7633,
      "ìĨĮìŀ¥": 7634,
      "Ġì§ĢìĹŃìľ¼ë¡ľ": 7635,
      "ĠíħįìĬ¤íĬ¸": 7636,
      "íĨµìĿĦ": 7637,
      "Ġíĸīìłķë¶Ģ": 7638,
      "è»į": 7639,
      "Ġë¶Ħëªħ": 7640,
      "Ġê°ľìļĶ": 7641,
      "ĠìĤ´ë¦¬": 7642,
      "ĠìĺĪìĤ°íİ¸": 7643,
      "ĠìĤ°íķĻ": 7644,
      "ìĸĳìĿĦ": 7645,
      "ĠíĿ¬ë§ĿíķĺëĬĶ": 7646,
      "Ġì¸µ": 7647,
      "ëħ¹ì§Ģ": 7648,
      "ëĸ": 7649,
      "ĠíĻĺê²½ìĹĲìĦľ": 7650,
      "ĠìĿ¸ìĪĺ": 7651,
      "Ġê³łìĭľ": 7652,
      "Ġíĥģ": 7653,
      "´ëªħ": 7654,
      "ĠìĿ´ìĬ¤": 7655,
      "Ġì²Ļ": 7656,
      "ê³ĦíļįìĹĲ": 7657,
      "ĠìĦ¤ë¦½ëĲľ": 7658,
      "Ġì¡°ìŀĳ": 7659,
      "Ġìŀ¬ë¯¸": 7660,
      "ĠìłķíĻķíķĺê²Į": 7661,
      "ìĿ¸ëıĦ": 7662,
      "ĠìŀĳëħĦ": 7663,
      "Ġìĸ¸ìłľê¹Įì§Ģ": 7664,
      "ĠíĥĢìĿ´": 7665,
      "ê³łìĿĺ": 7666,
      "Ġìĭľìŀ¥ìĿĺ": 7667,
      "íĳľë¥¼": 7668,
      "Ġì§ĢëĭĪ": 7669,
      "ìĭľìŀ¥ìĿĢ": 7670,
      "ìĪĺì¶ľ": 7671,
      "Ġìĭłë¬¸": 7672,
      "ì§ģíķľ": 7673,
      "Ġìĭ¶ìĬµëĭĪëĭ¤": 7674,
      "ĠëıĦìĭ¬": 7675,
      "Ġê°Ħíĺ¸": 7676,
      "Ġê°ķìłľ": 7677,
      "Ġì¤Ģë¹Ħë¥¼": 7678,
      "190": 7679,
      "Ġê°ĢìĿ´ëĵľëĿ¼ìĿ¸": 7680,
      "ìļ°ë¥¼": 7681,
      "Ġë³µìļ©": 7682,
      "ĠìĤ¬ìŀ¥": 7683,
      "ëĮĢêµ¬ìĭľìĿĺ": 7684,
      "ë¶Īë²ķ": 7685,
      "ëģĶ": 7686,
      "Ġìľłíļ¨": 7687,
      "ĠìĹħë¬´ì¶Ķì§Ħ": 7688,
      "Ġìĭ¬ëıĦ": 7689,
      "Ġìłķì§Ģ": 7690,
      "íķŃìĿ´": 7691,
      "Ġíľĺ": 7692,
      "ĠíĶ¼ëĵľë°±ìĿĦ": 7693,
      "å¼": 7694,
      "ĠìłľëıĦìĿĺ": 7695,
      "ç¶": 7696,
      "ĠíĻĪíİĺìĿ´": 7697,
      "Ġíľ´ìĭĿ": 7698,
      "Ġê°ķíĻĶíķ´": 7699,
      "ĠíĹĪê°Ģë¥¼": 7700,
      "ĠìłĦë§ĿìĿ´ëĭ¤": 7701,
      "ĠìĽĶëĵľì»µ": 7702,
      "éĿ": 7703,
      "ĠìĺĪìĥģëĲĺëĬĶê°Ģ": 7704,
      "ì²´ëĵ¤ìĿ´": 7705,
      "íķ´ë°°": 7706,
      "Ġê°ĲìĨĮíķľ": 7707,
      "ĠìĪĺì¤ĢìĿĺ": 7708,
      "Ġìŀ¥íĿ¥": 7709,
      "ĠìĿ´ìĿĺê°Ģ": 7710,
      "Ġë²ķë¥łìĹĲìĦľ": 7711,
      "ì¹´ëį°ë¯¸": 7712,
      "Ġìĥģìĭľ": 7713,
      "ì²Ńêµ¬": 7714,
      "Ġì»¤íĶ¼": 7715,
      "Ġìĭľì¦Į": 7716,
      "ĠìĿ¸ìļ©": 7717,
      "ìķ½ì²ĺ": 7718,
      "ĠìĶ¨ëĬĶ": 7719,
      "Ġì¤ĳìļĶíķĺëĭ¤ê³ł": 7720,
      "Ġìŀĳê³¡": 7721,
      "Ġë¸Ķë¡ľê·¸": 7722,
      "ìĪĺìļĶ": 7723,
      "Ġë¶Īë¦¬": 7724,
      "ĠìĿĺì¡´": 7725,
      "ê¸°ê¹Įì§Ģ": 7726,
      "íĥĢìļ´": 7727,
      "Ġì½ĺìĦľ": 7728,
      "ìĦ¸íķľ": 7729,
      "ĠìŀħìĿĢ": 7730,
      "ìĸĳìĿĺ": 7731,
      "äºĮ": 7732,
      "Ġìĺ¤íŀĪëł¤": 7733,
      "Ġì¹¨íķ´": 7734,
      "Ġ2001": 7735,
      "ì¹´ë": 7736,
      "Ġë¶Ħìķ¼ë³Ħ": 7737,
      "Ġê³µëª¨ìłĦ": 7738,
      "ĠíĺĳìĹħìĿĦ": 7739,
      "ëĵľë¡ľ": 7740,
      "íģĲ": 7741,
      "ĠìĺĪìĤ°ìķĪìĿĺ": 7742,
      "ĠíĬ¹ìłķíķľ": 7743,
      "Ġëĭ¤ìļ´": 7744,
      "ìķ¡ê³¼": 7745,
      "ĠëĮĢíĳľíķĺëĬĶ": 7746,
      "ë¹ĦìłĦ": 7747,
      "Ġëį®": 7748,
      "Ġëĵľë¡ł": 7749,
      "ĠìĿ¸ëł¥ìĿĦ": 7750,
      "ĠìĥģìĿĺ": 7751,
      "ëł¥ìĿĢ": 7752,
      "ĠìĹ°ì¶ľ": 7753,
      "ĠíĶĦëłĪ": 7754,
      "Ġëįľ": 7755,
      "ĠìĤ¬ìļ©ëĲľ": 7756,
      "ĠìĿĺìŀ¥": 7757,
      "ĠëĨįìŀ¥": 7758,
      "Ġìĸ¼ë§ĪìĿ¸ê°Ģ": 7759,
      "Ġë¶ķ": 7760,
      "ì£¼ìĿ¸ê³µ": 7761,
      "Ġê¶ĮíķľëĮĢíĸī": 7762,
      "ĠPC": 7763,
      "ê°ľíĺģ": 7764,
      "ĠìĥģíĴĪìĿĦ": 7765,
      "Ġ400": 7766,
      "lo": 7767,
      "æĻ": 7768,
      "Ġê°Ģì¹ĺìĻĢ": 7769,
      "Ġë°©ë²ķê³¼": 7770,
      "ĠëĤĺìĦ°": 7771,
      "Ġêµ¬ë§¤íķł": 7772,
      "Ġê²½íĹĺìĿ´": 7773,
      "Ġì§ģìĽĲëĵ¤ìĿĺ": 7774,
      "ĠìĿ¸ìĽĲìĿĢ": 7775,
      "ĠìĭľëıĦíķ´": 7776,
      "ĠìĦłíĥĿíķĺê³ł": 7777,
      "Ġê³ĦìłĪ": 7778,
      "ìĤ¬ì§Ģ": 7779,
      "Ġê°ľìĨĮ": 7780,
      "Ġë§¤ë§¤": 7781,
      "ra": 7782,
      "Ġìłķì²´": 7783,
      "íķĺìĭŃìĭľìĺ¤": 7784,
      "Ġíİ¼ì¹ĺê³ł": 7785,
      "ìłķì¹ĺ": 7786,
      "ê´Ģë¦¬ë¥¼": 7787,
      "ì¢ħìĿĦ": 7788,
      "ĠìĥĿê°ģíķ©ëĭĪëĭ¤": 7789,
      "ĠìķĪìłķìĿĦ": 7790,
      "ê·ľìłľ": 7791,
      "ĠëĮĢíļĮë¥¼": 7792,
      "Ġìľ¨": 7793,
      "ìļ´ëıĻìĿĦ": 7794,
      "ìłĳíķľ": 7795,
      "Ġê³µëıĻì£¼íĥĿ": 7796,
      "ë³´íĽĪ": 7797,
      "ìĭ¤ê³¼": 7798,
      "ĠíĶĦë¦¬": 7799,
      "Ġê¶ĮíķľìĿĦ": 7800,
      "ê³łê°Ģ": 7801,
      "Ġë¶Ħíķł": 7802,
      "ë³¸ë¶Ģìŀ¥": 7803,
      "´ë¥´": 7804,
      "300": 7805,
      "ĠìĦ¸ëĮĢ": 7806,
      "ì²ŃìĹĲ": 7807,
      "ĠìĤ¬ìļ©ìĹĲ": 7808,
      "Ġë¶Īê³¼": 7809,
      "Ġìĸ´ëĸłíķľê°ĢìļĶ": 7810,
      "íıĲê¸°ë¬¼": 7811,
      "Ġê³³ìĿĢ": 7812,
      "ë³Ģê²½": 7813,
      "Ġì¢ĭìĿĦ": 7814,
      "ĠìŀĲë¦¬ë¥¼": 7815,
      "ĠìĹŃìĤ¬ìłģìĿ¸": 7816,
      "Ġëĭ¤ìĸĳíķĺê²Į": 7817,
      "Ġì§Ģë¶Ī": 7818,
      "êµ°ìĤ¬": 7819,
      "Ġëĭ¨ë°±ì§Ī": 7820,
      "ĠíĸĪìľ¼ë©°": 7821,
      "Ġì°¾ìķĦë³´ìĦ¸ìļĶ": 7822,
      "Ġìĥģíĺ¸ìŀĳìļ©ìĿĦ": 7823,
      "Ġê³µíĻĶ": 7824,
      "Ġë°ĺëıĦì²´": 7825,
      "Ġë¬¼ê°Ģ": 7826,
      "ĠICT": 7827,
      "Ġìĺ¹": 7828,
      "ìħĢ": 7829,
      "ĠìĥģìĿĦ": 7830,
      "Ġìŀĺëª»ëĲľ": 7831,
      "íı¬ì§Ģ": 7832,
      "ĠìĦ±ìŀ¥ê³¼": 7833,
      "ä½¿": 7834,
      "Ġë°ĺìĿĳìĿĢ": 7835,
      "ëŀĦ": 7836,
      "ĠìľĦìĽĲíļĮëĬĶ": 7837,
      "ê¸ĪìĨį": 7838,
      "Ġìłķì±ħìĿĺ": 7839,
      "ĠìĿ´ë¥´ëŁ¬": 7840,
      "Ġ#": 7841,
      "Ġê±°ê¸°ìĹĲ": 7842,
      "ì§ĢìĿ¸": 7843,
      "Ġë³´íĸī": 7844,
      "ì¤ĳìĭ¬": 7845,
      "ĠíķĺëĤĺìĿ¸": 7846,
      "ĠìĤ¬íĥľ": 7847,
      "ê±´ìĿ´": 7848,
      "ãĢį(": 7849,
      "Ġë¦¬ë·°": 7850,
      "Ġíĸ¥ìĥģìĭľíĤ¤ê³ł": 7851,
      "ëĬĶì§ĢìĹĲ": 7852,
      "Ġì§Ģë°©ìĦ¸": 7853,
      "´ë§Ī": 7854,
      "ì§ĢìĭĿ": 7855,
      "ĠìłĦìĪĺ": 7856,
      "ĠìĹ°êµ¬ê°Ģ": 7857,
      "ìĿĺìŀ¥": 7858,
      "Ġê²°ìłķíķĺëĬĶ": 7859,
      "ĠìĿĺìĽĲìĿ´": 7860,
      "ëĤ´ê°Ģ": 7861,
      "Ġë¨¹ìĿĦ": 7862,
      "ê´ĳìĹŃìĭľìĿĺ": 7863,
      "ĠìĤ¬ìļ©íķĺê¸°": 7864,
      "ĠíĻľìļ©íķĺê³ł": 7865,
      "ĠìĦ±ê³µìłģìĿ¸": 7866,
      "66": 7867,
      "ĠìĤ¬ê±´ìĹĲ": 7868,
      "Ġìļ¸ìĤ°ê´ĳìĹŃìĭľ": 7869,
      "ëĲĺìĹĪìľ¼ëĤĺ": 7870,
      "ìĿ´íģ¬ë¡ľ": 7871,
      "ìĭłëĿ¼": 7872,
      "Ġê³µìĹħ": 7873,
      "ĠíŀĲ": 7874,
      "Ġê°Ģìķ¼": 7875,
      "Ġê³µìĤ¬ë¥¼": 7876,
      "Ġë³¸ê²©ìłģìĿ¸": 7877,
      "íħľ": 7878,
      "ĠíĹĪë¸Į": 7879,
      "ìĿ´ìłľ": 7880,
      "ëĭ¹ìĹĲìĦľ": 7881,
      "ĠëĭŃ": 7882,
      "íļĮìĿĺë¥¼": 7883,
      "Ġíĺĳëł¥ê³¼": 7884,
      "ìį": 7885,
      "ĠìĤ¬íļĮìĹĲ": 7886,
      "íķĺìĭľë©´": 7887,
      "ĠíĽĦë°ĺ": 7888,
      "Ġê²Ģì¶ľ": 7889,
      "Ġê°ĢëŃĦ": 7890,
      "Ġë¶Īíİ¸ìĿĦ": 7891,
      "Ġe": 7892,
      "ìĪŃ": 7893,
      "Ġì¡°ë¡ĢìĹĲ": 7894,
      "ĠìĹŃìĤ¬ë¥¼": 7895,
      "Ġê°ľë°ľíķľ": 7896,
      "ê°Ģë£¨": 7897,
      "ĠìłĲìľł": 7898,
      "ìĻķìĿĺ": 7899,
      "ìŀ¬ìĥĿìĹĲëĦĪì§Ģ": 7900,
      "ĠìĿ´ëķĮ": 7901,
      "ĠìĿ¸ê¸°ë¥¼": 7902,
      "Ġìĺ¨ëıĦ": 7903,
      "ĠìķĮë¦¬ê³ł": 7904,
      "Ġê°Ģê¾¸": 7905,
      "ìłĲìĿĺ": 7906,
      "íģ´": 7907,
      "Ġë¹ĦëĮĢë©´": 7908,
      "ĠSNS": 7909,
      "ĠìķĬëĭ¤": 7910,
      "ê²½ìĥģëĤ¨ëıĦ": 7911,
      "Ġì£¼ë¯¼ìĿĺ": 7912,
      "íıīê·ł": 7913,
      "ĠìĿ´ë£¨ê³ł": 7914,
      "å·ŀ": 7915,
      "Ġê³łêµ¬ëł¤": 7916,
      "ë³´ìŀ¥": 7917,
      "Ġê¸°ëĬ¥ìĿ´": 7918,
      "ĠìĿĺë£Įê¸°ê´Ģ": 7919,
      "Ġê²½ê´Ģ": 7920,
      "ìĿ´ë©´": 7921,
      "Ġê¸Īìķ¡ìĿĦ": 7922,
      "ĠìĿĺìĭĿ": 7923,
      "ĠëĮĢë¹ĦíķĺìĹ¬": 7924,
      "ìĹ¬ìĦ±ê°Ģì¡±": 7925,
      "ĠíĻĶë¬¼": 7926,
      "ĠíĬ¹ë³ĦíŀĪ": 7927,
      "íķĺìĿĺ": 7928,
      "Ġ48": 7929,
      "ê±´ëĵ¤": 7930,
      "ĠìłĳìĨį": 7931,
      "ĠìłĲìĹĲ": 7932,
      "Ġíļ¡": 7933,
      "Ġì¢ħìĤ¬ìŀĲ": 7934,
      "Ġê³ĦíļįìĿĺ": 7935,
      "ĠìĦľë¹ĦìĬ¤ëĬĶ": 7936,
      "Ġíĺĳëł¥ìĿ´": 7937,
      "ìłķë¶ĢìĿĺ": 7938,
      "íİĺëĿ¼": 7939,
      "ê°Ģìŀ¥": 7940,
      "Ġì¢ħìłĦìĿĺ": 7941,
      "ìŀ¥ëĭĺìĿĢ": 7942,
      "ĠìĪľê°Ħ": 7943,
      "ĠìĤ¬ì°°": 7944,
      "ĠìķĦëĭĪê³ł": 7945,
      "Ġíģ´ë¦Ń": 7946,
      "Ġìľłíĸī": 7947,
      "Ġâīª": 7948,
      "ĠíĻķìĿ¸íķ´": 7949,
      "Ġì¡±": 7950,
      "Ġì´ĪëĮĢ": 7951,
      "´ëŀĮ": 7952,
      "Ġ120": 7953,
      "Ġìĭłì¤ĳ": 7954,
      "ĠìĸĳëıĦ": 7955,
      "ĠëıĻëĤ¨": 7956,
      "ĠìķĪê±´ìĿĢ": 7957,
      "ĠìĤ°ìĹħëĭ¨ì§Ģ": 7958,
      "ĠìĦłë³Ħ": 7959,
      "íĻĪ": 7960,
      "ê³µëıĻì²´": 7961,
      "ê°ľìĨĮë¥¼": 7962,
      "ëĭ¤ìĭľ": 7963,
      "Ġíķłê¹Į": 7964,
      "Ġìĺ¬ë¦¬": 7965,
      "ĠìĹ°ìķĪ": 7966,
      "Ġëª©íĳľìĻĢ": 7967,
      "Ġì²Ńìłķ": 7968,
      "Ġë¬´ìĹĩìĿ´ìĹĪê³ł": 7969,
      "ĠìĨĮë¦¬": 7970,
      "ĠìĿĺë¯¸ëĬĶ": 7971,
      "ìłĦìļ©": 7972,
      "ìĤŃ": 7973,
      "ë°Ľìķĺ": 7974,
      "ĠìĪĺíĸīíķ©ëĭĪëĭ¤": 7975,
      "Ġì¦ĿëĮĢ": 7976,
      "ì°¨ë¡Ģ": 7977,
      "Ġìŀİ": 7978,
      "ìĨĮíĶĦíĬ¸": 7979,
      "ë§Ľ": 7980,
      "Ġê±·": 7981,
      "ëĮĢìĹĲìĦľ": 7982,
      "êµĲë¶Ģ": 7983,
      "ì§Ħëĭ¨": 7984,
      "Ġì¡°ì§ģìĿĺ": 7985,
      "Ġì²´ê²°íķľ": 7986,
      "Ġë¹¨ë¦¬": 7987,
      "ĠìĥĿíĻľìĿĦ": 7988,
      "íĸīìĤ¬ë¥¼": 7989,
      "íĥĲ": 7990,
      "Ġê²ĥìĿ´ê³ł": 7991,
      "ĠìĺĪìĤ°ìķĪìĿĢ": 7992,
      "ìĭľì¼°ëĭ¤": 7993,
      "ĠëĲĺëĬĶëį°": 7994,
      "ìĦ¤ìĿĦ": 7995,
      "ë§Īì¼ĢíĮħ": 7996,
      "ĠìĨĲìĥģ": 7997,
      "ĠíĤ¤ìĽĮ": 7998,
      "ëĨĢ": 7999,
      "íĨµìĥģìŀĲìĽĲë¶Ģ": 8000,
      "ê²ĮìŀĦ": 8001,
      "ì¶ľìĤ°": 8002,
      "íĻĺìŀĲ": 8003,
      "Ġê¸°ê¸ĪìĿĺ": 8004,
      "Ġìĥģê³łìĿ´ìľł": 8005,
      "åŁİ": 8006,
      "åī": 8007,
      "ĠìĤ¬ìĹħìŀĲ": 8008,
      "ĠíĥľëıĦë¥¼": 8009,
      "Ġë°°ëł¤": 8010,
      "ëĩĮ": 8011,
      "ĠìĪĺëł¹": 8012,
      "Ġìĺ³": 8013,
      "Ġë§İìĬµëĭĪëĭ¤": 8014,
      "ĠìĹŃìĤ¬ìĻĢ": 8015,
      "CC": 8016,
      "ĠêµĲìĽĲ": 8017,
      "Ġê²½ìļ°ìĹĲëıĦ": 8018,
      "ĠìĦłíĥĿíķĺìĹ¬": 8019,
      "ĠìłľìķĪìĦ¤": 8020,
      "ĠëĮĢíļĮëĬĶ": 8021,
      "ĠìĻĢìĦľ": 8022,
      "Ġê¸°ìļ¸ìĿ¼": 8023,
      "Ġë¶ĢìłķìłģìĿ¸": 8024,
      "ĠëĿ¼ìĿ´ë¸Į": 8025,
      "ĠëĮĢêµ¬ê´ĳìĹŃìĭľ": 8026,
      "ĠíĮĮê´´": 8027,
      "Ġëª¸ìĿĦ": 8028,
      "ĠìĦ¤ìłķíķĺê³ł": 8029,
      "Ġì§ĢìĭĿê³¼": 8030,
      "Ġë¹Ħìľ¨ìĿ´": 8031,
      "ëĨįë¦¼ìĪĺìĤ°": 8032,
      "Ġì±ĦìĨĮ": 8033,
      "Ġê³łíĿ¥": 8034,
      "Ġê³³ìľ¼ë¡ľ": 8035,
      "Ġìľłëŀĺ": 8036,
      "Ġëį°ìĿ´íĦ°ìĿĺ": 8037,
      "Ġë°ĽìķĺëĤĺìļĶ": 8038,
      "ĠëĦĵìĿĢ": 8039,
      "Ġê°ľë°ľíķĺëĬĶ": 8040,
      "ìĽĲìŀ¥ìĿĢ": 8041,
      "Ġê°ķì§Ħ": 8042,
      "Ġê¸°ìĹħê³¼": 8043,
      "ëĭ¹ìĹĲ": 8044,
      "Ġê´Ģë¦¬íķł": 8045,
      "ĠìĹ¬ë¦Ħì²ł": 8046,
      "íĻĶìŀ¥": 8047,
      "íķĻêµĲìĹĲìĦľ": 8048,
      "Ġìĭľìŀĳíķľ": 8049,
      "ìĭľìŀ¥ìĿĺ": 8050,
      "ëĦ¤ìĭľìķĦ": 8051,
      "ê³µëª¨": 8052,
      "Ġì»¬": 8053,
      "ëıĹ": 8054,
      "ä¿": 8055,
      "Ġë°©ë¥ĺ": 8056,
      "Ġì²łìłĢíķľ": 8057,
      "ê³¼ìĹĲ": 8058,
      "ĠìĺĪìĥģëĲĺëĬĶ": 8059,
      "ĠíĥĿìĭľ": 8060,
      "Ġë³µë¬´": 8061,
      "ĠìĿ´ìĬ¤ëĿ¼ìĹĺ": 8062,
      "ëĭŃ": 8063,
      "Ġê³µìĹ°ìĿĦ": 8064,
      "**": 8065,
      "Ġíķ´ìĨĮë¥¼": 8066,
      "ì§ĢëĤĺ": 8067,
      "ê±´ë¬¼": 8068,
      "Ġê¶": 8069,
      "Ġíĺĳìĥģ": 8070,
      "ĠìĪĺìļĶê°Ģ": 8071,
      "ê¶Įê³¼": 8072,
      "ë©ĶìĿ´ìħĺ": 8073,
      "ê·¸ìĿĺ": 8074,
      "ĠíĸīìľĦìĹĲ": 8075,
      "ĠìŀĲë°ľ": 8076,
      "ìĭłìĿĢ": 8077,
      "æ´": 8078,
      "âĹ": 8079,
      "ëŁīê³¼": 8080,
      "ë³µìĿĦ": 8081,
      "ìĻ¸ë¶Ģ": 8082,
      "å®Ĺ": 8083,
      "ĠìĿ´ëĤ´ìĹĲ": 8084,
      "ì¡°ë¥ĺ": 8085,
      "ĠëĲĺìĹĪìľ¼ë©°": 8086,
      "ë§Įíģ¼": 8087,
      "Ġìķ½ê°Ħ": 8088,
      "ìłł": 8089,
      "Ġíģ´ëŁ¬": 8090,
      "ĠìłķìĪĺ": 8091,
      "ĠíķĺëĤĺìŀħëĭĪëĭ¤": 8092,
      "ĠìłĦíĨµìĭľìŀ¥": 8093,
      "ê°Ģì¶ķ": 8094,
      "ĠìłĦìĭľíļĮ": 8095,
      "ê²¼ëĭ¤": 8096,
      "Ġìłľëª©": 8097,
      "ë¯¼ì¡±": 8098,
      "ĠëĤĺíĥĢëĤĺëĬĶ": 8099,
      "Ġë§Īì°¬": 8100,
      "ëĮĢë¹Ħ": 8101,
      "Ġìŀ¬ë£Įë¥¼": 8102,
      "Ġìłķíķĺê³ł": 8103,
      "Ġê°ķìķĦ": 8104,
      "Ġìĺ¬íķ´ëĬĶ": 8105,
      "ĠëĮĢíķĺìĹ¬ëĬĶ": 8106,
      "Ġíķ´ìĨĮíķĺê¸°": 8107,
      "Ġë¶ĢìĤ°ê´ĳìĹŃìĭľ": 8108,
      "ĠìĿ¼ìĿĢ": 8109,
      "ĠëĮĢìĥģìŀĲ": 8110,
      "Ġê¸°ê´ĢìĹĲ": 8111,
      "ĠìĿ´ë£¨ìĸ´ì§Ģì§Ģ": 8112,
      "ĠíĽ¼ìĨĲ": 8113,
      "Ġì¢ħìŀĲ": 8114,
      "OC": 8115,
      "ĠìĭłìĦłíķľ": 8116,
      "ĠëĶ°ëľ»íķľ": 8117,
      "ĠíĨłë¡łìĿĦ": 8118,
      "èĩ£": 8119,
      "ĠìĿ¸ìłģ": 8120,
      "ç´": 8121,
      "ìĿ´ìĽĶ": 8122,
      "Ġì£¼ë³ĢìĿĺ": 8123,
      "ê°Ģê³µ": 8124,
      "Ġë¯¼ê´Ģ": 8125,
      "Ġê²ĢíĨłíķĺê³ł": 8126,
      "Ġê²¨ìļ¸ì²ł": 8127,
      "Ġê°ľìĭľ": 8128,
      "2013": 8129,
      "ĠìľĦìĽĲíļĮìĹĲìĦľ": 8130,
      "Ġêµ¬ê¸ī": 8131,
      "ĠìĦ¤ì¹ĺë¥¼": 8132,
      "Ġì¶ľìĦĿ": 8133,
      "Ġíĺ¼íķ©": 8134,
      "Ġë§Īì¹ĺê³ł": 8135,
      "Ġíķ´ë³Ģ": 8136,
      "Ġê°ĢìĨį": 8137,
      "ìĿ¼ë³´": 8138,
      "ìĿ¸ì²ľìĭľ": 8139,
      "èĪ": 8140,
      "ìľĦìĻĢ": 8141,
      "ĠíıīìĥĿêµĲìľ¡": 8142,
      "ìĿ¸íĬ¸": 8143,
      "Ġë¯¼ì£¼ì£¼ìĿĺ": 8144,
      "ìľĦíĹĺ": 8145,
      "Ġìķ¼êµ¬": 8146,
      "ĠìĿ´ëĵ¬": 8147,
      "Ġê³µíĹĮ": 8148,
      "Ġ55": 8149,
      "Ġìĭľê¸ī": 8150,
      "ê·łíĺķ": 8151,
      "Ġì´Ŀëł¥ìĿĦ": 8152,
      "ĠìĦ¤ì¹ĺìĹĲ": 8153,
      "Ġëĭ´ëĭ¹íķĺê³ł": 8154,
      "ìĹĨëĬĶ": 8155,
      "ë¦¬íĬ¸": 8156,
      "Ġì§ĦíĸīëĲľ": 8157,
      "ĠìĹ´ìĸ´": 8158,
      "Ġì§ĢìĹŃìĿ´": 8159,
      "íį¼ëŁ°": 8160,
      "Ġë©ĺíĨł": 8161,
      "êµĲìľ¡ê°Ĳ": 8162,
      "Ġë³´ì¡°ê¸Ī": 8163,
      "Ġë°°ê²½ìĿĢ": 8164,
      "ëĤ´ë²ĦìĬ¤": 8165,
      "ĠìĿĺë£Įê¸°ê¸°": 8166,
      "Ġ=": 8167,
      "Ġê°ķìĤ¬": 8168,
      "Ġìĭľìŀ¥ìĿ´": 8169,
      "Ġê·¸ëĵ¤ìĿ´": 8170,
      "Ġì§ĦíĸīëĲĺëĤĺìļĶ": 8171,
      "ìĿ¼ìŀĲë¦¬": 8172,
      "ãĢĬ": 8173,
      "ĠíļĮìĪĺ": 8174,
      "ĠìĪĺë¥¼": 8175,
      "¯ë²Į": 8176,
      "Ġìłľê³łë¥¼": 8177,
      "ĠíĺģìĭłëıĦìĭľ": 8178,
      "Ġê²½ìĹ°": 8179,
      "ë§ĪíĨł": 8180,
      "Ġìĭľê°ĦìĹĲ": 8181,
      "Ġë³´ìĤ´": 8182,
      "íļĮìĿĺë¡Ŀ": 8183,
      "ëª¨ëį¸ë§ģ": 8184,
      "ĠìĹ¬ìŀĲ": 8185,
      "Ġë°ĺë©´": 8186,
      "um": 8187,
      "ê³¼ë¥¼": 8188,
      "Ġíģ¬ê¸°": 8189,
      "Ġì°½ë¦½": 8190,
      "ì§Ģì»¬": 8191,
      "ĠìĿ¸ìĭĿíķĺê³ł": 8192,
      "ĠìĺĪìĪĺ": 8193,
      ")âĢĻ": 8194,
      "Ġê²°ìĦ±": 8195,
      "Ġì§Ģìĥģ": 8196,
      "ĠìĿ¼ê´Ħ": 8197,
      "Ġíĸ¥ìĥģìĭľíĤ¤ê¸°": 8198,
      "ĠìĿĳìļ©": 8199,
      "Ġëĭµë³ĢìĿĢ": 8200,
      "´ëįĶ": 8201,
      "ĠìĿ´ëģĮìĸ´": 8202,
      "ë®": 8203,
      "76": 8204,
      "ìĦ¸ìŀħ": 8205,
      "Ġìĭłíĺ¸": 8206,
      "ĠìļĶìĿ¸": 8207,
      "ĠìĹ°êµ¬ìļ©ìĹŃ": 8208,
      "ĠìĦ±ê³µìĿĦ": 8209,
      "Ġê¸ĢìĿĦ": 8210,
      "ìłģìłĪíķľ": 8211,
      "Ġìĵ°ëĬĶ": 8212,
      "Ġê³µíķŃ": 8213,
      "ĠìµľìłĢ": 8214,
      "ãĢįÂ·": 8215,
      "íķľíħĮ": 8216,
      "ĠìĤ°ìĹħíĺģëªħ": 8217,
      "ĠìĨĮìĿĮ": 8218,
      "Ġê´Ģê³Ħê°Ģ": 8219,
      "ĠìĤ¬ë¦½": 8220,
      "ĠíķĺëĿ½": 8221,
      "ĠëĤ´ìĭ¤": 8222,
      "íķĺìĿ´": 8223,
      "ì§Ģì¹¨": 8224,
      "Ġëĭ¤ìĸĳìĦ±": 8225,
      "ìłĦëĤ¨ëıĦìĿĺ": 8226,
      "ĠìĪĺë©´": 8227,
      "ĠêµŃìŀ¥": 8228,
      "Ġë°°ë¶Ģ": 8229,
      "ê³µë¬´": 8230,
      "ĠìĹħê³Ħ": 8231,
      "Ġê·¸ëŁ¬íķľ": 8232,
      "Ġìĸ¸ê¸īíķĺê³ł": 8233,
      "ĠìĦ¸ê³ĦìłģìĿ¸": 8234,
      "íĶĮë£¨ìĹĶìŀĲ": 8235,
      "Ġì§Ģë°©ìŀĲì¹ĺ": 8236,
      "êµŃë¯¼ê¶ĮìĿµ": 8237,
      "Ġíģ´ëŁ¬ìĬ¤íĦ°": 8238,
      "Ġë¹ĦíĥĢë¯¼": 8239,
      "ê´Ģë¦¬ìĹĲ": 8240,
      "Ġê¸°ì¤ĢìĿ´": 8241,
      "Ġë³µìŀ¡íķľ": 8242,
      "93": 8243,
      "ìĤ¬íļĮìĿĺ": 8244,
      "ìŀĲë³¸": 8245,
      "ĠìĽ¨": 8246,
      "ĠìĹħì²´ê°Ģ": 8247,
      "ìĬ¬ëŀĮ": 8248,
      "ê¸°ì§Ģ": 8249,
      "Ġíķĺëĭ¤": 8250,
      "Ġíı¬íķ¨íķĺìĹ¬": 8251,
      "Ġê¸Īìķ¡ìĿ´": 8252,
      "ĠìļĶìĨĮëĬĶ": 8253,
      "ëĤ´ë": 8254,
      "ĠêµĲìľ¡ê°Ĳ": 8255,
      "ê°ĢìĹĲ": 8256,
      "ĠíĢ": 8257,
      "Ġë°ľìĥĿíķĺì§Ģ": 8258,
      "ĠìĿ¸ë¬¼ìĿĢ": 8259,
      "Ġëª¨ìŀĦ": 8260,
      "íŀĲ": 8261,
      "ĠìĦ±ë³Ħ": 8262,
      "ĠìĦ¤ì¹ĺíķĺê³ł": 8263,
      "ĠìĪľíļĮ": 8264,
      "Ġê³łíĴĪì§Ī": 8265,
      "ì£¼ìĹĲ": 8266,
      "ĠíĬ¹ìĥī": 8267,
      "ìŀ¥ìĨĮ": 8268,
      "ĠìĿ´ëĵ¬íķ´": 8269,
      "ìĺģìĹħ": 8270,
      "ĠëĲĺê²łìĬµëĭĪëĭ¤": 8271,
      "Ġì§Īë¬¸ìĹĲ": 8272,
      "ìĹ¬ëŁ¬": 8273,
      "ê¹Įì§ĢëĬĶ": 8274,
      "ìĤ°ìĹħëĭ¨ì§Ģ": 8275,
      "Ġê³µì¤ĳ": 8276,
      "Ġë²ķë¥łìĹĲ": 8277,
      "ĠìłĦë°ĺìĹĲ": 8278,
      "oo": 8279,
      "ĠíıĲìĩĦ": 8280,
      "ãĢįÂ·ãĢĮ": 8281,
      "Ġì¡´ì¤ĳíķĺê³ł": 8282,
      "Ġê¸°ìĹ¬íķľ": 8283,
      "ĠìĦ¤ëªħíĸĪëĤĺìļĶ": 8284,
      "Ġìĭ¤ìĭľê°Ħìľ¼ë¡ľ": 8285,
      "íĻľëıĻìĹĲ": 8286,
      "ê³±": 8287,
      "íĦ°ë¥¼": 8288,
      "Ġìłľê³µíķĺë©°": 8289,
      "æ²": 8290,
      "´ëĤ´": 8291,
      "¸ë¦¬": 8292,
      "Ġë°°ìĨ¡": 8293,
      "ĠìĿĺë¢°": 8294,
      "Ġêµ¬ìĥģ": 8295,
      "âĢľ": 8296,
      ".......": 8297,
      "è¦": 8298,
      "Ġëĵ¤ê³ł": 8299,
      "ĠëªħíĻķíŀĪ": 8300,
      "Ġê²½ê³¼ì¡°ì¹ĺ": 8301,
      "Ġê³ĦíļįìĿ´ë©°": 8302,
      "ĠíĶ¼íķ´ìŀĲ": 8303,
      "Ġë¹Ħìłķ": 8304,
      "Ġëĭ¹ìĦł": 8305,
      "Ġíİ¸ìķĪíķľ": 8306,
      "ĠëıĦìĭľìŀ¬ìĥĿ": 8307,
      "Ġëī´ìĬ¤": 8308,
      "ê²½ìĿĺ": 8309,
      "Ġì¢ħíķ©ìłģìľ¼ë¡ľ": 8310,
      "Ġìĸ¸ìĸ´ë¥¼": 8311,
      "Ġë°ľëł¹": 8312,
      "ĠìļĶêµ¬ë¥¼": 8313,
      "ê°ĢëĿ½": 8314,
      "ĠíĳľíĺĦíķĺëĬĶ": 8315,
      "ĠíĿ°": 8316,
      "ĠìĤ¬ìĹħëĵ¤ìĿ´": 8317,
      "Ġë§İìķĺ": 8318,
      "ĠìŀĪëĬĶì§ĢìļĶ": 8319,
      "Ġíĺ¸ìĿĳ": 8320,
      "ĠêµŃìŀ¥ìĿĢ": 8321,
      "ĠìĽĲë£Į": 8322,
      "Ġë°°ìļ¸": 8323,
      "Ġì¡°ìĸ¸": 8324,
      "ĠëĽ°ìĸ´ëĤľ": 8325,
      "ìĭ¤íĹĺ": 8326,
      "2011": 8327,
      "Ġê°ľìĦłìĹĲ": 8328,
      "íĻĺê²½ìĿĦ": 8329,
      "Ġìłķë³´ìĻĢ": 8330,
      "ĠìĤ¬ëŀĮìĹĲê²Į": 8331,
      "Ġêµ¬ìĦ±ìĿĢ": 8332,
      "éł": 8333,
      "ĠìĤ¬ê¸°": 8334,
      "ìŀĪëĭ¤": 8335,
      "Ġìłķë³´ëĬĶ": 8336,
      "ĠíĭĢ": 8337,
      "ĠìĽĲíĻľíķĺê²Į": 8338,
      "ì§Ģê¸°": 8339,
      "ĠìĽĲìĤ°ì§Ģ": 8340,
      "ìĥĿëªħ": 8341,
      "Ġê±´ê°ķê³¼": 8342,
      "ì°¨ê°Ģ": 8343,
      "ëĲĺê¸°ëıĦ": 8344,
      "ĠìĬ¤íģ¬": 8345,
      "Ġê´ĢëĤ´": 8346,
      "Ġë¶Ģì¡±ìľ¼ë¡ľ": 8347,
      "ë°Ķëĭ¤": 8348,
      "íķ´ìĿĺ": 8349,
      "Ġíı¬íķ¨íķ©ëĭĪëĭ¤": 8350,
      "ĠìĥĿê°ģíķĺëĬĶ": 8351,
      "ê²ĢìĤ¬ë¥¼": 8352,
      "Ġê¸¸ìĿĦ": 8353,
      "ê´Ģê³Ħë¥¼": 8354,
      "Ġë²ķìĿĦ": 8355,
      "Ġì£¼ìłľë¥¼": 8356,
      "Ġì¹ĺë§¤": 8357,
      "Ġì§ĢìĽĲìĿĢ": 8358,
      "Ġíķľìłķ": 8359,
      "ĠìĭĿëŁī": 8360,
      "ê¿Ī": 8361,
      "Ġëľ¨": 8362,
      "Ġì¹ĺìķĦ": 8363,
      "Ġëĭ¤ìĪĺ": 8364,
      "Ġë°ĺìĺģíķĺìĹ¬": 8365,
      "Ġì¤ĦìĿ´ëĬĶ": 8366,
      "íľ´ìĸĳ": 8367,
      "ë³´ìķĪ": 8368,
      "Ġë°±ìĦ±": 8369,
      "ë°ľìĿĦ": 8370,
      "Ġìłľìŀ¬": 8371,
      "ĠìĺĪìĻ¸": 8372,
      "íĨµìĿ¼": 8373,
      "ê¸°ì´Ī": 8374,
      "íĺ¸íħĶ": 8375,
      "ìĺĪë¹Ħ": 8376,
      "ĠìŀĦë¬´": 8377,
      "´ë§¤": 8378,
      "Ġë¶Ģì±Ħ": 8379,
      "ê¸°ì¡´": 8380,
      "ct": 8381,
      "Ġì§ĢìĹŃê³¼": 8382,
      "Ġê³¼ìłľë¥¼": 8383,
      "ĠìłľìĿ¼": 8384,
      "ĠëĤĺìķĦ": 8385,
      "êµĲìľ¡ê³¼": 8386,
      "ìķ¡ìĹĲ": 8387,
      "Ġê±°ì§ĵ": 8388,
      "Ġë¶ĦìľĦê¸°": 8389,
      "ë°©ìĿĦ": 8390,
      "Ġë¶Īë¦¬ëĬĶ": 8391,
      "ĠìĥĿê°ģìĿ´": 8392,
      "ĠìĿĺì§Ģë¥¼": 8393,
      "ë¬¼ê³¼": 8394,
      "å¿": 8395,
      "ĠìĦłê³ł": 8396,
      "ê±´ìĹĲ": 8397,
      "ĠìĹ´ëł¸": 8398,
      "ì£¼ìĻĢ": 8399,
      "Ġë©´ìłĳ": 8400,
      "ĠíĺĦìŀ¥ìĿĺ": 8401,
      "ĠìłĦíĸĪëĭ¤": 8402,
      "Ġì¦Ĳê¸°ëĬĶ": 8403,
      "ĠëĿĦ": 8404,
      "ĠìĪŃ": 8405,
      "ìĭľì±ħ": 8406,
      "ĠìĪĺìĥģíķľ": 8407,
      "Ġìĭ¬ìĿĺë¥¼": 8408,
      "Ġëĭ¤ì¤ĳ": 8409,
      "Ġê³¼ìĿ¼": 8410,
      "Ġë¹ĦëĶĶìĺ¤": 8411,
      "ĠíĻķìĿ¸íķ´ìķ¼": 8412,
      "ìĦ¸íı¬": 8413,
      "2008": 8414,
      "åĮ": 8415,
      "Ġìĸ´ëł¤ìĽĢìĿĢ": 8416,
      "êµĲìľ¡ì²ŃìĿĺ": 8417,
      "ĠìľĦì¹ĺìĹĲ": 8418,
      "ĠìĺĪìłķìĿ¸": 8419,
      "ë¦¬ì¼ĢìĿ´ìħĺ": 8420,
      "Ġê³µìĺĪ": 8421,
      "Ġìľłë§Ŀ": 8422,
      "ê·¸ëŀĺë°į": 8423,
      "Ġì°½ì¶ľìĿĦ": 8424,
      "Ġëıķê¸°": 8425,
      "ë³¸ë¶Ģìŀ¥ìĿĢ": 8426,
      "Ġ**": 8427,
      "ĠìłĦë¬¸ê°ĢìĻĢ": 8428,
      "Ġë³¸ê²©ìłģìľ¼ë¡ľ": 8429,
      "ëıĦìĭľìŀ¬ìĥĿ": 8430,
      "iv": 8431,
      "ëĮĢêµĲ": 8432,
      "ìĺĪìļĶ": 8433,
      "ëıĦìĭľê°ľë°ľ": 8434,
      "íļ¨ìľ¨": 8435,
      "íı¬ì§ĢìĹĦ": 8436,
      "em": 8437,
      "ĠìĹ°êµ¬ìĻĢ": 8438,
      "íķĺìħ¨ìĬµëĭĪëĭ¤": 8439,
      "Ġì¤ĳìĿĺ": 8440,
      "íķ¨ê³¼": 8441,
      "íı¬ìŀ¥": 8442,
      "Ġê¸ĪëħĦ": 8443,
      "ì¶Ķê°Ģ": 8444,
      "ê°ķìĿĦ": 8445,
      "Ġì¡°ë¡Ģë¥¼": 8446,
      "Ġì¶ĶìłķëĲľëĭ¤": 8447,
      "ê±°ëĵłìļĶ": 8448,
      "êµ°ìĹĲìĦľ": 8449,
      "ĠìĨĲíķ´ë°°": 8450,
      "ĠìĸĳìŀĲ": 8451,
      "ĠìĥģíĥľìĹĲ": 8452,
      "Ġë°ĶìĿ´ëŁ¬ìĬ¤": 8453,
      "Ġìĸ´ê¹¨": 8454,
      "Ġë©Ķëī´": 8455,
      "ĠëĨįë¦¼ì¶ķìĤ°": 8456,
      "ĠìĦ±ê³¼ëĬĶ": 8457,
      "85": 8458,
      "ìĦłìĪĺ": 8459,
      "Ġëĭ¹ìĭľìĿĺ": 8460,
      "Ġë³Ģê²½ëĲĺìĹĪëĤĺìļĶ": 8461,
      "ëł¥ìĹĲ": 8462,
      "ìĹħìĨĮ": 8463,
      "ĠìĿ´ë°": 8464,
      "Ġìľ¤ë¦¬ìłģ": 8465,
      "íļĮìĤ¬ìĿĺ": 8466,
      "ëŁŃ": 8467,
      "ëıħë¦½": 8468,
      "ĠìĤ¬ìļ©ëĲĺë©°": 8469,
      "ĠìĿ¸íķĺ": 8470,
      "Ġë¸Ķë£¨": 8471,
      "ìŀ¬ëĭ¨ìĿ´": 8472,
      "íĥĿìĭľ": 8473,
      "Ġê´´": 8474,
      "ìłĦì²´": 8475,
      "Ġì§ĢìĹŃë³Ħ": 8476,
      "ĠíķĺìĺĢëĤĺìļĶ": 8477,
      "éŁ": 8478,
      "ëĭĪë©ĶìĿ´ìħĺ": 8479,
      "Ġë§ĮìłĦìĿĦ": 8480,
      "ĠìłĦëĭ¬íķł": 8481,
      "Ġ75": 8482,
      "Ġê¿": 8483,
      "ĠìĿ¼ì°į": 8484,
      "ìłķë¶Ģê°Ģ": 8485,
      "ĠìłģìłĪíŀĪ": 8486,
      "Ġëĭ´ìĸĳ": 8487,
      "ì§ĢìĹŃìĹĲìĦľ": 8488,
      "ĠìłĦëĭ¬íķĺê³ł": 8489,
      "Ġìŀī": 8490,
      "Ġì²ĺë¦¬ë¥¼": 8491,
      "Ġìĭ¤ìĭľíķ´": 8492,
      "ĠìłĢíķĺ": 8493,
      "Ġìĸ´ëĶĶìĿ¸ê°ĢìļĶ": 8494,
      "ĠìľĦìĿĺ": 8495,
      "ìĦĿìĿĢ": 8496,
      "êµŃíĨłêµĲíĨµë¶Ģ": 8497,
      "Ġê¶ĮìĿµ": 8498,
      "´ëĥ": 8499,
      "ê¹ĥ": 8500,
      "Ġìłķê¸°ìłģìľ¼ë¡ľ": 8501,
      "ìī¬": 8502,
      "Ġì¶Ķêµ¬íķĺëĬĶ": 8503,
      "ìĪĺì§Ģ": 8504,
      "ĠìĤ¬ìĹħìŀ¥": 8505,
      "ë°ĺìĿĦ": 8506,
      "ĠíĽĦê¸°": 8507,
      "ì¡¸": 8508,
      "íĤ´": 8509,
      "ĠìĥĿê°ģíķĺëĬĶê°Ģ": 8510,
      "ĠìĿ¼ìłķìĿĢ": 8511,
      "Ġê²ĥì²ĺëŁ¼": 8512,
      "ĠëĨįìĪĺìĤ°ë¬¼": 8513,
      "ĠíĸĪëįĺ": 8514,
      "ë¶ĢíĴĪ": 8515,
      "ç¦®": 8516,
      "ĠìŀĲë§¤": 8517,
      "ĠìļĶì²ŃìĿĦ": 8518,
      "ë¶ĢíĦ°ëĬĶ": 8519,
      "Ġë¬¸íĻĶìľłìĤ°": 8520,
      "ĠìĤ¬ê°ģ": 8521,
      "ìłģíķľ": 8522,
      "ĠìĦ¸ìļ´": 8523,
      "ì¡°ìĻĢ": 8524,
      "ĠìĿĺê±°": 8525,
      "Ġìĥģíĸ¥": 8526,
      "Ġë²ĦíĬ¼": 8527,
      "Ġíķľê¸Ģ": 8528,
      "ĠìĹĨëĭ¤ëĬĶ": 8529,
      "ĠìķĦëĭĪíķľ": 8530,
      "Ġë§Ľê³¼": 8531,
      "ĠìłĪì°¨ìĹĲ": 8532,
      "ìľłëŁ½": 8533,
      "ì¸µìĿĺ": 8534,
      "Ġê²½ë¹Ħ": 8535,
      "Ġë§¤ëī´ìĸ¼": 8536,
      "Ġë¶Ģìĭ¤": 8537,
      "ë¦ĩ": 8538,
      "ĠìĪĺìĿµìĿĦ": 8539,
      "')": 8540,
      "ì§Ģë©´ìĦľ": 8541,
      "´ë¬´": 8542,
      "mm": 8543,
      "Ġì§ĢëĭĮ": 8544,
      "Ġìĭ¤ìĬµ": 8545,
      "ë°©ìķĪìĿĦ": 8546,
      "Ġë¬µ": 8547,
      "ìĿĮìĹĲëıĦ": 8548,
      "ĠëĤ³": 8549,
      "Ġìļ´ìĺģíķľëĭ¤": 8550,
      "ìĤ¬ìĹħê³¼": 8551,
      "ê¸°íĥĢ": 8552,
      "ĠìĿ´ìĥģìĿ´": 8553,
      "ĠìĭľìłĪ": 8554,
      "Ġ39": 8555,
      "ĠíĻľìķ½": 8556,
      "Ġê²½íĸ¥ìĿ´": 8557,
      "ëıĦì§ĢìĤ¬": 8558,
      "Ġì²´ê°Ĳ": 8559,
      "ìĿ´ìĸ´ìĦľ": 8560,
      "77": 8561,
      "Ġì§ĳíķ©": 8562,
      "ì£¼íĸī": 8563,
      "ëįĶëĿ¼": 8564,
      "ĠëĮĢì±ħìĹĲ": 8565,
      "and": 8566,
      "ĠëĮĢìĻ¸": 8567,
      "ĠìĹħì²´ìĿĺ": 8568,
      "Ġìłķíķľ": 8569,
      "ĠìĤ¬ìļ©ìŀĲìĿĺ": 8570,
      "ĠìµľìĨĮíĻĶíķĺê¸°": 8571,
      "Ġëļľ": 8572,
      "Ġê²©ë¦¬": 8573,
      "ê°Ħëĭ¤": 8574,
      "ê²©íķľ": 8575,
      "Ġê³łëł¤íķľ": 8576,
      "Ġê°Ģê²°ëĲĺìĹĪìĿĮìĿĦ": 8577,
      "ëħĦê³¼": 8578,
      "ĠìĿ´ëĵ¤ìĿĢ": 8579,
      "ë¯¸ëĶĶìĸ´": 8580,
      "Ġê²ĥìĿ´ëĿ¼": 8581,
      "ìĿ¸êµ¬": 8582,
      "ĠìĪĺì¤ĢìĿĦ": 8583,
      "ĠìĦľë²Ħ": 8584,
      "ĠìŀĲìľłë¡Ńê²Į": 8585,
      "ĠíĻĺê²½ë¶Ģ": 8586,
      "Ġë³´ê±´ë³µì§Ģë¶Ģ": 8587,
      "íĨ¨ë¦Ń": 8588,
      "ìłĦìľ¼ë¡ľ": 8589,
      "ĠìĦ¸ë¬´": 8590,
      "ë²Ķì£Ħ": 8591,
      "Ġë°ķë¬¼": 8592,
      "un": 8593,
      "ĠìĿ¼ìĽĲ": 8594,
      "æĿ±": 8595,
      "ë¦¬ìĸ´": 8596,
      "Ġìĥģíĥľë¡ľ": 8597,
      "Ġêµ°ìĪĺ": 8598,
      "?\"": 8599,
      "ëł¥ìĿĺ": 8600,
      "Ġíķĺê±°ëĤĺ": 8601,
      "ĠëıĻë¶ģ": 8602,
      "ê°ĲìĹ¼ë³ĳ": 8603,
      "ĠìĤ°ì¶ľ": 8604,
      "ì´īì§Ħ": 8605,
      "´ë§Į": 8606,
      "ĠìĨĮëł¨": 8607,
      "Ġëį°ìĿ´íĦ°ë²łìĿ´ìĬ¤": 8608,
      "ĠìĬ¬ë¡ľ": 8609,
      "ìĭľë©´": 8610,
      "ìĦ±ìľ¼ë¡ľ": 8611,
      "ëĦ¤ìļĶ": 8612,
      "ëħ¹ìĥī": 8613,
      "æĶ¿": 8614,
      "ĠíķĻêµĲìĹĲìĦľ": 8615,
      "Ġë³´ìĺĢ": 8616,
      "ìĦłìĹĲ": 8617,
      "ĠëĨįìķ½": 8618,
      "Ġìĭłë¶Ħ": 8619,
      "íķĻêµĲë¥¼": 8620,
      "Ġíİ¸ìĿĺë¥¼": 8621,
      "ĠêµŃìłľìłģìĿ¸": 8622,
      "ëĵ¤ìĸ´": 8623,
      "Ġì°½ìĽĲ": 8624,
      "ĠìĿ´ë¥¸": 8625,
      "íķ´ë³´ìĦ¸ìļĶ": 8626,
      "Ġë³ĢíĻĶíķĺê³ł": 8627,
      "ag": 8628,
      "ç«": 8629,
      "é«": 8630,
      "ĠëĮĢíĶ¼": 8631,
      "ĠêµĲíļĮ": 8632,
      "åŃ¸": 8633,
      "ĠëĿł": 8634,
      "ëħģ": 8635,
      "Ġê²°ë¡ł": 8636,
      "ĠìķĮëł¤ì£¼ìĭ¤": 8637,
      "Ġë³ĢíĻĶíĸĪëĤĺìļĶ": 8638,
      "ĠìłĦëĤ¨ëıĦê°Ģ": 8639,
      "ĠìķĦëĭĪëĭ¤": 8640,
      "ĠíĻķëĮĢíķł": 8641,
      "ĠíĻįë³´íķĺê³ł": 8642,
      "ĠíĿī": 8643,
      "ĠìµľìĦłìĿĺ": 8644,
      "ìª½ìĿĺ": 8645,
      "ìĩł": 8646,
      "ê¶Ĳ": 8647,
      "Ġíĳľê²°": 8648,
      "ĠíķĺëĤĺëĭĺ": 8649,
      "ĠìĹ°ê³Ħíķľ": 8650,
      "íĸ¥íĽĦ": 8651,
      "ìĭľìĦ¤ìĿ´": 8652,
      "Ġê³³ìĹĲìĦľ": 8653,
      "ë°Ľìķĺëĭ¤": 8654,
      "ĠëĤ´ëħĦëıĦ": 8655,
      "ìĺ¹": 8656,
      "Ġë³´ëĤ¼": 8657,
      "ìĦĿìĿ´": 8658,
      "Ġë°ĶìĻĢ": 8659,
      "Ġë¬´ëį¤": 8660,
      "ĠìĿ´ìĥģìĿĦ": 8661,
      "ĠìĹ¬ë¶ĢìĹĲ": 8662,
      "ì¢ħìĿĢ": 8663,
      "Ġë§Īëł¨íķ´": 8664,
      "Ġê³µíı¬íķľ": 8665,
      "éĥ½": 8666,
      "è²": 8667,
      "Ġíķ´ì£¼": 8668,
      "íģ´ë": 8669,
      "ĠìĿ´íĽĦìĹĲëĬĶ": 8670,
      "Ġì²łê±°": 8671,
      "Ġë§Īëł¨íķł": 8672,
      "ĠìĨĲìĿĦ": 8673,
      "ĠìĹ°êµ¬ìĨĮ": 8674,
      "ëįľ": 8675,
      "ĠìĦłìĤ¬": 8676,
      "ì¿Ħ": 8677,
      "ĠìĭłìĨįíŀĪ": 8678,
      "ĠíĻĶìĪľ": 8679,
      "ê²ĮìļĶ": 8680,
      "íĮĲê²°": 8681,
      "Ġë©ĶëĶĶ": 8682,
      "Ġë°ĽìķĦëĵ¤ìĿ´": 8683,
      "Ġëª¨ëį¸ìĿĺ": 8684,
      "Ġìľłê¸°ëĨį": 8685,
      "Ġìĭľìŀ¥ìĹĲìĦľ": 8686,
      "ê³łìĸĳ": 8687,
      "å½": 8688,
      "ĠëĤĺìĿĺ": 8689,
      "ë°Ľì¹¨": 8690,
      "ĠíĻķë³´íķĺê¸°": 8691,
      "Ġìľ¤ë¦¬": 8692,
      "ëŀį": 8693,
      "ìĦ¼íĦ°ìĻĢ": 8694,
      "Ġì§ĳíĸīìŀĶ": 8695,
      "Ġê·ľëª¨ë¡ľ": 8696,
      "Ġë³´ìľłíķľ": 8697,
      "ìĤ°ìĹĲ": 8698,
      "ì¤Ģëĭ¤": 8699,
      "TX": 8700,
      "AP": 8701,
      "ĠìĨĲìĭ¤": 8702,
      "Ġìĸ»ê³ł": 8703,
      "ëĭ¹ìĭľ": 8704,
      "ì§Ģë©´": 8705,
      "Ġêµ¬ë³Ħ": 8706,
      "ĠìĥĪê²¨": 8707,
      "ìĺ·": 8708,
      "ĠêµĲìľ¡ë¶Ģ": 8709,
      "Ġê°ľê´Ģ": 8710,
      "Ġìĺ¤íĶĪ": 8711,
      "ĠìĦ¸íĥģ": 8712,
      "Ġê¹Ģì¹ĺ": 8713,
      "ìĺ¤ê³ł": 8714,
      "ĠìłĦëĭ¬íķĺëĬĶ": 8715,
      "ëįĶëĭĪ": 8716,
      "Ġê¸°ê´Ģê³¼": 8717,
      "ĠìĪĺë£Į": 8718,
      "Ġíķ©ëıĻìľ¼ë¡ľ": 8719,
      "ĠíķĻìĥĿëĵ¤ìĿĢ": 8720,
      "ì§ĢìŀĲì²´": 8721,
      "Ġì§Ģë¦¬": 8722,
      "ì²´ìĻĢ": 8723,
      "ĠìĿ´ë£¨ìĸ´ì§ĢëĬĶ": 8724,
      "Ġë³´íĺ¸íķĺëĬĶ": 8725,
      "ĠëıĻê¸°": 8726,
      "ĠìĿ´ë¦ĦìĿĢ": 8727,
      "çĻ": 8728,
      "ĠëĮĢìŀ¥": 8729,
      "ĠíĥĢê³ł": 8730,
[...]
